memory_initialization_radix=16;
memory_initialization_vector=
c74,
11e09,
150af,
111cc,
131cd,
10df,
3fc,
12c9b,
1b3c,
12607,
229a,
1f0a,
8a,
111d0,
343c,
391e,
1a1a,
1923,
21b1,
15dd,
1074e,
39fd,
4335,
42ef,
10208,
f93,
12988,
15709,
2196,
11ad2,
123c0,
143a5,
135e9,
283d,
1e52,
339d,
db2,
4125,
1028f,
10816,
427d,
2617,
22c3,
1c5d,
4f4,
122a2,
10e99,
2611,
12f7b,
1b5,
143c7,
13eb5,
16bb0,
12bf5,
110f0,
11d8a,
14eac,
12cac,
2cf9,
3449,
16575,
149fc,
24cb,
3b18,
129f,
13afc,
295a,
4205,
294e,
4414,
10bac,
3baf,
1bc1,
10360,
3e63,
12156,
b66,
2ef9,
2358,
97e,
147cf,
14b99,
13993,
12756,
129b3,
31f,
13eb8,
115ec,
13a74,
13069,
1036,
710,
2332,
3c87,
17b8,
522d,
3c0d,
10055,
1b1f,
1137,
129b,
125ab,
112ca,
247e,
409e,
12492,
a14,
113c8,
3c30,
e3b,
187f,
104bc,
122d3,
43e8,
10a6a,
14600,
12c54,
a16,
2933,
35aa,
132dd,
1039a,
120bb,
3dac,
148a,
709,
16fc,
2c60,
11b61,
11764,
14cb,
d6f,
568,
40de,
377e,
dc0,
24ce,
36c1,
120da,
1bc6,
11121,
12952,
12192,
30,
12c52,
14cea,
13bb5,
13948,
10eb9,
10b4e,
