memory_initialization_radix=16;
memory_initialization_vector=
183b,
290f,
206e,
259,
4869,
1554c,
14349,
12e66,
478,
10039,
11f6d,
12c9d,
154c3,
1549e,
13cf8,
104f9,
10139,
98c,
128cb,
133e2,
7d1,
fcd,
acf,
34e1,
7f5,
12d26,
1430a,
12960,
1c77,
3f9f,
11b24,
6a7,
11336,
10aa,
4a82,
13b1d,
1049c,
1149e,
1439,
106b7,
14185,
13fc9,
10b6f,
44d6,
3ba0,
1440d,
27ba,
123cb,
30ff,
fd3,
1c2,
12422,
251,
318d,
ad7,
3cd7,
47fa,
1151d,
1ad5,
3f58,
11396,
1f57,
4b98,
3f0c,
1225,
10679,
1ef,
10750,
12cbf,
10eac,
12627,
13a4e,
13e1f,
136c8,
131f2,
400,
124db,
1ff,
240c,
3167,
10aa5,
1023e,
b8b,
13928,
2b63,
a35,
118a8,
14149,
1460d,
12ba8,
143c,
118b8,
e96,
1913,
19e,
4a0c,
2fbd,
11e10,
21f6,
11f71,
1082a,
2071,
3020,
1461,
13805,
1ee9,
2a22,
12529,
12221,
1667a,
111a3,
25e4,
107aa,
12f54,
12064,
1ffe,
12752,
114b4,
118c1,
4751,
9dd,
103b7,
2a4,
3d6e,
35f4,
14ce,
10f92,
13d53,
1dbe,
135,
3106,
42e,
137d4,
11af7,
1476e,
11c86,
21ca,
12959,
7a2,
10300,
30b8,
38bd,
36d2,
1a80,
1211b,
27c3,
207e,
2477,
9f,
228b,
