memory_initialization_radix=16;
memory_initialization_vector=
10b83,
1015c,
108b8,
106d3,
645,
10d61,
118d9,
11ee3,
10809,
11a5b,
10be5,
10327,
10e96,
1184e,
10c82,
105ab,
10418,
295,
1046a,
1066e,
10974,
9eb,
10d44,
10d21,
101b5,
d74,
10ab2,
140,
10e25,
8b9,
10c15,
522,
137d,
8ad,
1f9c,
29fa,
2e5,
10f3c,
10c71,
3f8,
7e8,
c08,
173c,
1ad6,
1f07,
2ae3,
11bd7,
108a7,
4f6,
10f9,
64f,
3fa,
100d3,
9d2,
1907,
189c,
10427,
1011d,
103cb,
dd7,
107ef,
65e,
10be4,
11780,
7fa,
10785,
10ae0,
708,
ad4,
15f,
10277,
564,
70,
10204,
841,
503,
9a,
a5e,
5aa,
e34,
ba1,
6aa,
1000d,
2e5,
627,
1024a,
83f,
26,
172e,
cbf,
122d,
1f3e,
a94,
fa8,
5e7,
1229,
1322,
114,
b6f,
102de,
1054a,
1080b,
3b,
29a,
78c,
107ff,
108b1,
10c09,
105f3,
105,
100fb,
76c,
769,
27b,
135e,
12ea,
c38,
9db,
452,
10c46,
108dc,
f7b,
17ee,
178b,
3fd,
c65,
fa4,
10186,
10c1f,
2e4,
a26,
fcd,
b95,
b40,
577,
14f6,
20a6,
36a,
636,
c40,
431,
173,
e19,
7e3,
437,
a8d,
128f,
11e5,
987,
40b,
105b,
1529,
203,
1172,
10fd,
1eb3,
1907,
f65,
100a7,
667,
f1d,
140f,
11e3,
1743,
4b4,
5a5,
4d9,
534,
9e9,
1f2,
ceb,
13fc,
ee7,
2a,
a1a,
367,
14fc,
9e7,
1000e,
21a,
a,
101cf,
15cb,
cdd,
8aa,
1086a,
8ed,
533,
10c9d,
10b13,
120,
10294,
10474,
160,
17c2,
17b0,
2d1,
10628,
10949,
10912,
105c6,
780,
a5a,
565,
5ec,
107e8,
31b,
10274,
10552,
105ce,
107be,
10313,
968,
550,
69f,
10731,
100d5,
1089a,
10e2f,
108ca,
10600,
16a,
6f6,
5b,
10554,
14,
437,
10288,
10218,
12e,
10b5a,
102f6,
10126,
10b86,
102c7,
52c,
5e6,
aea,
103e4,
1056d,
10af5,
108cd,
110cd,
1107c,
415,
77c,
8a0,
953,
100c7,
2e0,
4b5,
105c4,
1057d,
323,
83e,
102bc,
88e,
846,
64f,
10108,
889,
d2c,
4dd,
299,
9e3,
bad,
9cc,
224,
6a4,
10137,
8e7,
cd9,
aed,
10be,
20b,
c8c,
9b2,
51b,
10132,
102e3,
c8e,
13ea,
124c,
ec,
103ec,
9e6,
9b9,
a7e,
389,
10d6a,
127,
195,
6be,
98b,
8e6,
80f,
176,
10395,
104d7,
11197,
d41,
103b9,
102be,
10476,
10905,
4b2,
10bb4,
558,
103e6,
102bd,
622,
3ff,
15b,
10c65,
10ee9,
1028a,
109ad,
104b9,
101b0,
1ca,
10413,
298,
10790,
107bd,
1065f,
1035d,
10663,
100ce,
10408,
1069a,
1112d,
10416,
10bfe,
10cb7,
10797,
10c87,
10d58,
108e7,
5ad,
103c9,
1041f,
108ee,
11095,
10714,
10a70,
10c61,
10272,
1e4,
10100,
10000,
1090a,
10741,
620,
1021e,
489,
102ff,
97e,
a57,
10631,
690,
10c20,
106ff,
d8,
10690,
10d4f,
100fe,
5e5,
1e5,
106c5,
3df,
10c0a,
10469,
1067d,
10358,
104fc,
102f2,
108bf,
102bf,
199,
32b,
10551,
10201,
10498,
12e,
10040,
1045a,
eb,
2b,
5fc,
3f4,
a76,
2aa,
10387,
10537,
100c9,
18e,
27d,
420,
104fe,
1088f,
87e,
28c,
10df6,
101e1,
10292,
825,
128b,
11c3,
32b,
1099c,
47a,
5eb,
10832,
684,
102f3,
773,
102e3,
7db,
103f4,
106d2,
10543,
10794,
104cf,
101cf,
10671,
308,
fd,
df,
9de,
2ff,
1086e,
29f,
6d2,
c2d,
cec,
3eb,
6e2,
322,
1064c,
d25,
10597,
575,
8ea,
fa9,
fea,
e0f,
f92,
10b65,
10a16,
1105e,
100c7,
1083,
d36,
a43,
719,
68d,
d89,
10d5c,
10b93,
10db2,
10b62,
10713,
109f3,
10afc,
103fc,
b2e,
bfe,
1018b,
10207,
5c6,
109b0,
201,
10ae3,
34,
11002,
463,
10516,
10a23,
25b,
100a6,
178,
10148,
893,
569,
90f,
681,
97,
101ea,
6f3,
172,
2bc,
790,
97,
545,
3a4,
380,
7cc,
92a,
7c1,
10373,
334,
408,
10ad2,
52,
1072f,
536,
101e1,
53e,
2fb,
10543,
55e,
5d9,
10983,
55f,
1ac,
745,
103e1,
265,
100f6,
10064,
10b32,
231,
50b,
10496,
2cf,
10857,
10062,
66f,
21a,
10391,
11195,
1060d,
1021d,
10742,
163,
10001,
82f,
c15,
3c5,
9de,
10938,
10c0b,
1cf,
100d7,
10019,
84e,
56d,
1036c,
8ee,
10681,
10c34,
10ccb,
108b7,
10a0c,
10040,
6be,
1079d,
10209,
107af,
438,
3ca,
1054f,
10f52,
105d7,
1076e,
10836,
173,
1050f,
10525,
229,
9,
1051b,
af7,
10016,
10c95,
343,
a4,
d7b,
10494,
10090,
1031e,
105fe,
31e,
103ac,
821,
ce5,
100ba,
776,
73d,
ba,
1008c,
1010c,
74e,
101a8,
75b,
10029,
752,
107c1,
10471,
10b0e,
100b7,
1054,
1421,
5f0,
842,
bf7,
16d3,
100aa,
10090,
106aa,
e76,
10d6,
102a5,
388,
f17,
c76,
f34,
17ff,
1f0,
1078a,
a1b,
674,
104a5,
eb,
6ca,
db5,
1322,
10d3,
101a4,
101aa,
1001f,
10735,
10ae4,
10439,
10c07,
10a81,
5e0,
8b8,
7b1,
844,
270,
284,
764,
538,
10ace,
10936,
1032d,
1020d,
41b,
518,
407,
c21,
d12,
10589,
a9,
1025f,
33f,
55,
54c,
1042e,
10380,
1008d,
614,
1c3,
103ee,
6cd,
10285,
101ca,
104af,
101bb,
4f7,
c8,
e88,
10511,
10230,
10652,
255,
5e4,
10805,
1094d,
10d6f,
102e9,
1001c,
103b0,
10b29,
10493,
103ed,
10480,
104d1,
101fd,
f7,
105eb,
317,
108ee,
3d4,
10383,
1037b,
101f8,
1a5,
10a6d,
108a,
583,
944,
b,
102e9,
670,
86b,
2cb,
c1f,
a32,
f5,
823,
863,
19f,
845,
10528,
10b74,
1089f,
10080,
10b42,
11788,
10b8a,
ca,
5aa,
a8c,
1011b,
108c0,
1065d,
1049b,
1041a,
120bd,
1103b,
10e1b,
10014,
10807,
10bf0,
10422,
100dc,
10141,
10e0f,
12601,
1178d,
10464,
10e7f,
10f3f,
106e6,
1032c,
102f0,
10453,
10af6,
11ecf,
11f6f,
10a15,
10e68,
1055c,
100ab,
104b1,
107ed,
105da,
5b1,
10f3b,
109a6,
205,
10b70,
81a,
56d,
8f,
10223,
10253,
447,
113e7,
10c50,
137,
3f6,
18c,
1058c,
100fc,
10c2f,
11b,
17c,
10842,
10d7c,
109b6,
c28,
ac5,
102a4,
10054,
345,
105f3,
310,
8c8,
10a7e,
10d33,
10703,
76f,
8bc,
101c9,
8e8,
10a97,
1010c,
107d5,
10043,
4d1,
525,
1027b,
5a7,
4c3,
466,
1059d,
1024b,
fee,
645,
688,
798,
b0f,
21d,
6a8,
10530,
10460,
1035a,
da9,
826,
c5,
3fb,
f8,
107eb,
1036b,
10132,
107d0,
10300,
bd5,
412,
101bb,
1098d,
110bf,
106d3,
10a12,
103a9,
382,
10378,
1fba,
b53,
11090,
10c9e,
10f80,
10dab,
104c7,
1b,
103bb,
35e,
e4c,
10c67,
10842,
11088,
10e80,
10b54,
205,
10344,
100c4,
4aa,
158d,
2b5,
10c75,
11144,
10c2f,
10178,
105ab,
10156,
105a0,
10209,
11b3,
795,
1063a,
10448,
185,
10448,
7de,
81c,
3dc,
1a4,
def,
10552,
10b4c,
1015b,
101a8,
10997,
46c,
101b1,
217,
10a6a,
2768,
d74,
392,
1010a,
107c7,
10582,
4dd,
1059e,
104ca,
10a8d,
631,
1051c,
108e4,
74,
10111,
1046e,
149b,
12e0,
101cc,
433,
9d9,
10479,
2ae,
765,
673,
71a,
829,
858,
a9,
1002a,
1079a,
9d,
8e7,
105c1,
430,
4a6,
3c6,
1006c,
104f1,
101e7,
4b,
103d3,
31c,
228,
9bb,
10802,
20d,
277,
6b4,
218,
11362,
10fe9,
104ce,
3e3,
10140,
10fa5,
11085,
10908,
11197,
11038,
106ab,
10334,
12a,
10854,
110f6,
108a3,
1102b,
106f3,
10b03,
849,
10d24,
11056,
11066,
108a8,
10e44,
110b3,
10039,
10575,
105ee,
cd2,
109e5,
34e,
105ec,
117c4,
5ee,
100c1,
1b4,
10304,
101d8,
107d5,
10399,
563,
3c8,
10ad,
10f7,
6ea,
810,
956,
33b,
286,
10aea,
573,
10421,
bf6,
a99,
10674,
10491,
74d,
108a9,
10337,
10308,
10471,
10589,
100ee,
190,
109dd,
1087b,
48,
10096,
1058d,
10904,
103cb,
102b6,
10766,
52f,
4fd,
105e5,
559,
1065c,
5c5,
101cd,
624,
1051a,
357,
106ab,
10248,
5aa,
10613,
10295,
10637,
107e7,
34f,
1032d,
107c1,
797,
244,
102cd,
566,
206,
1c9,
1066f,
82,
10166,
1048e,
107b3,
101db,
5c0,
10025,
36e,
107de,
10145,
1da,
3c5,
107f9,
2e2,
3fc,
1039a,
4bc,
10502,
72,
10352,
101c8,
102db,
1a7,
10704,
104fa,
51,
27,
54b,
719,
108c6,
10650,
104c3,
1f8,
105b2,
162,
10465,
4d5,
108fb,
10532,
6e0,
10459,
1041d,
7c1,
1cb,
15f,
10982,
4e7,
192,
1003c,
107c3,
205,
957,
1035a,
1001d,
612,
680,
1fc,
10381,
2b4,
696,
5da,
10039,
425,
40d,
273,
184,
2,
479,
5ad,
10571,
101f7,
4e0,
1006f,
10830,
103c9,
64e,
106a8,
66d,
10458,
10303,
104d3,
5ec,
91,
108b6,
107aa,
10561,
c5,
107aa,
108c6,
59,
108a0,
103ef,
94a,
88c,
10728,
10949,
233,
1fb,
10196,
10784,
10221,
10587,
5b8,
10481,
1053b,
10464,
45a,
1086f,
107da,
4ba,
232,
10a,
103c6,
8ce,
34a,
642,
104c5,
10379,
10427,
107a4,
100a8,
109b9,
147,
105b5,
13e,
10669,
10808,
1018c,
105ce,
600,
e0,
610,
83,
3de,
101b4,
222,
1035f,
107e2,
1a7,
208,
3e4,
38b,
61e,
10419,
101ad,
10941,
10964,
10734,
10885,
614,
25d,
101c7,
187,
102df,
3,
356,
105ed,
5c0,
27f,
104be,
33,
5a8,
105fa,
10590,
10117,
685,
219,
5a4,
29c,
2f2,
10665,
59a,
37d,
100cc,
48,
10181,
1095e,
2b5,
493,
1bd,
101c3,
1046a,
726,
1023c,
10542,
5c8,
369,
639,
1021a,
3e7,
542,
1029c,
109c2,
10830,
1079c,
1db,
56,
718,
105d4,
10765,
1016f,
5fe,
105a7,
5c,
101b7,
10776,
10214,
10748,
101b0,
613,
10631,
106c5,
1e7,
10243,
103d8,
4b7,
9d,
683,
10080,
3c0,
10580,
108e3,
597,
10027,
1043d,
10941,
10291,
521,
381,
108eb,
107de,
104c7,
3cf,
10431,
413,
4ec,
57,
100b7,
10073,
10926,
103fc,
10512,
10287,
16d,
1059c,
105c3,
103aa,
10425,
7a,
1032d,
445,
101b8,
5c7,
10196,
10801,
10872,
10014,
107ee,
345,
10017,
58d,
10643,
10772,
10487,
100ff,
10152,
10795,
9e,
107de,
126,
10240,
1e6,
50c,
102d9,
1091c,
105dd,
1044d,
8ea,
913,
1091e,
518,
108b9,
101dc,
10802,
10a,
1027e,
10027,
104e4,
10184,
105cd,
23d,
1063e,
1093a,
611,
10476,
1051a,
43e,
88e,
286,
fe,
1045f,
103d7,
107df,
40c,
10708,
10142,
10859,
17e,
10682,
632,
10087,
103b5,
1067f,
50b,
10905,
104de,
1078e,
1016d,
664,
1094c,
101e8,
1084a,
10639,
cd,
106d1,
107d7,
59e,
1029e,
1dd,
1067f,
105e4,
35f,
359,
35f,
1007d,
10651,
10089,
106e3,
10425,
84,
244,
43,
4ad,
104b6,
1067e,
10793,
539,
402,
104ab,
e9,
1a1,
130,
10518,
60,
1e2,
1f0,
1040b,
3db,
1e3,
431,
4c,
468,
53b,
5ce,
388,
1047b,
106a6,
309,
41d,
10554,
10325,
1b6,
10325,
a4,
105b0,
286,
177,
105e7,
432,
88,
9e,
10286,
6a5,
105e9,
10484,
104c8,
10132,
101b8,
10598,
106fc,
10562,
682,
4d7,
6e6,
1069c,
104f0,
103c7,
10822,
1a,
7b1,
10372,
10532,
2af,
105f6,
3c5,
30e,
10491,
d8,
110,
105d2,
10173,
646,
530,
10855,
104a5,
15a,
1032a,
467,
104b2,
10706,
104dc,
3be,
52e,
100e0,
104e1,
10686,
10017,
2f7,
10190,
d2,
103b2,
ed,
10744,
177,
1000b,
1038d,
608,
34a,
1033b,
35b,
1097e,
1005c,
10665,
652,
443,
10690,
1003b,
23c,
10553,
535,
95,
1e0,
dc,
100cf,
1041d,
2c0,
10623,
10398,
10800,
10335,
2f1,
103a8,
31c,
105c7,
10504,
57d,
10851,
103ce,
87c,
10027,
101ae,
53,
10297,
1032c,
8a,
105b1,
106e9,
103d2,
10892,
22,
335,
10247,
10592,
103e8,
10283,
25,
105f7,
100bb,
61a,
84,
1049b,
10426,
1062a,
7e3,
6e8,
1e,
10416,
218,
677,
10318,
76c,
5cb,
531,
1040e,
65f,
90,
d2,
4cc,
2ad,
105,
1005f,
10971,
10540,
10191,
10239,
203,
10105,
3f0,
1056c,
10512,
1063f,
6ad,
106ea,
10358,
1063e,
3a8,
1096f,
103bb,
104e5,
1006f,
10587,
10524,
10664,
10934,
10235,
29a,
38e,
105dc,
670,
5cb,
360,
10176,
1038a,
12,
e3,
11,
103b8,
1005c,
471,
1021f,
10642,
10480,
1041f,
101ae,
7b,
10394,
10326,
5aa,
10726,
1065e,
1a2,
10729,
104c5,
1024b,
101f3,
26e,
682,
5b,
107a1,
10568,
10577,
1046d,
10305,
15c,
59b,
10183,
107bc,
108f7,
1083b,
10341,
553,
10043,
10f,
103d0,
89,
929,
c4,
10598,
575,
352,
10356,
451,
106c0,
100b3,
1035b,
104c7,
252,
42a,
109d9,
102b9,
10226,
101a1,
10139,
120,
bc,
101a7,
10145,
10627,
10578,
923,
6f,
8b4,
59f,
1020f,
10018,
2c9,
1065d,
107d9,
1039c,
100d2,
49a,
155,
102dc,
107f1,
1084b,
1d8,
60c,
17c,
19a,
543,
10590,
102a2,
10587,
4f3,
103c9,
58c,
1056d,
23b,
1021c,
471,
1008d,
4d4,
1aa,
3c0,
57e,
10338,
67d,
103bd,
184,
10257,
10674,
156,
10402,
102d8,
381,
107,
107ed,
101f1,
66c,
450,
337,
10717,
107f0,
10412,
287,
77,
14,
104c0,
657,
83b,
12a,
15e,
10035,
1047b,
10385,
37e,
5cf,
401,
49f,
6c8,
568,
29f,
106ef,
1030a,
10094,
10622,
2ea,
5d5,
108f9,
999,
7f,
34a,
551,
666,
10841,
519,
814,
1b8,
1063e,
10159,
995,
10,
221,
30,
10734,
5f9,
47a,
1018a,
1da,
1018d,
426,
108e6,
10319,
56,
e2,
10352,
ff,
132,
101d7,
c4,
73e,
1044a,
349,
105fe,
317,
22c,
10103,
23e,
10829,
1e7,
1087a,
24c,
443,
108f6,
2cf,
10722,
1002d,
106a1,
100e5,
1035b,
1a6,
104e9,
104e8,
1082c,
4de,
528,
572,
1039e,
1034f,
100b2,
101ef,
320,
6b,
105d7,
10000,
1010e,
104f1,
1027f,
47a,
51b,
4cb,
103cf,
1cf,
103f3,
1022b,
10705,
104ae,
102c6,
34b,
8f2,
10413,
35c,
98,
406,
56b,
4b6,
109a2,
490,
106ce,
10123,
1078f,
10050,
1d2,
10553,
102cc,
1054d,
108f6,
100f9,
3d3,
104b1,
51a,
201,
108e2,
107bf,
676,
108cc,
1032e,
10032,
172,
3c6,
8a1,
54f,
7a2,
10050,
104b5,
105b0,
10522,
10971,
6df,
10633,
582,
1058e,
105f2,
10152,
617,
100a4,
7f,
10333,
1048c,
16e,
727,
6b5,
53f,
63,
1f0,
1064a,
10028,
341,
108f8,
210,
10543,
357,
470,
127,
108e0,
108ab,
1061f,
1d5,
67a,
10516,
107da,
10842,
43f,
104ff,
101fd,
23a,
10818,
4,
1051c,
101cc,
10818,
492,
10133,
10118,
a1,
103cd,
2ff,
10903,
10699,
101d7,
100eb,
10418,
10191,
1081d,
10580,
1026f,
36a,
10539,
10416,
103fa,
10428,
617,
103cd,
10723,
144,
3ea,
3e1,
307,
10428,
10150,
2b9,
a24,
407,
5c9,
3aa,
106f9,
106b7,
10679,
bd,
6e9,
3c1,
103b5,
394,
103ff,
104ac,
1026c,
308,
10546,
10408,
10650,
101ec,
620,
101ff,
403,
101b4,
f,
105e6,
729,
493,
139,
53b,
106d3,
1c1,
22d,
103c8,
2d3,
165,
1062f,
6c3,
79d,
10287,
10814,
10760,
27a,
102da,
632,
963,
60a,
127,
10083,
15f,
1fb,
90,
102bc,
48b,
572,
260,
59c,
10888,
209,
10121,
104d3,
104d7,
1077b,
2fb,
53f,
320,
5cb,
5a9,
103de,
105ca,
100ca,
10317,
10096,
101d3,
1068d,
105fa,
10062,
24b,
1139a,
10e04,
106e3,
1167f,
104fa,
10706,
10741,
117d1,
107fc,
13a2,
1046d,
10cbf,
2d4,
104e0,
2bf,
10da8,
12b9e,
11bd1,
10e7b,
1167,
10fec,
11333,
4bd,
61a,
1015a,
1138a,
fb9,
b58,
e5f,
104b7,
10e6b,
104d5,
1068e,
8e5,
1048d,
11039,
179,
e75,
95b,
113e3,
113b6,
11221,
1081c,
4a,
10664,
12478,
101a1,
18a6,
a45,
11156,
10079,
100b8,
10790,
643,
1153a,
110d4,
301,
10171,
110f9,
1113d,
10028,
1078e,
d4f,
b84,
10ae4,
102ac,
1047b,
10804,
11153,
106d5,
8,
100f6,
8d6,
acf,
278,
103df,
1093d,
108f6,
10688,
10227,
100bf,
48d,
39b,
789,
91b,
cf9,
103a8,
603,
11c8f,
10f1d,
6e,
b,
ac1,
102f7,
7a5,
31e,
10b47,
10029,
10594,
10998,
421,
109e2,
1135c,
10550,
5f7,
1b4,
600,
656,
76e,
105ca,
10d97,
10146,
1079c,
102ad,
10623,
249,
1011e,
10030,
10592,
10147,
4fc,
109d3,
133,
1093d,
34e,
10349,
11332,
10bad,
111b7,
10cd2,
ba,
cc6,
981,
c08,
10123,
102b7,
10fa0,
115d8,
10eeb,
113ba,
10320,
24c,
3ed,
103a0,
10e23,
101ab,
10528,
1110d,
107de,
103d5,
14b,
7bd,
3c6,
1de,
17d,
11482,
112c6,
116ca,
10db8,
110f4,
10872,
378,
3a6,
2df,
a46,
10f74,
1072d,
10091,
101eb,
115,
10e63,
1195d,
1071e,
493,
10819,
10811,
1067e,
6c0,
fa2,
8ef,
3c4,
10498,
1019d,
10ba3,
10623,
441,
10308,
f42,
1330,
feb,
1081a,
10dc7,
10f76,
11459,
111b8,
10a48,
107a8,
aa1,
1233,
fb8,
5e9,
10797,
103ea,
e61,
14aa,
110b,
1201,
af0,
dc7,
1071e,
a8e,
10593,
10d46,
1044c,
2c4,
d3b,
5da,
4d3,
a8b,
9b,
337,
1038c,
10247,
1000b,
8df,
907,
a30,
c41,
72,
10818,
17e0,
7b7,
978,
415,
c4,
2f6,
830,
4d4,
347,
10d4f,
1342,
aef,
6c4,
9a1,
473,
a39,
10326,
10356,
10085,
10ab9,
913,
10182,
e99,
157f,
c07,
220,
1032c,
150,
10024,
1096c,
1025a,
1042c,
43,
e1e,
d25,
5de,
109b6,
10474,
101fd,
2ab,
5e7,
10f07,
108f0,
4f,
37e,
10201,
fd,
5b1,
106da,
5ed,
10096,
325,
10165,
10bf3,
10fde,
1055b,
1078f,
1025c,
14c,
10376,
f3d,
622,
839,
1035d,
11358,
1069a,
38f,
102ed,
54e,
6ad,
10f86,
113ae,
1115d,
1043a,
1368,
1a94,
b0a,
abc,
a94,
10539,
11050,
11363,
439,
1079c,
d04,
ffe,
1503,
1052,
2b9,
1102b,
1bc,
35d,
10384,
104dc,
f61,
e18,
71b,
93d,
1070a,
11613,
103be,
37b,
518,
5de,
8aa,
10391,
739,
10964,
1081d,
11bf6,
107ea,
10b01,
10844,
56f,
448,
2c9,
b65,
713,
111fa,
10943,
44e,
10a96,
1073a,
5d5,
dcd,
9f5,
953,
10293,
1027,
b5,
bf,
1014c,
2c4,
4f7,
cd1,
9f4,
41a,
1438,
2fd,
82e,
bb2,
10089,
42f,
1d,
71d,
108f,
b62,
82,
245,
10eb4,
10609,
2b7,
1051a,
282,
fee,
c68,
10285,
3ea,
10ed9,
1063c,
102b6,
104d2,
1013f,
98c,
bc5,
39d,
10a94,
10b2f,
11e,
10758,
11541,
109fa,
6b2,
7e4,
10043,
119b8,
1199e,
11474,
11b00,
104e4,
105e7,
307,
1007,
20e,
100eb,
3d,
10d85,
10bba,
11981,
1139c,
1008e,
d71,
598,
a5e,
854,
1c0,
10ef8,
10e59,
10ece,
117a9,
3b1,
23d,
1092a,
5ca,
1051e,
37c,
de4,
57a,
42c,
103cb,
10df7,
10a13,
10415,
107f1,
76b,
10071,
1138,
95a,
c95,
ce,
105ae,
10751,
10d0f,
2f7,
b54,
1024a,
ca9,
e30,
152f,
42e,
2e,
1052e,
103c0,
56e,
384,
763,
2fd,
ddb,
448,
366,
1075f,
105bb,
10dcf,
906,
12a4,
114b,
3d4,
29b,
2e1,
107b7,
10993,
1090d,
40b,
739,
f69,
6ce,
10736,
60,
10561,
10c15,
388,
14e,
1026f,
443,
9a6,
10594,
110c5,
11a67,
110e5,
10d2b,
10b27,
d9,
10b29,
101ce,
8e3,
d7d,
bfa,
539,
74e,
10549,
101c0,
106fc,
ae4,
9f4,
f16,
c73,
100a7,
632,
17d,
1065f,
422,
90,
33b,
5f8,
8ca,
633,
bd1,
6b8,
10590,
1089b,
10989,
106cd,
107f3,
54d,
700,
2f6,
1011f,
5a1,
10b2c,
10743,
793,
1071a,
1033f,
105ee,
9d4,
308,
aed,
721,
104c1,
10cdf,
10458,
1a2,
787,
67f,
80a,
f58,
1145,
110e,
851,
4e3,
11e,
2d4,
10327,
3b0,
6c9,
4ba,
d80,
83f,
1416,
629,
6b9,
10d03,
107a0,
1c7,
10168,
100cc,
1007b,
23f,
996,
3b8,
b6e,
4b7,
302,
104a0,
103be,
10471,
1063d,
10a95,
1120b,
1098a,
34e,
888,
7de,
933,
4e9,
103fa,
1056a,
107fb,
10dd3,
10243,
10393,
b1d,
1194,
f2f,
9df,
106b0,
10214,
1029e,
100b5,
388,
151,
cd3,
5a0,
1ab,
101b2,
10e67,
109f1,
10813,
1098c,
10c71,
c20,
287,
10553,
10e3c,
10670,
11103,
10748,
10e48,
10e42,
10dee,
cbc,
a06,
209,
33e,
134,
1066a,
10490,
5e3,
10cf2,
10c09,
3b4,
be1,
75d,
c33,
10c6,
70b,
132,
8a8,
580,
b9,
10322,
2b4,
707,
648,
d20,
4e4,
108a,
f82,
d88,
fa7,
10b04,
10aa1,
1033c,
a91,
11e9,
948,
da,
13d,
795,
225,
107a1,
111c0,
111f9,
10272,
c3d,
834,
1082,
8a3,
b50,
10528,
c5,
88,
10305,
1079d,
102b0,
10942,
aa2,
10061,
301,
109a7,
6a8,
592,
3cf,
40d,
44,
106f4,
100ab,
10114,
10e77,
2c9,
10e5c,
1067e,
10349,
110ff,
38d,
6a9,
a93,
2ad,
1bd,
101b4,
10f88,
11452,
10429,
10936,
1048d,
8f5,
17f6,
d07,
15a5,
159d,
1017a,
10e1d,
10523,
100c6,
10b7d,
c0b,
1153,
10b1,
145e,
109e,
10a97,
10bef,
354,
101ce,
107fb,
8e4,
d9c,
6e3,
11d6,
485,
306,
1057c,
10967,
10a85,
d9,
10120,
259,
10114,
108ba,
10990,
337,
708,
1be,
1045f,
135,
7cb,
5a0,
10642,
100ef,
10028,
661,
589,
10512,
10766,
105c5,
5af,
10316,
10026,
657,
100ef,
6a3,
c0f,
10d3c,
10a4e,
1020f,
49a,
10289,
1068b,
644,
10729,
5ca,
10d6,
107af,
100ad,
105d1,
544,
791,
101f9,
10563,
1097e,
10169,
1578,
811,
3b5,
490,
100d3,
1b,
108b9,
10165,
26f,
1769,
9e7,
108d0,
10d86,
172,
5f7,
21e,
e9a,
624,
a5f,
de9,
ca,
212,
10e9e,
402,
10b96,
1d9,
dad,
b45,
13f1,
1a43,
c34,
10a61,
3b8,
109f5,
10447,
100e5,
d90,
8c5,
263,
161a,
38,
4ed,
6ae,
5ab,
2e0,
4aa,
c76,
475,
62f,
570,
104ab,
b30,
70a,
92c,
33d,
a8f,
a8f,
a53,
10625,
284,
afa,
1a9,
331,
dc7,
2e8,
e55,
25d,
1077d,
10b4b,
1017f,
336,
902,
1080d,
b23,
10192,
3e8,
102c4,
102ac,
10647,
107a8,
b44,
8e9,
109e7,
106c0,
3e2,
105d2,
108ff,
102ba,
2bb,
1eb,
b50,
8d1,
1032c,
10819,
10548,
16e,
104db,
10288,
7f,
10281,
943,
42e,
1022b,
103b9,
2e,
3c9,
4c5,
2f3,
bee,
10a4e,
10c6a,
10374,
93d,
12e,
10808,
10f77,
10b56,
11170,
10c70,
1104d,
9db,
803,
102fe,
619,
6d8,
1043d,
235,
10321,
414,
1068c,
3e4,
4a,
968,
102ff,
10724,
441,
101c2,
1352,
83b,
2cd,
106a3,
104fc,
10b87,
10d6b,
1020c,
1038c,
f48,
15d4,
1053,
1067d,
119,
8c,
10daf,
2ed,
998,
1241,
2fc,
8ed,
504,
1b6,
10207,
1037f,
10d0a,
713,
273,
3b5,
4b4,
6f8,
10a56,
10205,
b74,
520,
10041,
570,
311,
804,
1381,
54a,
10402,
97c,
1050b,
10631,
10251,
40e,
d63,
26,
103dc,
10467,
11064,
bac,
256,
10555,
1080b,
1007a,
54,
10fb2,
10c5b,
10a64,
117b9,
d5f,
597,
75,
823,
c29,
766,
36a,
1121d,
10459,
10a0e,
10061,
1072d,
1000a,
2c9,
10196,
1028e,
2a9,
105af,
107b5,
10102,
5d3,
10958,
2a,
64e,
23e,
1080b,
1b0,
73d,
415,
11f,
10603,
10708,
432,
10518,
450,
10932,
100a1,
10062,
10424,
1e6,
10060,
106ae,
10695,
1017d,
50c,
100a5,
10649,
106e2,
101a4,
1029e,
107db,
51a,
391,
10132,
1001e,
cb,
105c2,
1060d,
538,
71,
10110,
10911,
76b,
10007,
39b,
2bc,
10041,
a0,
1078a,
10512,
533,
10237,
20c,
96,
521,
164,
10700,
232,
10766,
10152,
1043c,
10648,
599,
133,
46f,
8a5,
574,
c4,
10623,
622,
10443,
108a2,
854,
18f,
10681,
1040e,
532,
1040b,
697,
1051d,
100a4,
c7,
768,
10139,
783,
10444,
ca,
105a3,
258,
10985,
3a3,
10426,
37f,
246,
10026,
286,
1059d,
50a,
1ac,
100ee,
35,
10519,
1098a,
166,
10043,
10974,
10329,
be,
10330,
105a3,
561,
108f1,
509,
41b,
1030e,
10494,
103b1,
10736,
1007d,
5f,
104f3,
1057c,
103ea,
216,
1e8,
10755,
f0,
355,
103f9,
ae,
10071,
109a8,
105e5,
10630,
ff,
10889,
1032a,
2cb,
10213,
585,
10656,
10008,
103bd,
1027f,
10254,
10364,
10217,
5a4,
102e5,
1011b,
10104,
10193,
1033f,
255,
316,
10652,
59d,
101d2,
21e,
5e3,
10739,
108f9,
520,
50,
10138,
10857,
2cb,
102d3,
109bd,
107ed,
1039a,
107de,
10375,
10575,
106b2,
107f0,
10611,
1018d,
3d3,
1032a,
2e,
10620,
10598,
26f,
100c6,
388,
53c,
1027f,
99,
30f,
35c,
10533,
17b,
3c6,
10742,
204,
2bb,
1098d,
105c3,
2b2,
564,
10536,
57f,
112,
10941,
10916,
4cf,
10683,
10484,
628,
10300,
102d9,
31a,
25a,
10373,
101f6,
10929,
428,
10923,
304,
10821,
3b2,
10704,
10671,
10072,
10197,
10999,
105aa,
103ce,
10958,
580,
63f,
321,
588,
6ae,
569,
101f9,
183,
1040c,
3d4,
3ac,
b3,
102a8,
ed,
981,
106ad,
1059b,
101a4,
102f3,
10711,
51e,
584,
100e9,
5af,
30c,
10277,
106c0,
579,
417,
106a5,
10848,
55,
10263,
1021a,
10208,
101f1,
1013d,
1057e,
22e,
63f,
10473,
300,
8,
107b0,
1003c,
10884,
10455,
100d5,
4d7,
159,
3be,
10706,
15f,
109a0,
10743,
10928,
e0,
108fe,
1093a,
104cd,
10849,
5ee,
1027a,
2d1,
1c4,
103ba,
4f8,
1079c,
3ad,
1036e,
429,
10510,
10671,
344,
10546,
10195,
46a,
4c3,
105e5,
658,
10243,
6ac,
102f2,
1013e,
109a6,
112,
101cd,
338,
10864,
1038c,
104a8,
1032b,
10540,
10182,
103ce,
1002b,
10492,
56d,
2b4,
10992,
761,
9ba,
e2,
10626,
416,
10937,
1030e,
10494,
107d6,
105a0,
208,
10484,
1ce,
25,
105f3,
101e9,
105d9,
366,
5a7,
4be,
475,
35e,
1003e,
1083e,
10386,
898,
9c7,
1043e,
4d5,
65d,
1048f,
104c0,
be,
4df,
60c,
10439,
1aa,
3c8,
34,
1004a,
1c2,
10424,
10329,
1029f,
10017,
26c,
249,
473,
10245,
1087a,
1ad,
505,
10605,
11c,
10355,
10782,
102c9,
25a,
2d7,
24b,
2b8,
105ec,
109e8,
104d8,
2b2,
3d1,
919,
3dd,
24e,
376,
27e,
106f6,
10885,
593,
10222,
61b,
671,
100c8,
170,
168,
2bc,
189,
10435,
25e,
10084,
10923,
4b6,
1fa,
57f,
103dd,
10221,
1061b,
101bd,
107ee,
10828,
315,
10241,
33d,
1068e,
10333,
84f,
b5,
102db,
109d3,
100fc,
107fa,
8dc,
1021e,
104ce,
109bd,
104d0,
104d2,
108e7,
10632,
1e9,
460,
6b0,
3bc,
108c6,
10220,
24e,
105f1,
1038e,
107c7,
2c3,
119,
100ea,
549,
625,
10718,
10295,
100b1,
295,
30e,
31,
109a9,
6d,
104c1,
5d7,
10911,
1054b,
10065,
10368,
594,
10634,
c3,
1081d,
64e,
10137,
198,
162,
103fa,
445,
2ac,
416,
102cd,
103eb,
10995,
382,
105fd,
10936,
556,
1c1,
10610,
6e,
1093a,
50f,
1bb,
5db,
101c9,
5ae,
1025e,
1062f,
103f5,
3b7,
10798,
106e6,
1067a,
10722,
9e,
10633,
53d,
1048a,
237,
107b6,
1088a,
47e,
104a3,
41c,
10951,
1001a,
100bb,
15d,
2d9,
d,
29f,
5a3,
101bf,
10533,
106ed,
101c6,
534,
5b,
107a5,
10698,
102a9,
1cf,
102fe,
5af,
3a4,
10497,
1002b,
160,
102ba,
10566,
605,
345,
62b,
8ef,
103c2,
1082a,
10736,
102b6,
1056c,
10b,
105fe,
3aa,
10445,
36c,
100a3,
106da,
10918,
10602,
10186,
10315,
443,
102e7,
104a3,
378,
101b6,
10607,
1093c,
58d,
1048b,
2ba,
10700,
46d,
106ad,
1075c,
100a8,
1057c,
369,
10087,
104f0,
10897,
1b,
5e0,
10076,
107e4,
107c6,
10473,
10913,
2ea,
48a,
648,
38b,
102c9,
100ab,
564,
109bd,
108fb,
408,
4d9,
10096,
44c,
3fb,
102f0,
4b4,
17e,
106c1,
9b,
4c2,
1c9,
367,
2ff,
106ef,
375,
33b,
108ec,
104fa,
187,
108d1,
2b,
101dc,
10093,
29e,
35e,
10162,
430,
1059b,
43b,
d2,
103c2,
39d,
1010a,
145,
47e,
26d,
106bb,
239,
124,
371,
23c,
100f5,
103de,
10626,
1091f,
173,
95,
10972,
67c,
8d5,
103af,
474,
10537,
10797,
1051f,
10697,
107e4,
1088f,
1035a,
10658,
102bf,
9c0,
10127,
158,
db,
10776,
1015b,
10209,
103e8,
453,
5e1,
100f6,
10891,
10636,
10775,
593,
3,
10893,
5c8,
401,
10126,
1083a,
10631,
101ad,
420,
17a,
102fd,
103f8,
104b5,
349,
167,
1015a,
100bb,
1063a,
243,
1091b,
1002f,
10480,
1043d,
1080b,
1039c,
10861,
1027c,
102c3,
1033d,
669,
705,
105c9,
4f,
1ae,
10660,
433,
5d7,
1058c,
1fc,
10915,
1bc,
122,
10387,
439,
5ab,
10024,
1b,
3ae,
10575,
510,
4b0,
10074,
34d,
10413,
35,
757,
1bd,
d8,
1072e,
2b4,
10d,
5ef,
105f7,
1c0,
174,
e8,
57b,
430,
10466,
10260,
18d,
469,
106e9,
1020a,
69b,
92d,
107de,
610,
1083d,
1a4,
10059,
106a2,
1099c,
1042f,
100aa,
102bf,
109c3,
580,
1049d,
10131,
10383,
101e9,
100f7,
10458,
10273,
10136,
108ab,
1b8,
103b1,
103e7,
106bc,
10597,
1013b,
10049,
10463,
1048a,
459,
10583,
1007f,
98,
10a,
1007e,
415,
10339,
1ed,
1046f,
10608,
2cc,
30c,
c0,
589,
103f0,
330,
102cb,
1005a,
1083a,
bf,
60a,
10626,
10186,
40a,
215,
105e4,
5cd,
48b,
184,
106a6,
245,
507,
1b6,
2f1,
10181,
1028d,
103a3,
10417,
33c,
1064a,
45e,
1012b,
1042f,
10916,
292,
4fb,
101a1,
105a7,
10206,
10543,
257,
1027a,
105d3,
425,
5ab,
23c,
106d9,
36b,
10644,
65,
3f,
10692,
107e9,
101ed,
1018c,
608,
382,
450,
529,
10590,
515,
10232,
1002e,
10345,
10211,
102e6,
10325,
10115,
280,
19,
1012e,
1022e,
1080d,
262,
10943,
90b,
1b7,
108a6,
139,
10810,
309,
101bb,
105dc,
106e1,
655,
1039a,
104d3,
2cb,
10300,
143,
1047a,
1035a,
10961,
65,
105dc,
101ce,
106cc,
10241,
26a,
1041e,
1c1,
915,
864,
102ee,
8d4,
5fe,
10454,
2b0,
10374,
104b8,
1036a,
1b4,
107ed,
10889,
644,
10892,
105d6,
3d2,
10681,
10416,
10443,
104fd,
614,
64d,
10862,
10348,
1054d,
34a,
107b0,
56e,
418,
1016c,
10302,
10346,
10156,
650,
104c8,
106f3,
1087a,
1010b,
46a,
1036e,
59c,
140,
10352,
44b,
100,
104de,
6d3,
4aa,
103fc,
734,
341,
10653,
2be,
104e0,
2ac,
20e,
1030f,
10261,
106b8,
10242,
1097f,
104e1,
105a3,
1061b,
8cc,
2ef,
558,
540,
104ad,
182,
49a,
5b1,
10924,
471,
10692,
108,
37,
4a6,
3d9,
63a,
6f1,
57,
189,
10931,
603,
10576,
10835,
10615,
446,
107ad,
109b2,
10386,
105de,
ae3,
103c4,
10306,
108f3,
514,
110a9,
10280,
10d84,
10ed0,
1515,
324,
1b,
1031b,
102d4,
aba,
11566,
14,
11135,
102e5,
ea4,
bda,
48b,
1dd,
7b4,
101cf,
11f84,
11323,
12055,
100e6,
1e7c,
a8f,
88,
56d,
10bff,
10eb6,
1168d,
1040e,
1052a,
1d20,
1242,
1000c,
104bc,
10d54,
10d17,
10a68,
10b74,
100d1,
1129d,
182a,
798,
cb0,
10ac7,
10c4f,
110d3,
fc4,
11213,
111f6,
12247,
10188,
870,
69,
10d33,
1023b,
102b0,
e35,
a42,
104cf,
108b7,
350,
9a5,
10bf0,
10800,
1082d,
bf,
775,
108fa,
11947,
101d7,
1c37,
f8b,
104df,
11193,
10066,
1e4,
10184,
11a3c,
10fa8,
1000e,
a2c,
110a,
113b1,
10b83,
10703,
10212,
10030,
10719,
11229,
10bff,
cbe,
f60,
165,
104b2,
10d58,
1004a,
109f4,
1034e,
103b6,
940,
10007,
101a6,
b97,
41f,
10066,
3f7,
1063c,
10625,
10066,
10a56,
711,
d47,
107fd,
1058c,
1121e,
10a69,
110ff,
105c2,
1de,
97d,
b0b,
ca1,
10bf4,
11203,
1114e,
1057e,
113f5,
11103,
ac6,
16ab,
6c5,
10050,
106db,
18b,
3e4,
d16,
13f,
43,
6a8,
cf7,
102a2,
10b04,
1020e,
10d09,
10010,
10185,
11f96,
118df,
10580,
4b7,
524,
10593,
101b1,
4ea,
1077c,
10246,
11615,
1011c,
10334,
10ab2,
10012,
400,
c65,
c1d,
f89,
102f2,
10152,
223,
104c9,
10853,
10236,
264,
464,
124f,
cc9,
1024,
617,
db4,
10384,
109cb,
10b89,
1019d,
6c5,
a63,
b65,
75c,
106b2,
1175c,
10caa,
10359,
854,
10102,
11739,
115fc,
1037c,
10338,
5e3,
c5f,
a3a,
101fa,
10307,
628,
10294,
10cfa,
10c35,
1b8,
88f,
1e9,
595,
8a0,
c42,
7dc,
10191,
10dfc,
10d03,
5b1,
599,
51,
fef,
115c,
fd4,
29f,
10ae4,
117a3,
10e7f,
1016d,
a0e,
aa1,
dc2,
65,
870,
10010,
11153,
105fa,
103e1,
10320,
396,
409,
66d,
5b,
1043d,
3d7,
115a0,
107db,
105d6,
10905,
10d17,
6a,
1020e,
102c5,
1070a,
104a0,
e,
1086c,
10a10,
10aac,
10ab6,
6dc,
498,
11195,
1040f,
10597,
107c5,
10536,
33d,
103d0,
6ac,
217,
10563,
10d82,
105c6,
10b28,
10671,
2b9,
235,
eb2,
1181,
406,
10304,
10f59,
10c47,
1017a,
1034b,
45b,
bde,
eec,
a0a,
59b,
13d,
3b0,
10643,
42b,
10df,
157b,
850,
4f6,
10f91,
1011a,
24b,
69a,
6a7,
fed,
100a4,
10cbc,
112e3,
100b6,
1078c,
1023c,
314,
bac,
102c5,
70f,
2d7,
100f9,
10571,
8f3,
11d7,
86e,
be,
429,
983,
109a,
a8b,
a9e,
14f2,
1573,
69a,
12a,
730,
715,
f2c,
ea2,
e49,
952,
1572,
431,
110f4,
10d23,
104d4,
106a4,
515,
10ad5,
d8e,
7a4,
10307,
10097,
10cfb,
3ce,
9fc,
1008e,
10263,
10e56,
10094,
4f0,
1013b,
10144,
10639,
1007b,
d0d,
10105,
10ba9,
1073a,
10311,
786,
10480,
99b,
1017f,
10a04,
10203,
103d6,
b2,
11373,
441,
997,
a28,
10100,
10a5d,
10845,
61f,
c58,
10138,
10c16,
107e8,
5a3,
10104,
589,
1de,
321,
16f9,
10d7,
c7e,
10b99,
dbc,
2fe,
10613,
b1c,
a70,
b2b,
14c0,
1002d,
5b1,
10086,
103f5,
10a00,
625,
996,
1030b,
1007f,
1103,
a3e,
10b29,
10f5a,
10602,
10555,
1fa,
1b9,
dde,
612,
114e,
a1c,
10954,
10c3a,
7ae,
95b,
102c2,
542,
1060a,
10b58,
1c6,
7c,
10c3a,
10a15,
804,
10772,
1042e,
27b,
10415,
1047d,
34a,
1008e,
928,
d6d,
1016b,
1091c,
10035,
be4,
10aa0,
101f5,
ed5,
1150,
876,
fb8,
726,
173,
7f7,
10c78,
102fe,
1013d,
9b9,
16c,
1068f,
10d9a,
1058c,
1ff,
1059a,
10800,
108f5,
7d,
102a2,
10806,
1068f,
10e39,
1014b,
1061b,
10b10,
1069e,
10017,
677,
fc1,
b8f,
54e,
ce,
2ad,
10a1c,
1080d,
324,
ccc,
524,
1096,
eba,
4d3,
104c3,
109c8,
2dd,
10621,
49d,
1c8,
10163,
975,
36a,
f1c,
99d,
1060d,
32,
10d31,
10032,
555,
af7,
101fa,
62c,
10a0d,
107a5,
101a2,
108ed,
10077,
ab1,
10000,
103a0,
10527,
10583,
10835,
d1,
bc,
1db,
10420,
f55,
5ca,
5ed,
61a,
10586,
107d5,
1063b,
5ac,
10143,
2d2,
1030a,
1012e,
c4,
100e9,
10854,
10e15,
100d7,
68f,
284,
5be,
101e8,
10449,
20b,
10299,
101a4,
10180,
6b2,
48,
a74,
9ef,
17b,
1027a,
50b,
10965,
10ab4,
10899,
10cd0,
106e0,
1f2,
103ca,
d9,
1018f,
10867,
10e5e,
106bd,
10a27,
108c7,
10813,
104f8,
7c3,
10062,
491,
d27,
a63,
a63,
158,
18f,
42a,
102ef,
106fc,
1058f,
10522,
736,
9f5,
477,
10048,
10604,
2c8,
11179,
132b4,
11b26,
102e4,
167d,
119c,
df4,
a69,
bec,
1144f,
11504,
11095,
10f88,
1070a,
bdc,
1618,
b9a,
421,
a75,
107ca,
426,
522,
4a9,
106c0,
368,
31a,
100a2,
7ae,
861,
10941,
10112,
1022d,
7da,
103e6,
cf8,
28f,
420,
1027e,
1083a,
10541,
3c2,
104f0,
10633,
1031d,
81c,
107dc,
10ab6,
1130f,
1061e,
10551,
10581,
10c8e,
1025f,
110f0,
17d,
10506,
11f,
106e3,
76e,
66a,
41f,
10716,
1089c,
10590,
50a,
10a2b,
10767,
106ca,
101c7,
100b7,
181,
107fe,
10af2,
60f,
463,
108e8,
101de,
104ff,
11160,
7e6,
10068,
19f,
1191,
ec0,
b11,
28c,
24e,
1024d,
3cc,
97f,
26d,
18,
56b,
102d1,
e35,
ac6,
34f,
a9,
aef,
10ea9,
10173,
11169,
485,
1083f,
102de,
109af,
10930,
10614,
116,
10920,
4c4,
10ccd,
106d3,
104e0,
107b4,
af,
16d,
11e,
1081a,
10a92,
104,
10dd7,
10e27,
10809,
70b,
1015d,
ca,
10677,
10117,
948,
101f1,
62d,
6ae,
879,
6bb,
105fe,
10dc1,
10ad1,
fd7,
9e0,
414,
881,
55,
a62,
4a8,
10ad3,
13a,
10905,
e4,
609,
2ba,
a38,
dc4,
288,
106a2,
10633,
1b4,
338,
109d6,
107e2,
51c,
e2e,
48d,
9e8,
10270,
10226,
770,
103cf,
741,
290,
231,
b4,
10433,
831,
ea,
102eb,
10157,
29c,
6d,
99c,
72b,
a2,
10a09,
24e,
ee5,
1008c,
107d3,
1008a,
1ef,
107f1,
10514,
2a0,
10c9d,
e2b,
10057,
879,
d9,
109c8,
23a,
12257,
11650,
3a1,
10223,
201,
e1,
972,
851,
b8a,
64d,
1148b,
dc,
1176,
cc1,
207,
1007e,
5b0,
40e,
3d9,
858,
10f5c,
4d6,
1030a,
634,
7a9,
16b7,
1086,
8f6,
102d1,
991,
122cd,
1144e,
10008,
10647,
84e,
136d,
aa6,
7e2,
10642,
523,
11e90,
10b87,
108e7,
55e,
f01,
12f1,
10814,
4cd,
10360,
27,
11257,
10bf2,
10e51,
e2d,
156c,
571,
10c82,
1020d,
10d95,
10920,
112f2,
10d2a,
3c4,
b6e,
758,
10176,
105cc,
105a2,
1091b,
1063d,
110c0,
1072a,
cf0,
72f,
9c6,
1021a,
1aa,
2bd,
1058f,
10214,
109e3,
104a2,
986,
394,
10f7,
4c2,
303,
83f,
2d7,
106cf,
1095c,
10411,
4df,
732,
caf,
675,
361,
4b2,
109ce,
105a1,
10d41,
1034c,
802,
313,
614,
73e,
780,
a08,
7a3,
585,
10d7b,
10731,
1039c,
7de,
100e4,
103d4,
101d2,
10c67,
10e6a,
10e11,
1090d,
106cd,
ab2,
648,
1075e,
10330,
10af2,
110c4,
10cec,
1080e,
105bd,
103c3,
599,
265,
10cbe,
1097d,
101e1,
10fed,
1105e,
10395,
1a5,
648,
63,
10ff6,
10626,
cb2,
57e,
1069a,
1017c,
cd0,
106ad,
39,
9b,
a7f,
951,
c04,
105c4,
3af,
11364,
103ae,
a7,
8aa,
335,
10280,
796,
11c,
10d55,
11107,
11399,
10718,
e6,
10373,
14c,
101cd,
f1,
10bd5,
100b8,
166,
239,
bfb,
34e,
10285,
10638,
103f9,
36b,
10566,
f7c,
1149,
a3d,
1217,
1042d,
10848,
105c8,
10c9d,
3d8,
4ff,
533,
423,
a03,
10672,
687,
f4b,
10115,
1086d,
1194b,
11aed,
101c5,
1aa,
10649,
6d,
ab1,
11a,
a2,
10248,
10abb,
11663,
10bd6,
297,
10c3c,
1039b,
b9a,
107c2,
295,
105be,
82b,
106c8,
a08,
1033e,
bb4,
1f77,
141,
10a72,
10340,
106a1,
10ce1,
10636,
1055e,
107a1,
e80,
10248,
104ad,
102ee,
486,
11264,
11db1,
1064b,
f8,
10d00,
166d,
304,
2,
1f7,
1029d,
10988,
11794,
10a8d,
d8,
a5d,
1e3f,
116fa,
5c3,
1073d,
8f0,
103da,
11073,
47f,
763,
a1,
1327,
102ca,
10881,
11148,
10290,
10e00,
10aff,
110a0,
103bc,
10bcf,
1ed1,
b59,
10b3c,
1128e,
9ff,
1096b,
10bd6,
1117f,
10daf,
1d6,
68c,
5c0,
10a0a,
10f55,
a53,
10717,
10adb,
103f6,
105c8,
9b8,
100bf,
88f,
16d,
17b,
26f,
107,
1083b,
100d5,
741,
8b2,
1038f,
1034a,
240,
101ab,
c1,
1408,
154d,
17f2,
a8f,
148,
955,
4f7,
10b77,
10a09,
105e4,
10406,
257,
bd3,
853,
e16,
bde,
10021,
1057e,
106f8,
1039d,
ed2,
107b,
181,
d5e,
bb3,
814,
108d9,
10bd9,
10d36,
1063b,
d43,
8ff,
10408,
10113,
85b,
935,
109d1,
108e9,
11289,
10893,
38,
748,
1080e,
1006b,
91c,
299,
10b8a,
10182,
114c1,
10bec,
10ab0,
10442,
a5e,
1e7,
109c5,
115c3,
10996,
10133,
5b2,
102e9,
10383,
4b1,
6f8,
10535,
1120c,
10f6c,
10724,
bbb,
1329,
10922,
422,
103b2,
103a7,
1010f,
10647,
10b27,
2ae,
9b,
55d,
101f7,
10a78,
10bd3,
11198,
723,
2b4,
ab,
7a9,
101a2,
56c,
814,
948,
11c9,
411,
2c7,
68,
7ca,
107c,
104b0,
1012b,
251,
1039a,
ec4,
615,
129d,
9e1,
235,
5b2,
1064d,
10a14,
214,
a77,
de4,
b97,
e58,
373,
9a2,
c61,
10f79,
10318,
10037,
102d3,
5d,
76f,
331,
c08,
103b,
10a,
111b5,
1051a,
a2f,
10647,
10c7e,
138,
2b8,
860,
104ed,
1001b,
11206,
100d3,
69d,
63,
14,
10bd0,
10ac1,
10899,
10919,
10570,
10586,
378,
8a9,
5d7,
251,
107d3,
10a72,
10f13,
10840,
10c00,
1102e,
191,
62e,
248,
1ba,
100b2,
100f8,
17,
10b11,
10595,
10b1c,
10a7f,
59f,
77,
10a,
10833,
10369,
106d7,
10552,
10485,
105d7,
1022f,
289,
10927,
330,
96a,
1035a,
104df,
10c14,
1010f,
85f,
65b,
8be,
10b04,
10bbc,
103bb,
cf0,
918,
904,
1046b,
758,
31b,
95,
257,
7a6,
320,
39a,
3a7,
701,
67c,
3a1,
39d,
544,
919,
7ab,
828,
a3a,
f59,
ceb,
c27,
138e,
aa8,
4b4,
cd0,
81c,
120,
10119,
b81,
1317,
f21,
43f,
1d2,
709,
10a7d,
1063d,
105fe,
85d,
4a0,
187,
54,
7ba,
da0,
10e6e,
1061d,
106e6,
50,
1048c,
1078b,
10174,
10631,
10375,
308,
107aa,
538,
68c,
298,
160,
105df,
1091a,
10b41,
10186,
10228,
100fd,
93c,
104ba,
10683,
10c8d,
6e5,
1082a,
10aad,
546,
841,
7a4,
10068,
1ac,
10305,
2a1,
a3e,
10842,
10326,
10649,
101c6,
1026f,
38c,
92f,
58c,
447,
102ea,
109a7,
104a6,
76,
10ca5,
103d2,
293,
eea,
10329,
10fd7,
10dee,
10e0d,
374,
100f5,
10003,
100ce,
100a4,
6b7,
1059a,
724,
b8,
10016,
484,
10215,
354,
106a5,
10172,
6b8,
10b94,
103f8,
10110,
77,
1037b,
5b7,
51b,
101bd,
105b7,
10270,
146,
4a7,
10343,
17c,
105a3,
1036f,
10861,
10d41,
10ed1,
507,
106b1,
10cb1,
107d8,
b1c,
914,
7e3,
59e,
106ef,
105ed,
f6,
107fd,
664,
ab9,
b7a,
378,
f68,
1025a,
451,
109f3,
233,
297,
40b,
1039d,
981,
203,
66,
29a,
ba,
1046f,
1a1,
ba3,
260,
d2a,
256,
517,
1063e,
103f9,
43c,
1d4,
3fb,
d8,
2aa,
1c6,
44a,
1c,
10094,
10874,
2be,
33b,
504,
160,
859,
102bc,
800,
68b,
1075a,
182,
3c6,
10bee,
106dd,
10102,
10090,
264,
10374,
338,
405,
3f8,
cbf,
706,
504,
1272,
1035d,
1015b,
1019d,
31b,
8ea,
10377,
260,
acc,
6e1,
59a,
1057f,
551,
a1a,
64d,
9c,
100aa,
59f,
635,
61b,
10386,
ac6,
bb,
5c,
10549,
8cb,
dee,
10061,
102ba,
10762,
10666,
10178,
10031,
1003e,
57a,
100c,
592,
10091,
269,
bf,
108ba,
71f,
4f2,
100ad,
10a28,
1023d,
5d1,
50a,
93d,
107f6,
105d2,
422,
10217,
2ce,
11275,
38b,
10c76,
1057e,
d89,
a1a,
10769,
102d0,
10877,
10be2,
11074,
10939,
10a92,
97,
1043b,
10005,
434,
103c1,
db,
1ed,
10d2c,
1ce,
102cf,
36f,
10a25,
7ed,
aa3,
10026,
6ff,
1032d,
10295,
54f,
10884,
1127e,
108eb,
530,
c35,
337,
c7,
de9,
710,
3ea,
111ee,
1098c,
a16,
139c,
a80,
648,
2fb,
e09,
10a0,
11140,
110ac,
73b,
23e,
10792,
106e2,
10bc5,
102a0,
327,
80f,
1120f,
1112c,
104fd,
18f,
11d,
104a6,
130,
100dd,
1c3,
107,
103ff,
10b02,
1017d,
3dd,
10599,
80d,
104e1,
10176,
1095b,
10024,
10230,
90,
3a,
2df,
100a2,
103cb,
10275,
103d9,
7c5,
472,
8db,
670,
109e5,
103ff,
c4,
1c3,
51d,
f6a,
29,
10254,
10771,
376,
10258,
10195,
167,
106d9,
737,
1036f,
10509,
103be,
10615,
10ab7,
67,
10096,
17e,
ceb,
a6f,
878,
9d6,
10244,
6d9,
10799,
10826,
10151,
100b7,
100c,
70d,
101cc,
10add,
1034e,
10bc3,
40f,
10430,
376,
448,
48,
1084e,
103e6,
100a3,
a7,
28b,
c5a,
7ad,
22,
10468,
297,
170,
2c0,
54a,
103fd,
14ee,
14a,
9c1,
10510,
10d4e,
1055d,
208,
307,
5be,
896,
167a,
15ad,
2b3,
96a,
107dc,
8c6,
87f,
3a9,
c1d,
9ca,
1345,
f33,
2b4,
101d2,
10879,
10648,
86c,
de6,
af3,
6d9,
8c1,
f98,
b01,
d1,
11072,
104fc,
5c4,
450,
ad,
994,
45a,
909,
90c,
21e,
10528,
109cb,
103c0,
849,
86,
373,
1097,
d53,
5a6,
c25,
20,
10be1,
106d1,
1df,
10165,
10d22,
edd,
12f4,
3aa,
10762,
103b9,
108a9,
10ded,
112fc,
10b10,
113b9,
d41,
991,
71c,
b0d,
10365,
184,
f22,
223,
100e8,
11164,
104a9,
1084e,
10467,
105d7,
104a5,
b14,
232,
af1,
156,
ae2,
10a99,
1f2,
24d,
102c2,
4e2,
ce3,
284,
8b2,
7b2,
e5b,
110b8,
10b4e,
115,
461,
d30,
afe,
bc8,
9ef,
3f5,
b41,
11426,
4b0,
b9d,
10122,
9a1,
59b,
2f,
5c8,
21,
10015,
10db6,
e6,
835,
3b3,
1054,
581,
5c,
103ae,
4aa,
168,
10f2b,
10229,
b49,
a27,
1b2,
51c,
10342,
10149,
39a,
5b,
10bd6,
1037a,
868,
e56,
103de,
145,
5e,
10abb,
10415,
119,
10c8d,
1026e,
3a8,
958,
104a4,
a6f,
549,
10bd8,
10473,
10f71,
10cfa,
48,
9d9,
884,
b89,
a47,
99b,
1037f,
1066d,
11293,
11f05,
104db,
109d7,
10709,
4c4,
1046d,
4e9,
10eb8,
10aa4,
10aac,
11302,
103e1,
208,
10249,
a5b,
3ca,
10a1e,
105d9,
140,
10563,
10122,
1004b,
1019c,
555,
531,
10b69,
ad,
1a,
104da,
1176b,
10159,
102a7,
477,
527,
109e1,
10a83,
29f,
10006,
109f6,
1084c,
959,
10264,
106ba,
38b,
103b0,
adb,
107e3,
253,
100e7,
11ab,
12b3,
fcf,
10428,
10568,
45d,
445,
1bc,
10338,
dd9,
108b,
acd,
226,
829,
10395,
1032a,
1073c,
1039f,
10004,
24b,
1111,
9df,
d6,
3f4,
ce,
10114,
1018e,
1035b,
1038a,
a56,
681,
10bad,
4b5,
7ca,
10851,
10835,
1013a,
5f1,
9bb,
393,
cfa,
10647,
358,
1013e,
32c,
10565,
10002,
c3,
10282,
10b97,
10537,
401,
47,
1045b,
686,
270,
101ea,
10f2,
10a82,
10444,
1155d,
7c7,
4b1,
37e,
535,
10486,
102ea,
11078,
114b5,
11d38,
11101,
e5d,
93,
10b7a,
10066,
1071b,
112c8,
10fc7,
11669,
1279b,
101d8,
bd0,
10102,
103b1,
211f,
308,
12780,
11909,
1321e,
12c19,
11736,
108a7,
11d9b,
10809,
dc4,
9f5,
11f88,
115e3,
13199,
125d9,
110db,
12582,
11701,
10eea,
a56,
10167,
125a4,
1229a,
122df,
11528,
106a5,
11893,
114c0,
11775,
10612,
23d,
11c91,
1006b,
102b3,
b92,
dbd,
22d,
10236,
10b84,
101e5,
f45,
116d,
1901,
f44,
103d,
43d,
ca8,
102ad,
10837,
10267,
cfe,
1561,
15be,
10484,
1039e,
11e66,
10566,
28d,
105eb,
1035e,
9e,
f0b,
10d8,
107e5,
10f69,
bf7,
105c7,
3b2,
e6c,
1080f,
6f8,
15aa,
54f,
118d,
18eb,
1624,
25f,
108f7,
103eb,
10709,
105,
2e2,
10586,
443,
105,
6a3,
10e92,
10e0a,
11f7a,
11aaf,
106ea,
11995,
10ea2,
10e88,
105af,
10118,
11026,
11a04,
122f7,
10af8,
2e3,
256,
10cf9,
101a1,
104e9,
112bd,
351,
10241,
102d2,
7c1,
10db2,
11621,
109ed,
10b47,
1096e,
106cc,
1931,
15b4,
1101,
183,
1089c,
11145,
10551,
8e9,
696,
dc4,
eb9,
21d7,
231f,
1ac4,
10e16,
106e0,
232,
1226,
1795,
8a0,
1942,
18ff,
16e5,
d27,
981,
827,
c93,
160b,
e1f,
101d9,
2e0,
b67,
2120,
1c7d,
149c,
f8d,
102b3,
10a52,
11062,
10d18,
10224,
10d11,
1400,
16a2,
2086,
d77,
10f15,
113a8,
12065,
10da9,
10547,
1040e,
104ec,
10c25,
115da,
112bc,
104c4,
39f,
bac,
a48,
29a,
155,
389,
9bb,
231,
10093,
5d2,
3c0,
100df,
567,
1074a,
10bf4,
3a9,
10730,
c6,
3ee,
6d1,
52f,
10136,
10bda,
11536,
1065e,
1073a,
b1a,
de3,
896,
39b,
102a8,
10346,
55,
11bae,
10b71,
ef2,
1169,
1705,
793,
a7c,
105b4,
10663,
10b8d,
384,
1054,
e9b,
1115,
91d,
43f,
51f,
fa,
2ef,
108ce,
14e0,
184f,
133f,
66c,
101e6,
b5d,
486,
6b2,
45e,
106f8,
a6d,
1272,
14f,
10186,
25b,
c7a,
d04,
3ff,
10656,
10d59,
b9c,
cea,
25a,
1055e,
b01,
72f,
8ca,
6b9,
1084b,
1089f,
18e,
aed,
b0d,
a3e,
8f,
103ad,
101fd,
103ef,
10385,
107a3,
afc,
11ea,
cd0,
9f9,
34b,
6ef,
1050e,
100ea,
10605,
10663,
47f,
10149,
5e2,
133,
102f4,
dd2,
741,
4da,
53e,
38b,
101e7,
103a8,
136,
7c1,
104c,
935,
1260,
7bb,
61d,
10596,
af1,
57f,
1372,
1283,
abd,
1033e,
1076e,
10b28,
6a8,
5b5,
1c4,
18b,
155c,
ffd,
a3b,
1b7,
31e,
103b1,
101f3,
4fc,
11537,
103b0,
9fb,
d68,
1a0,
9ef,
5cc,
df,
8e9,
100aa,
11be1,
111cd,
10044,
13e,
89e,
1319,
71,
71a,
102f8,
10963,
11018,
115b6,
10432,
107f7,
4,
ae4,
d0,
10172,
106fc,
10c2d,
11410,
10c9b,
10550,
10864,
104d6,
10323,
10962,
105eb,
10d94,
10771,
10a51,
10069,
c2,
25b,
1002e,
562,
236,
3ab,
1087d,
1082c,
376,
105,
1061b,
10434,
4fd,
33d,
4e8,
1275,
101cd,
10c27,
10d15,
100c8,
f74,
100,
788,
cf0,
8a8,
6bf,
a38,
10658,
6e4,
3f4,
365,
b48,
384,
100d8,
103cb,
106cd,
b2,
10584,
81e,
339,
102d0,
10c05,
10deb,
111ba,
10024,
d14,
2f9,
1018a,
10174,
10af5,
10bfc,
10d9d,
109c0,
103be,
ed1,
dd5,
10a3,
d1e,
109b5,
10868,
1093f,
1008a,
101e8,
10da8,
343,
f24,
d55,
5be,
113e4,
10f67,
1037e,
1533,
10485,
10811,
10643,
11093,
11406,
10f34,
10e5b,
10e7d,
105a2,
bcc,
106e6,
10adb,
119ee,
11bc9,
10cfc,
1000f,
1051b,
11396,
10d14,
105fd,
9d2,
17d,
10bab,
10372,
10874,
10013,
6ef,
10858,
10a37,
3b4,
e39,
43b,
bf0,
10002,
449,
10042,
6f2,
101b8,
5ac,
a40,
12ea,
f26,
1237,
535,
1006d,
440,
496,
1091c,
10112,
c9f,
73b,
1078,
8e9,
1b3,
b8,
103c9,
c03,
100ec,
b0f,
1011f,
723,
3b4,
10462,
464,
10660,
10fe8,
b10,
2c5,
4a0,
61b,
62b,
10734,
10f4d,
1080b,
10645,
8bd,
574,
10af2,
884,
b3f,
3ec,
12,
24a,
48e,
95a,
b3c,
11752,
10703,
1017c,
77d,
d2f,
d08,
10cc,
5ba,
157,
1150f,
11270,
10b6c,
10f97,
77d,
27c,
9db,
27f,
27b,
11773,
110a4,
115d4,
11aea,
11495,
10afa,
10c4c,
25b,
10467,
10dd7,
10911,
1102f,
10dfd,
101cb,
100c6,
10b80,
1033f,
10b01,
10a4a,
10532,
10e0b,
10fcd,
f0,
dea,
39a,
10286,
107fc,
10066,
5,
1059d,
46b,
10240,
2c8,
584,
c26,
447,
628,
83d,
5ec,
2d6,
25b,
1032c,
105a4,
10952,
10146,
53b,
690,
14cd,
f64,
cd8,
102c6,
10339,
262,
11092,
10e9c,
10473,
10afc,
1026a,
971,
202,
299,
103b6,
bef,
36b,
895,
105d6,
1124e,
10375,
106dd,
1040c,
1034,
10a4,
14a8,
b1b,
a08,
c34,
3a6,
1039,
d78,
11b4,
a8d,
27e,
1aeb,
1dd1,
1969,
13ac,
c53,
1278,
a86,
120,
103c5,
1059c,
b5d,
414,
13d9,
1b93,
eb9,
9ee,
10d16,
103df,
10c1d,
10cdd,
11c93,
119bd,
1059a,
10084,
1008a,
882,
10685,
11160,
1158d,
1114c,
1197d,
11613,
10ea7,
10f74,
10e98,
11091,
10932,
108fc,
103bb,
10846,
106e0,
753,
7e,
5b9,
472,
10242,
306,
1036d,
d3,
10b77,
676,
46c,
350,
107f1,
102a2,
7ec,
1eb,
475,
2da,
10556,
10240,
23c,
10b53,
813,
68e,
735,
7b9,
5cf,
10c43,
109fd,
104b5,
1010e,
10847,
4c3,
b74,
6dc,
10147,
65a,
10493,
10284,
10c89,
100de,
10497,
bd,
11f6,
75e,
3d,
312,
1084e,
10ae9,
10182,
624,
39b,
7f5,
1b96,
14ee,
10b3d,
10dee,
110be,
104d4,
110a9,
10e69,
10afb,
100b6,
1221,
ab3,
c51,
108cf,
11629,
11040,
118a7,
11a4f,
10ba8,
1096c,
586,
9b4,
661,
73b,
10eac,
10818,
10d9d,
1195d,
10e4b,
112ab,
1031b,
3d5,
a1c,
14fe,
8f7,
db8,
a7,
10456,
10146,
10f3b,
10a65,
10112,
1bd,
ce1,
95e,
804,
f46,
5fa,
1010a,
10190,
10c1a,
10912,
2da,
8f0,
137,
10516,
103fe,
108d6,
436,
a2c,
102da,
10c95,
f8,
2e,
5b9,
105dc,
3e4,
85e,
a77,
7e8,
808,
ab4,
101,
cf0,
d66,
196,
d5f,
103ce,
7ea,
102d6,
100b6,
7cf,
423,
4c9,
b2d,
107e0,
121db,
11a4e,
105d0,
8b5,
56b,
c02,
171e,
1089,
107b1,
108d1,
119cd,
10bb0,
46a,
1203,
10d5,
148a,
dc4,
72,
10f3f,
10ddb,
10c9e,
10203,
8d3,
7a6,
966,
caa,
10413,
1001d,
10405,
10d6d,
581,
108f8,
3fa,
6f4,
9f2,
1003a,
4d8,
809,
17,
147,
3c3,
10368,
10541,
289,
6ec,
10a8f,
375,
2cd,
282,
48b,
3a3,
8b4,
9d0,
103b3,
5f,
104b5,
b2,
63f,
1004b,
a0,
11524,
53,
1002b,
1b0,
4fc,
628,
845,
669,
4f4,
1066e,
101cd,
b85,
102f9,
be0,
60b,
a73,
48c,
1079b,
10ad8,
13e,
10ca1,
44c,
8b3,
107d9,
c88,
204,
2a2,
100d6,
1030d,
1c0,
10491,
651,
180,
10238,
103b8,
104bf,
101da,
10568,
2c4,
10f9c,
644,
101c2,
101,
11226,
11333,
11178,
100f7,
100c,
8a3,
a9,
10871,
1014c,
107a5,
114fe,
10319,
6b0,
d69,
9d2,
10e63,
112b6,
10671,
11358,
10abe,
10407,
bcc,
341,
4a8,
100d3,
1272e,
12eb2,
1273e,
1204f,
110e4,
905,
10d8,
ca5,
10c0b,
11183,
11ddb,
1135d,
129a0,
120c1,
116db,
287,
7c2,
1100f,
11495,
1159f,
106cc,
10050,
10b02,
1057a,
107a0,
106da,
10db5,
10b71,
21f,
8b0,
d92,
dc4,
81e,
398,
10857,
10a05,
10680,
d7,
af7,
6e3,
6f3,
1254,
2f4,
1007a,
102c7,
348,
100d1,
94,
738,
c96,
113,
10b65,
100ae,
103d4,
106cb,
10067,
b7,
694,
10609,
627,
473,
1078b,
10512,
287,
10360,
1079e,
31e,
b1,
1073e,
105a6,
f7,
10365,
5e8,
cd,
58c,
1be,
2b9,
10884,
4f9,
104db,
301,
1038e,
10533,
10195,
5c4,
102a7,
105d7,
399,
107f3,
1022e,
10118,
10226,
10080,
100be,
10815,
10066,
10590,
7ad,
3b3,
1054f,
27b,
370,
10151,
10797,
10162,
1f7,
105b1,
1022c,
10200,
1054a,
10378,
106aa,
1099a,
1074e,
115,
33b,
4d6,
4bf,
101c2,
1032c,
1041e,
10062,
3e9,
161,
2e6,
147,
102a9,
bc,
10607,
66a,
276,
36b,
2cf,
62e,
6b6,
1053a,
5c2,
10177,
102ec,
10206,
518,
103dd,
10373,
1077f,
10178,
1086b,
2da,
105d2,
254,
106b1,
102a5,
101b2,
10305,
108a1,
59a,
1001f,
5dc,
10194,
101bb,
1056b,
2cf,
105e5,
10936,
589,
10754,
10118,
10853,
10395,
53,
100c5,
10344,
32d,
1078e,
10929,
10418,
1059e,
3ed,
1090f,
138,
10024,
1059f,
1037d,
4b1,
10940,
103b8,
1e3,
1a5,
1093f,
107cf,
342,
45c,
100ce,
16e,
10290,
565,
1081e,
28c,
1005d,
10416,
309,
105ba,
10622,
1079a,
1078f,
104e3,
10348,
1030e,
10309,
107b3,
5d,
1065d,
94,
442,
10143,
33c,
10514,
10960,
10257,
28c,
497,
103e9,
5e5,
4fa,
58e,
2ec,
1012e,
5d8,
10973,
9c,
10296,
13c,
1072d,
1062e,
382,
107de,
10261,
4b5,
643,
1027d,
10045,
55e,
10429,
1081c,
80,
10000,
1087f,
10061,
104ac,
468,
106f1,
10880,
10403,
10629,
103b9,
10288,
104d9,
103bf,
103a3,
106f3,
1076b,
2a,
103bf,
49e,
102f4,
651,
1081a,
315,
100d4,
10473,
246,
103e7,
104e3,
105b9,
10599,
5a3,
65a,
108ad,
10f,
1003c,
63f,
64f,
28a,
10517,
4,
22d,
ef,
10925,
41c,
107a8,
c8,
100b1,
108a7,
10201,
10641,
10120,
104e0,
10913,
4a5,
10725,
1099b,
108d4,
105c0,
103f0,
12,
1008f,
10849,
10731,
ad,
620,
10908,
52e,
10664,
517,
104c5,
101ea,
10235,
10916,
10395,
100f6,
1046d,
2e5,
638,
10798,
10745,
1044f,
2d1,
1089f,
1016e,
10400,
405,
350,
103ed,
107ff,
1083b,
10078,
343,
5dc,
1018d,
10177,
1063a,
2c9,
153,
1093f,
617,
4b1,
27e,
20d,
10259,
100ba,
71,
131,
1002d,
10348,
22c,
1094a,
636,
37f,
248,
4a1,
1010c,
104c5,
10178,
279,
10245,
19e,
1010c,
46,
10179,
606,
1055a,
566,
672,
107b8,
431,
10331,
608,
1021f,
537,
102fc,
1056f,
10724,
636,
a,
10380,
61f,
294,
101ac,
10575,
101ea,
22f,
448,
108a7,
3b2,
1027f,
415,
204,
24e,
d8,
1048e,
1039c,
10317,
346,
104af,
2ed,
105ca,
1084e,
28e,
3d8,
10479,
10642,
10952,
10522,
10356,
10153,
102b9,
10465,
64d,
1035b,
391,
3f1,
418,
1009e,
417,
523,
100d0,
108d6,
4e9,
3f6,
1000f,
1064b,
628,
643,
2b2,
100b3,
671,
1061e,
3d8,
108ff,
5f,
2c6,
1025d,
103b4,
3c,
1ad,
102d3,
102c9,
10258,
3dd,
63c,
108d1,
10644,
1053b,
2b0,
103e5,
10740,
102ce,
106dd,
5e8,
f8,
62d,
14f,
1094f,
10610,
1068a,
514,
10854,
10001,
100e7,
3de,
24e,
682,
5ca,
400,
158,
10043,
10246,
10773,
1085a,
621,
105bb,
10306,
1055c,
48a,
549,
22,
1045f,
12d,
1077f,
10849,
1c0,
155,
13e,
3e6,
18f,
10273,
a4,
c5,
100e3,
356,
106be,
10925,
571,
102b3,
6b,
100a7,
32f,
112,
108a5,
107f1,
10536,
10417,
10733,
103f7,
104a9,
10746,
1029d,
40,
5d2,
227,
666,
608,
103a5,
102c1,
103a9,
103bb,
10657,
1017d,
3e6,
631,
107bd,
bf,
102a3,
10486,
106f8,
1020c,
10924,
56d,
10924,
104a1,
10909,
10622,
10247,
1061a,
1fd,
1f2,
10309,
1ac,
10036,
47c,
102f2,
1dc,
42c,
1002a,
18b,
4fb,
10940,
1077e,
107ee,
101a9,
10173,
102b0,
681,
107b8,
d1,
5d0,
34,
10732,
107ec,
10846,
106de,
1062e,
106bc,
10505,
10941,
108c9,
f6,
5a,
103b8,
1028c,
10641,
10049,
38,
1075f,
104ca,
10571,
265,
512,
306,
107c2,
4d6,
1078c,
561,
103f0,
1018d,
4f5,
1d3,
10711,
102d8,
2d8,
1014b,
4d5,
3aa,
1090b,
100ef,
662,
102cd,
10927,
10892,
10000,
10332,
66e,
10975,
44b,
10894,
55,
370,
115,
101fc,
468,
11a,
56,
10a,
1083b,
654,
32b,
106c5,
100b3,
100a6,
1077d,
10769,
419,
433,
108d5,
105db,
10532,
4e1,
59c,
310,
102e2,
106ab,
586,
2ae,
104f9,
101bd,
50b,
103cb,
10214,
103ac,
221,
10344,
1af,
31b,
10743,
10343,
102c6,
10010,
1f,
10216,
1d2,
10498,
55,
361,
58f,
10405,
1073a,
2a2,
10656,
277,
10042,
9d,
1039e,
10272,
af,
7e,
302,
1094a,
10382,
102d1,
1ac,
10772,
103a2,
10617,
4e4,
18d,
1009f,
10527,
10299,
1030d,
57b,
10935,
1003d,
10778,
10638,
10852,
104ad,
10283,
1044f,
232,
537,
3ea,
36c,
1046e,
1026b,
102c8,
430,
108b6,
1092a,
310,
390,
73,
104ea,
222,
10356,
10475,
10100,
37c,
1070e,
108d0,
100e2,
30d,
107e0,
105dc,
1035d,
106ae,
10791,
3f2,
103da,
1063f,
10545,
b7,
102c5,
102f5,
555,
108ef,
1073e,
10242,
1012d,
10350,
10474,
1054a,
3c9,
10036,
608,
40d,
38f,
435,
5cb,
106bf,
10555,
e1,
1b9,
10770,
102f7,
10081,
1e8,
10317,
10380,
117,
10183,
10525,
10381,
317,
40a,
10,
1007d,
358,
2e6,
5b5,
104ab,
6b,
10275,
1005d,
641,
10650,
10569,
1044e,
10406,
10672,
10405,
65f,
10117,
10915,
10077,
1039d,
1097e,
fa,
1050b,
33e,
105f9,
5b3,
1015c,
1053f,
100d4,
301,
a6,
3f,
106b7,
1075b,
106fd,
1074c,
1040d,
10829,
105cf,
106ed,
5b1,
26e,
102aa,
541,
1aa,
1b2,
10467,
102a0,
10893,
3d2,
10843,
10904,
107c9,
4bc,
79,
49e,
10228,
106ba,
10036,
534,
10490,
102a3,
10175,
10628,
102b5,
101a7,
1022c,
656,
226,
549,
225,
217,
108f1,
10944,
1058c,
3f5,
101e7,
255,
1009f,
177,
107a3,
104c2,
4df,
e,
1085b,
10277,
470,
3ae,
103d5,
106dd,
1015a,
101c6,
101c5,
336,
1090d,
10160,
100a3,
108b1,
10551,
8a,
10449,
1026e,
10115,
357,
1030e,
102e8,
105b8,
10509,
4e1,
10896,
395,
107a6,
10908,
23a,
108d8,
10075,
103bd,
316,
107a9,
588,
10013,
1022c,
103d2,
10786,
1084e,
2c8,
103ec,
10599,
212,
104f8,
54c,
103aa,
106ca,
10478,
106d7,
1069a,
600,
1eb,
106b1,
367,
9b,
362,
2cc,
1027f,
142,
101b9,
1087f,
32a,
10448,
10397,
10158,
106a3,
106ce,
106ac,
10464,
101fb,
69,
1036f,
5e8,
106fc,
10116,
10257,
101f2,
1017f,
10802,
63c,
c7,
40c,
10903,
2e9,
2cc,
1045e,
a3,
107,
108f1,
36f,
36,
10952,
100da,
10544,
10354,
44d,
108aa,
1094f,
102fe,
10577,
108de,
10615,
26b,
66b,
4ea,
175,
53,
648,
1007f,
3c7,
343,
18c,
166,
10244,
44b,
106e8,
1a3,
10121,
1cd,
3f0,
10114,
3b8,
10189,
108da,
45c,
5f2,
3ef,
1005a,
104f6,
10537,
103ec,
102bc,
1042e,
10645,
10925,
10074,
100ed,
101b2,
375,
10111,
10382,
103f0,
102a1,
1096b,
2b,
5fb,
101da,
10300,
10386,
105da,
109ab,
4d8,
a7,
47a,
108a0,
60e,
62,
106da,
1d6,
10658,
105a9,
493,
172,
1095a,
54c,
2fc,
103bb,
100f2,
10486,
105f4,
107d1,
10111,
10283,
101db,
10651,
80,
42e,
1006e,
1017f,
103e5,
60f,
224,
10618,
108a9,
10099,
10123,
1038f,
10529,
597,
1014b,
3cb,
102c8,
3ad,
45b,
30c,
10648,
10071,
5cf,
1095c,
10535,
32d,
1089b,
2d4,
107f1,
cc6,
19b5,
ac4,
19dd,
1d94,
1bfb,
16ee,
e80,
10618,
26,
c77,
ac4,
109b,
2264,
1076,
469,
260f,
9a4,
b6,
1e,
2c9,
10e24,
10c9e,
1521,
1709,
2750,
2b9a,
10681,
101d5,
10140,
283,
11358,
ab,
78a,
dcf,
21a5,
10f5,
103c6,
10097,
e56,
15,
102b3,
26,
9b4,
179a,
1a27,
68b,
2a8,
31b,
58a,
129e,
10412,
216,
17d9,
102fd,
158e,
866,
811,
10355,
7ff,
128b,
10d6a,
121c,
10016,
10531,
f21,
62b,
907,
50c,
45a,
663,
cfe,
1783,
a96,
5c7,
81f,
11db2,
10921,
1557,
841,
cfd,
1034e,
fdc,
e4b,
baf,
84e,
118c1,
1044c,
c22,
2cf,
109be,
10cfb,
267,
10293,
108a4,
11cde,
1171b,
10664,
cc1,
ab8,
107a,
658,
f95,
eb8,
752,
569,
65e,
6d6,
aef,
11b7,
1322,
10539,
1084a,
732,
855,
aca,
b2f,
103d9,
af5,
16cc,
1548,
10f2,
cb0,
101e2,
3fc,
29,
2a8,
64,
2bb,
155b,
f28,
105a9,
7e4,
887,
10d34,
11208,
106e7,
106f2,
89a,
1017e,
10143,
a5f,
1045b,
72c,
1029a,
10380,
10d89,
10b12,
1034f,
1dc,
10883,
935,
15cc,
d12,
104a3,
10b3a,
10c45,
74b,
1040f,
10fb8,
1076c,
fa0,
194b,
58b,
96d,
8d,
49a,
e4a,
10570,
10f1d,
10b06,
975,
19a,
1045f,
47a,
15a8,
13b0,
d67,
10a69,
10c70,
1130a,
104b2,
108c0,
c0,
14e3,
1527,
16fb,
fc3,
107c4,
108cf,
10123,
bed,
137c,
13c5,
1f6f,
e44,
79e,
10251,
1eb,
100ab,
541,
4ea,
10590,
1048e,
6e5,
1002d,
10152,
ad,
866,
f9b,
aea,
696,
11021,
101ab,
103bb,
10bc1,
280,
108b9,
8dc,
e6b,
a1d,
6bf,
fc,
1069e,
108c5,
10a3d,
10587,
106f2,
1a7e,
143a,
71e,
45,
1101e,
10d63,
10c91,
11544,
10453,
518,
9b4,
957,
100e6,
10700,
103cf,
1110b,
11288,
10a23,
1115b,
993,
a42,
388,
9b,
294,
a30,
10d73,
110cc,
10bff,
2d4,
d74,
10158,
108db,
102a2,
b6,
10876,
11172,
1037f,
101,
788,
740,
107a1,
4de,
10604,
108fe,
10550,
10e5d,
10339,
487,
48c,
10c6,
1022c,
10cc7,
10f10,
108e2,
10828,
100e7,
67a,
6f5,
ea1,
b3c,
592,
115cf,
11271,
1114b,
1138d,
1000f,
5dc,
103ba,
521,
10189,
10c2b,
1020a,
1081,
1005b,
7b6,
37c,
10597,
1080a,
1039b,
105a6,
106bd,
10150,
10bf,
1031e,
d25,
c84,
1005f,
10862,
10332,
10f78,
1042c,
19c,
10770,
152,
726,
741,
10589,
106c7,
10ed4,
115cf,
10f34,
10c38,
10229,
10805,
476,
368,
262,
10fb4,
115e2,
10acd,
162,
249,
10315,
d4,
ffa,
53b,
10c9c,
1139f,
1199e,
1050b,
5d7,
105c7,
2f9,
51a,
764,
10f46,
10692,
113b4,
1094c,
360,
280,
51,
90a,
45d,
100b4,
10196,
10aac,
1003d,
62a,
1197,
229,
b4f,
3b2,
102a5,
3a3,
1027e,
a0,
1cf,
c47,
bde,
9cd,
b18,
101a7,
6a6,
e55,
aa,
4a8,
10b0f,
874,
ec7,
973,
766,
c25,
320,
16c,
105ab,
10c54,
100b4,
10155,
11ef,
917,
176,
265,
10085,
10349,
10b70,
fa,
106ed,
104f5,
6bd,
106a6,
1021c,
518,
104eb,
10020,
10746,
10733,
14f,
503,
b6e,
51d,
1049c,
102cd,
98b,
cd8,
1154,
10c5b,
109a2,
977,
9b7,
106aa,
1004b,
673,
55a,
9c4,
565,
103b4,
48b,
100e0,
100ee,
10599,
707,
1067,
f5f,
cd,
60f,
10c45,
106f9,
10922,
1070c,
475,
af7,
b2b,
61a,
e4,
1006e,
10490,
1033d,
541,
ba6,
e2e,
4af,
851,
7a1,
c6a,
100c3,
10322,
d84,
e47,
1b99,
2b5,
e0c,
335,
b77,
2be,
3f4,
acc,
645,
ea1,
1b40,
27d,
ec0,
138e,
1c4,
4e5,
71b,
1060d,
5f0,
2a1,
1037,
496,
d98,
93,
10656,
1038c,
10eae,
11384,
10a64,
107b4,
1072f,
1f4,
1b4,
1009,
a5,
5d,
1075e,
1ff,
104e2,
10b6a,
117f8,
1a0,
b1d,
10349,
67d,
6dc,
178,
40f,
103b4,
590,
105c3,
15b,
10560,
1040c,
4ed,
3e5,
a33,
336,
6c,
3a,
10b48,
10180,
1012f,
60a,
2b6,
140,
749,
104ff,
10944,
10d7c,
10745,
1013f,
287,
10549,
76f,
7f6,
10180,
10e63,
10b98,
7b4,
bc,
e6c,
1a8,
516,
d1b,
99,
18a,
101d3,
1075e,
1c2,
a7f,
7b,
10296,
375,
f6d,
1004f,
467,
7e0,
16e,
696,
ec7,
66e,
9e9,
aca,
5d4,
10276,
3d,
745,
e7b,
a4e,
12d5,
f11,
892,
1e7,
3b3,
6d,
10895,
862,
1209,
ff8,
1077,
33d,
351,
564,
1027f,
188,
146,
1009a,
104c4,
6be,
9d2,
b48,
17a3,
131d,
11d,
103f6,
11366,
111ea,
11137,
108c8,
10421,
5e5,
ac8,
fa0,
10143,
97b,
1090a,
11685,
10c51,
1059e,
104b1,
2dc,
32d,
991,
abc,
101c7,
10099,
10087,
10f71,
10f67,
11219,
10187,
16d1,
d4b,
10b5,
c7b,
64,
1105e,
11164,
10e2c,
10a33,
18a,
10592,
d8e,
336,
25b,
103e1,
b08,
15b,
10590,
148,
10c2d,
10090,
1007d,
7c7,
10141,
10219,
417,
d56,
7c9,
a26,
10804,
10a0f,
18b,
275,
abf,
405,
fd2,
109a,
10e5,
1ca0,
33f,
dd1,
9b3,
d4d,
779,
96b,
112a,
785,
b71,
2224,
152c,
56c,
1046e,
10077,
2b,
715,
102c2,
ec4,
1346,
f78,
b85,
5ce,
10047,
767,
d2a,
10754,
1055a,
104af,
c4c,
370,
100dd,
7f9,
9c5,
10367,
b5a,
490,
ecc,
10013,
598,
10065,
10691,
c85,
e78,
dc9,
d0f,
6af,
107a,
45b,
afb,
b29,
10719,
53b,
5c0,
a16,
ced,
e6f,
672,
e11,
ebf,
ab3,
106c4,
10784,
10f10,
b4,
10c92,
1c3,
c28,
968,
dc9,
10134,
761,
10d57,
10a5e,
10b51,
10416,
3ab,
75e,
b15,
f5,
3cb,
cf,
10731,
10d8b,
10f9c,
107fd,
dd9,
10a7d,
10cca,
2f1,
80f,
102b4,
103c9,
107ee,
10439,
1046e,
674,
10596,
140,
25f,
101c7,
ba9,
566,
10443,
106da,
10763,
10406,
916,
1021d,
900,
1043c,
1096,
3e4,
108b8,
10658,
724,
370,
ff,
2a5,
586,
43a,
60b,
1341,
ad5,
100b5,
3ff,
52,
1025b,
976,
ba1,
59a,
39b,
1047c,
16,
10281,
1002f,
10da0,
10b29,
f,
10546,
89c,
10454,
101c1,
10a91,
35d,
266,
108e7,
5b4,
78b,
293,
70d,
154e,
223,
10e1e,
10b80,
3a,
10356,
105e1,
17f,
10435,
10252,
120c,
1059b,
10858,
527,
109c0,
10dde,
139,
59d,
a10,
c2b,
4e0,
cf1,
581,
10bb0,
10ffe,
106c9,
10404,
83,
10543,
93,
825,
eb8,
a9b,
106cc,
10113,
94a,
71b,
529,
469,
692,
8e8,
1421,
a12,
10cc6,
103b8,
2d4,
108b8,
1089f,
10999,
292,
a5a,
745,
107f6,
10216,
672,
31b,
10cfe,
10b05,
3b2,
e7e,
59e,
916,
100ee,
1000c,
1063a,
111cd,
10f31,
44d,
14df,
1606,
99a,
10b09,
10ab7,
108c3,
112cd,
10f1d,
271,
989,
11ee,
4b2,
3ff,
587,
108f4,
1088b,
1073a,
10067,
10658,
10f48,
10091,
357,
3fa,
10472,
10422,
1af,
c4,
10481,
108e9,
6cb,
625,
a95,
9e5,
101bb,
553,
dbd,
1557,
1898,
76c,
10b8,
e55,
ded,
987,
1017d,
6e7,
751,
191d,
451,
100b2,
4e,
a92,
512,
77,
10863,
b24,
36c,
105b7,
10565,
10391,
31f,
10a7,
10091,
cf4,
360,
c31,
283,
10a0a,
4ad,
f7d,
948,
1008,
69a,
bb0,
455,
d3d,
6f4,
8f0,
f0,
182,
e22,
f5a,
be4,
e0,
8b1,
7b3,
507,
1054e,
4a9,
357,
70a,
20e,
1006a,
a4d,
96c,
ce5,
901,
60e,
762,
10313,
106ac,
1096b,
10a8c,
7f0,
c06,
ffa,
14c,
ca,
10004,
10479,
1102b,
10d1b,
2fe,
bd2,
10163,
10d32,
10ef7,
10fbf,
11b32,
116a4,
10cd0,
10c17,
101e0,
296,
105a4,
10d1f,
109,
343,
118f9,
117ea,
10a43,
1007c,
52b,
223,
111ed,
10217,
295,
44c,
10947,
10799,
2b3,
10270,
18ef,
107b5,
10a6e,
2c8,
f7,
10e33,
1035f,
10d59,
11935,
1b0,
1322,
546,
493,
6c0,
10d07,
113e8,
ff,
10deb,
108b5,
16f8,
b8b,
10353,
c99,
83d,
10560,
10aff,
e7e,
ae8,
13de,
156b,
1140d,
11033,
10c63,
16c,
26,
102e3,
10564,
485,
20,
10cc6,
10b50,
10952,
1066a,
1645,
647,
102d8,
10a5c,
107bf,
109f7,
105e4,
248,
101b6,
10c,
916,
8ee,
106a5,
106b3,
11e8c,
104c7,
1058f,
f8b,
9b7,
499,
d31,
555,
109a6,
10cab,
10191,
10282,
10226,
ca6,
1050d,
105fb,
101f1,
168,
56f,
139,
59,
556,
109da,
10981,
230,
10256,
728,
16a5,
945,
18aa,
23b5,
1aa1,
c99,
fce,
317,
95f,
1493,
24fc,
210a,
20ec,
186e,
12e2,
1b28,
dad,
53d,
773,
348,
172a,
1eef,
186a,
2cda,
1267,
1130,
e60,
10fde,
11682,
10933,
423,
24c,
102b9,
1b68,
1325,
173c,
76e,
10d8b,
106e6,
107f1,
106e8,
301,
101df,
10246,
9fe,
496,
1a8,
110d6,
10e6f,
1051d,
113cb,
143,
10130,
105cb,
11c92,
11911,
10609,
10614,
1fb,
10715,
11041,
3fe,
ae5,
f16,
10d97,
1008c,
101cc,
903,
348,
10c4c,
7a,
103cd,
1092e,
10838,
491,
18e,
10248,
10a91,
10a36,
2eb,
10841,
732,
c4a,
13fc,
5dc,
1035e,
d18,
118,
103ce,
102f7,
10122,
407,
10162,
537,
1023c,
1050e,
10a9d,
106a5,
10d23,
10867,
103ad,
1040e,
78a,
5be,
3b3,
3ab,
103c7,
106cc,
99,
c73,
5e0,
7cc,
101ef,
ae9,
1354,
af1,
440,
1084b,
5fb,
1fb,
a13,
10281,
cac,
13e2,
1431,
bbf,
1418,
1045f,
108b9,
4ed,
103f9,
10121,
7f3,
bcf,
e17,
e2d,
ab3,
105ab,
10f3a,
10138,
1082e,
664,
1e2,
105d0,
16a,
569,
5fd,
11c62,
10d3f,
10386,
102ad,
676,
10cbd,
106e4,
1d1,
106ba,
104d3,
11efb,
1101a,
100b0,
1018a,
107e3,
10c04,
103fc,
1000a,
10bd6,
437,
11bfe,
1064d,
10dbe,
107c5,
105ae,
101fc,
1b1,
10cc0,
10a0f,
1003c,
11574,
11401,
1196a,
111a4,
197,
9c,
123,
10392,
10afe,
108e5,
a97,
10460,
c34,
1085f,
10586,
10b88,
1031a,
103f4,
106d5,
10565,
996,
3c,
10270,
10a63,
10669,
10c07,
106e4,
166,
356,
e6,
2cc,
10118,
352,
10f29,
10fae,
102b2,
10361,
f11,
3ae,
102af,
30d,
100f1,
10840,
11165,
108e4,
2b,
47e,
ec8,
174c,
884,
571,
8fe,
10c58,
10adf,
104da,
100fe,
e38,
48d,
90e,
1dc,
304,
3a9,
483,
108f5,
1015f,
1101,
684,
8ec,
1a4,
34b,
7a6,
2fe,
3bf,
107fd,
103df,
1e3,
ed,
106e7,
9df,
80f,
472,
100e1,
358,
1061c,
cd,
496,
10aec,
104bd,
8c0,
6bf,
10b5c,
10056,
13d,
10adc,
102ef,
574,
713,
101e2,
101c3,
1077b,
10d67,
105fc,
44a,
1025e,
105f9,
1006b,
1039d,
10564,
1028f,
12d,
b70,
426,
1085b,
10418,
1105d,
8c2,
188,
103e2,
100e4,
10343,
40c,
103e2,
10dea,
10fbf,
1070b,
852,
1028f,
cd,
101d2,
3b3,
107de,
1085e,
102be,
10a41,
107ff,
43e,
d6,
10f30,
1096a,
414,
2a,
10076,
107a5,
10d1b,
10693,
67f,
10b5b,
1062c,
10b88,
101e8,
6f0,
42d,
621,
109e8,
51e,
bf,
10991,
11231,
107f7,
10931,
d2a,
d62,
aee,
25f,
101d2,
634,
106fd,
10d12,
46a,
8db,
477,
12fc,
10075,
10a66,
6f6,
bd8,
697,
266,
1845,
6f0,
101da,
1032e,
109c9,
10de9,
f18,
a34,
100f2,
6fe,
1dd,
81d,
102e1,
1076e,
1053a,
1012c,
ee6,
f4,
9dc,
105b0,
10342,
10597,
1080e,
495,
1a9,
846,
10116,
94d,
920,
65e,
108cc,
10c50,
104eb,
1bf,
ce8,
12,
257,
10394,
28d,
218,
10675,
10275,
4b0,
22a,
9c4,
368,
293,
101ae,
c54,
cdb,
916,
10279,
100ee,
1062a,
521,
1072e,
10064,
1074b,
75b,
2be,
3e3,
79,
10040,
cf3,
8fa,
10a74,
1069d,
10282,
32d,
46b,
1453,
17b9,
96,
100fa,
990,
10680,
102d6,
38,
102d1,
100de,
1f5,
216,
967,
a56,
198,
bc1,
36f,
101a0,
a45,
104df,
101b7,
312,
10520,
8cf,
100f1,
10066,
10424,
10a7c,
b63,
7c0,
907,
d94,
e5,
10d16,
6fc,
4e,
103ec,
31d,
aed,
1062e,
5c7,
163,
103d9,
10bbf,
108e3,
f0,
10017,
10554,
10d1d,
10c8a,
11068,
108d8,
1059c,
109be,
10c60,
106c3,
1028b,
1028a,
8c2,
50,
11098,
1183c,
a91,
1013a,
30d,
de2,
e66,
115c,
a8a,
c12,
cf0,
3d6,
100ac,
100ab,
1020b,
10e1,
18d1,
18ca,
1835,
12f7,
d04,
111f,
10efd,
10e65,
109ed,
fc,
103a4,
102a9,
1117,
a50,
66,
155,
10618,
10f20,
104cf,
10c2f,
6b7,
66f,
b6,
7aa,
95d,
1015b,
10b46,
10bee,
10455,
706,
10267,
1074d,
10afe,
4e,
f3,
115,
10544,
1467,
10135,
1050f,
10178,
104a8,
100ff,
23e,
938,
10251,
a14,
f99,
219,
3fb,
478,
10223,
c33,
ed6,
c56,
88f,
6e0,
8a8,
531,
1040c,
10758,
37,
834,
3a6,
4f8,
12d8,
10a6c,
108b9,
10ac5,
10c5c,
10a7b,
645,
102ef,
115,
e1,
2f8,
11394,
1147a,
1048f,
1099c,
101c3,
435,
fa,
10331,
10d3f,
10792,
1057c,
10050,
2dd,
278,
102d6,
c5,
10ba8,
10b79,
104fb,
1075a,
722,
9af,
7a4,
1074d,
107e7,
10bdb,
10c11,
3df,
10a7a,
109a9,
f0f,
d7b,
268,
ac,
10687,
10619,
107b7,
10080,
106a2,
10b3b,
180e,
d63,
10204,
16e,
10ca4,
108b9,
10143,
96,
5bb,
66f,
b99,
c4,
33b,
10a4,
1050e,
1053f,
104a9,
2f6,
b1a,
130a,
87c,
c06,
8ac,
63c,
10a0b,
1040a,
10073,
100f9,
10004,
185,
249,
41c,
27c,
101d2,
10bd0,
103ae,
580,
238,
613,
10590,
10709,
b6,
104b2,
1040e,
2f2,
26c,
458,
1085a,
7f8,
1026b,
10502,
10a35,
1038b,
323,
214,
10140,
109b5,
11291,
111a7,
10fc2,
109c6,
10610,
10d8a,
52b,
10102,
100bb,
1db,
103d3,
10a45,
10f00,
10593,
10ece,
1030c,
7b0,
a1e,
763,
32c,
10114,
10950,
10c13,
110c5,
110ce,
1033c,
3eb,
c74,
7d0,
50e,
4b4,
1028a,
10724,
113bf,
101a5,
1038,
bcc,
154,
5cd,
101ea,
102b0,
10420,
748,
104b5,
1127,
57d,
26c,
cb2,
104b0,
10718,
33c,
1023e,
1028,
573,
780,
1041f,
53d,
37b,
3ad,
f4,
bc,
3c8,
e3c,
1044d,
10233,
10013,
201,
10406,
107,
10585,
8f0,
291,
a81,
10ca4,
1028b,
1002a,
106f9,
10bf2,
635,
102aa,
10114,
103b2,
31a,
10dbc,
101be,
100a3,
1056f,
1000f,
527,
1023d,
102ab,
10c8a,
1d7,
108d8,
f0,
1015a,
10100,
10313,
7ae,
10706,
10962,
101c8,
104bd,
111b0,
10a42,
10ec8,
10a87,
103cc,
10a5f,
10351,
108a2,
11147,
10f0f,
1081f,
1006b,
10a20,
10a72,
101a2,
1013f,
101cd,
1003e,
10993,
10ac0,
57b,
8cf,
1090f,
10d04,
ada,
10227,
10703,
105b8,
103a8,
10fd0,
10471,
10166,
81,
10679,
85f,
100c9,
10c1d,
11238,
1051a,
10e03,
1012e,
107f1,
105bc,
1013f,
1f8,
1016e,
115a7,
1138c,
1084c,
10058,
4a2,
b19,
298,
a0d,
106f4,
10a80,
10f96,
10170,
4c1,
1344,
d33,
108c,
1269,
83,
10a8c,
108df,
10808,
92e,
527,
1b61,
5f5,
9cc,
2aa,
10669,
1033c,
565,
74d,
6ec,
1305,
5a7,
102e1,
445,
105c5,
11590,
10a81,
c40,
52d,
a3d,
bfe,
104a7,
10f91,
1022e,
1016c,
10003,
4de,
10311,
f3,
103b7,
1070e,
11706,
11240,
283,
105b4,
5eb,
10328,
147,
1010e,
10bc9,
10f51,
1174e,
101a2,
344,
662,
10941,
518,
1032c,
71b,
387,
100f8,
10019,
435,
1041f,
59b,
1090a,
677,
950,
1ed,
106eb,
25a,
10530,
2be,
225,
10858,
108a9,
594,
105a6,
1ad,
1ef,
266,
10695,
10140,
10181,
102d0,
238,
273,
217,
226,
10265,
1017d,
47b,
38b,
26f,
105,
10803,
104da,
1017b,
1034b,
591,
10672,
467,
10821,
672,
10256,
10796,
1000d,
105c5,
28b,
10726,
10283,
6f2,
10658,
521,
21c,
100a9,
1074f,
10169,
107bf,
1023f,
6b6,
100e6,
1085c,
2b1,
105ba,
205,
1014c,
105c9,
7cb,
1a4,
367,
3e6,
10737,
103df,
3d5,
119,
5c3,
2ed,
104d0,
86d,
8b9,
10851,
e0,
1052d,
21a,
101d5,
4e1,
926,
163,
3a4,
990,
1b8,
104be,
df,
3ae,
62b,
4d2,
59e,
105ad,
10375,
69,
106bb,
ce,
2d7,
1057b,
10471,
5c1,
19,
10854,
10062,
103ae,
1020e,
391,
1041f,
3b8,
317,
10031,
40a,
10113,
3d9,
104ee,
da,
dd,
895,
471,
105dd,
108f9,
1a2,
406,
2c,
100ce,
163,
3c2,
1026e,
108dc,
65b,
102fc,
5f0,
10811,
1053a,
10428,
5db,
1015e,
76a,
10771,
34d,
106c8,
39d,
209,
2cf,
10240,
47e,
10359,
2e0,
18c,
38b,
104fd,
10014,
52d,
256,
1077c,
617,
104a8,
6c2,
10005,
10449,
105cf,
34,
4ab,
10386,
3a7,
1058c,
668,
10626,
105ef,
675,
6ff,
10185,
10890,
11f,
232,
106c3,
1074d,
10056,
652,
48e,
10512,
10016,
63f,
db,
10027,
4d8,
1a2,
10040,
328,
2dc,
1039c,
e0,
1013b,
104d8,
103c3,
45e,
10203,
106dc,
10940,
101f8,
ba,
100ea,
661,
523,
10928,
1e9,
1022d,
1064c,
108e5,
1032d,
109,
10964,
102d6,
104dd,
10241,
102c8,
102d6,
1028b,
5c7,
10773,
490,
4e3,
25d,
10595,
106a7,
b5,
1096a,
52f,
3b7,
104b6,
329,
10077,
1e1,
24c,
30a,
10610,
1016b,
10001,
108b1,
40a,
10456,
106a5,
10888,
10043,
4a0,
1062f,
13a,
1078b,
10112,
101a8,
10424,
556,
107b0,
5aa,
101c6,
26b,
1025a,
107bb,
10766,
626,
1c5,
100a5,
1029b,
10149,
67d,
10118,
578,
45c,
1f9,
100ab,
546,
1062c,
1067c,
12,
100a6,
29a,
1011d,
10431,
8a,
1047f,
1069e,
592,
1091d,
106cc,
1025b,
10700,
411,
33d,
103fb,
1020f,
1e6,
3ae,
10088,
8d,
1002c,
103fd,
10249,
4cf,
100e5,
10247,
55f,
10358,
3fa,
120,
4cc,
1047c,
604,
1002d,
10565,
10376,
185,
363,
1031a,
107ac,
10295,
1004f,
10355,
1097b,
102f4,
6ed,
10776,
10490,
361,
10411,
3db,
33a,
2f,
479,
33,
107f0,
44f,
58a,
1023e,
10666,
53f,
10338,
1047a,
10169,
1030f,
10691,
8a,
1003a,
1032f,
83,
1027f,
105c0,
10540,
4d2,
650,
356,
1a2,
5,
10664,
10268,
10311,
264,
10648,
106a6,
101df,
106c2,
528,
108ea,
1a8,
34,
3d3,
433,
103ed,
1075b,
101fa,
1d5,
1001b,
103ad,
1029e,
479,
10898,
100af,
104ce,
1047a,
100aa,
13a,
220,
c9,
50c,
10942,
103b0,
101db,
3c1,
10684,
1f3,
101b6,
10135,
58b,
4f3,
1010f,
3d0,
104fd,
2a4,
2ae,
1089f,
1007e,
1020c,
10980,
325,
105f9,
9a0,
1043b,
1024c,
259,
10872,
106f2,
1084c,
1081b,
10150,
1069a,
10533,
10085,
251,
104bf,
62,
34d,
3b7,
1003e,
1fb,
100bc,
81f,
103d6,
5ba,
174,
5af,
3fb,
23d,
11c,
10646,
1038c,
1057a,
350,
10703,
2e7,
105d4,
2ec,
587,
105a1,
10279,
101b2,
1030a,
ee,
10670,
1089e,
8d6,
6d,
10027,
106e4,
103f1,
10193,
653,
40c,
107f7,
598,
10466,
197,
101de,
10159,
673,
10188,
50f,
103d7,
122,
10604,
106f8,
86,
516,
10962,
1a8,
10468,
102de,
1091d,
10136,
104e3,
1da,
2b9,
41d,
107b0,
1d8,
62,
41c,
748,
10969,
10958,
10049,
1080f,
57f,
4eb,
1032c,
1065d,
36b,
48b,
22e,
108c2,
1087c,
f9,
4b9,
449,
105c9,
103,
101ff,
27f,
10130,
10748,
10463,
5b3,
694,
10732,
12a,
4f,
10046,
270,
10760,
1070f,
10826,
12a,
1029a,
107aa,
1037d,
10331,
1039d,
10911,
12e,
1014d,
106d1,
10129,
4f6,
10928,
10876,
516,
4cb,
5c8,
10447,
1074e,
15c,
5e3,
10540,
104a9,
445,
10334,
103aa,
10420,
10995,
1d0,
1025a,
539,
10535,
10531,
1017b,
1028a,
10438,
106df,
396,
22,
1ea,
106ee,
10e,
10986,
15e,
10190,
10474,
10109,
10040,
1080f,
1020b,
5fd,
108dd,
10746,
102bf,
108c2,
1001f,
5fb,
639,
10911,
103af,
104e7,
388,
dc,
106a2,
101b5,
1007e,
10996,
1079a,
10405,
1081a,
10012,
107b9,
1051a,
101bd,
100fa,
4b8,
1008a,
1080b,
4e9,
107c5,
10612,
1022c,
10862,
1093f,
5ca,
106a3,
cd,
101d6,
100d4,
d1,
10833,
2aa,
63a,
107f2,
1092e,
1067d,
606,
10830,
1035b,
5e6,
10263,
1022a,
105e3,
103ca,
10590,
2ef,
1013f,
108ce,
13b,
10538,
1092a,
10813,
1008a,
105e9,
10371,
523,
1050c,
1077e,
1ce,
6b,
1091e,
103c0,
5c6,
103bb,
583,
10229,
10980,
101be,
105c1,
395,
499,
10221,
5c9,
13,
10057,
102dd,
1073a,
106d8,
9f,
42,
51a,
21e,
1036d,
104c8,
3f3,
2dd,
2f3,
49d,
1094d,
104dd,
289,
bd,
1095d,
107d4,
107a0,
40e,
10947,
10776,
50c,
680,
10608,
10167,
107b8,
10772,
106bf,
a6,
39f,
302,
105c1,
101cd,
1089f,
10578,
103f9,
106e0,
10189,
430,
105c1,
45f,
107bd,
47a,
513,
152,
3af,
10920,
100dc,
669,
102e0,
4b9,
544,
383,
147,
3dc,
305,
5eb,
1cf,
668,
5dc,
1008c,
100ec,
10481,
4f9,
10318,
10393,
102f0,
10261,
100bd,
10148,
1c2,
13b,
464,
1cd,
265,
103d9,
10159,
3e2,
1041a,
10300,
101d8,
be,
45b,
105eb,
108d6,
29a,
10160,
5c8,
cb,
10621,
10363,
1005e,
104c2,
dd,
10332,
785,
41,
39c,
10294,
103b0,
581,
10100,
101e6,
103f4,
b,
6cf,
1055f,
440,
107c0,
10103,
1f1,
1014f,
10217,
354,
10905,
105e1,
101af,
10370,
59f,
107d8,
10339,
1022a,
103d9,
10235,
198,
5d6,
319,
1031a,
1023f,
105ac,
106,
4f,
122,
1090c,
218,
1003e,
102cc,
10345,
3e6,
1087a,
102f5,
10639,
10394,
101cd,
14a,
10211,
10163,
1003e,
2aa,
10591,
420,
107f9,
10663,
105d9,
10685,
1086f,
654,
10006,
1050a,
10909,
106d0,
102eb,
10075,
2ba,
10488,
103bf,
296,
326,
102ef,
554,
1cc,
4b2,
103f3,
17d,
101da,
127,
102c8,
100b0,
1048e,
10052,
218,
103d5,
259,
64d,
10212,
66b,
2e8,
10267,
102ef,
10818,
101de,
b0,
2f5,
605,
10385,
1023f,
10177,
103a4,
1063d,
376,
10876,
10640,
6c,
5eb,
108f7,
89,
100c3,
63d,
435,
108d2,
12b,
10030,
10259,
10060,
102bf,
100f1,
220,
1037d,
104df,
1053e,
1b4,
10811,
524,
10425,
10736,
100a3,
1033f,
1066a,
104a0,
b6,
1a8,
107a6,
2a6,
108da,
10354,
10906,
104f3,
100cd,
10456,
402,
668,
10105,
10884,
279,
1046c,
10359,
1032e,
280,
108e6,
104aa,
300,
139,
101a1,
10367,
543,
103e7,
100fc,
2c7,
326,
101e2,
104a8,
60c,
10023,
1071e,
100c2,
38a,
100f1,
10316,
1f4,
104a7,
106d7,
104ed,
10567,
1098b,
108f2,
115,
6e8,
1da,
1065d,
10000,
1b9,
10557,
1048d,
57,
396,
38d,
36a,
10191,
33,
5e0,
1038b,
10571,
10336,
5c8,
515,
3e,
916,
101b0,
51e,
22c,
610,
55b,
3b0,
716,
53c,
106f5,
10399,
9a,
105a7,
10428,
64c,
105a5,
a3,
10634,
5e9,
1017c,
ca,
3da,
517,
663,
65d,
3f9,
105a6,
1a2,
8e,
279,
1088b,
33b,
103a7,
105dd,
c23,
1330,
c96,
5f8,
e39,
c42,
1212,
93a,
1c4f,
10947,
b4e,
a68,
9e7,
9ed,
ed1,
296a,
71d,
3e4,
1095a,
aff,
774,
1048d,
720,
c09,
10428,
100a5,
3f2,
934,
10fd2,
985,
10254,
102d0,
bd4,
b1b,
110ba,
115ef,
11314,
370,
10aca,
10cb7,
10a62,
10571,
103a,
100d0,
10ba3,
10a93,
3c8,
cd3,
102d2,
10aa0,
1144d,
109b6,
5cf,
10cb0,
10b41,
63a,
100c4,
14da,
16bd,
11d86,
108fc,
10c6e,
2f8,
10f65,
112d7,
10636,
3fc,
11ed,
1115,
10582,
104d9,
10588,
45e,
10b2f,
10065,
32f,
de7,
1089,
f95,
104cf,
4a4,
be0,
10328,
1051a,
c52,
d64,
10405,
1e8f,
ed9,
f6a,
1128,
418,
fa1,
1f5,
2e9,
f0,
110d4,
101d8,
1043f,
c65,
9b4,
96b,
44e,
14b,
784,
96d,
bd3,
7db,
10782,
ed,
b5e,
10493,
5fe,
10522,
1149f,
10922,
85e,
bc1,
a1e,
1e5,
10413,
10574,
3d2,
10699,
10538,
1019d,
b96,
15d,
132e,
cb2,
10f4d,
1173f,
11da2,
10953,
105dc,
202,
140e,
698,
10031,
c3b,
1097f,
10e66,
1108a,
28c,
ace,
855,
1019d,
10483,
1014d,
10036,
10536,
10240,
a15,
2200,
137d,
dd1,
1083d,
11593,
10161,
10f53,
83b,
a8e,
b3c,
148c,
fc1,
2e,
102c1,
10907,
105cd,
10752,
95b,
1153,
1669,
b82,
e7e,
2dd,
10069,
3c,
10624,
101f6,
100b4,
1b7,
898,
912,
326,
10dc1,
f45,
deb,
900,
2cc,
641,
190,
510,
801,
a49,
10c9,
be9,
42f,
541,
d0a,
cb4,
c5b,
1035f,
105c7,
10323,
10242,
1040c,
341,
1071a,
100f4,
a5a,
34f,
436,
1c4,
10284,
10b70,
60,
664,
617,
106df,
100cc,
814,
e33,
f8,
110e9,
10914,
10062,
10192,
3f5,
394,
107da,
6a0,
37,
102c1,
10949,
105bb,
1010d,
46e,
4fc,
d35,
222,
10a08,
10562,
10a42,
3ab,
10492,
10499,
b2,
10307,
645,
24,
289,
1f8,
6b1,
3d9,
10439,
10aba,
1044f,
1077f,
10e11,
10e0e,
104a8,
573,
299,
10318,
11021,
10cbe,
10528,
104b3,
10c6e,
10396,
283,
988,
1025,
107f5,
10647,
11339,
110e1,
100a5,
1ab,
1087e,
908,
4c0,
56e,
37c,
10cfa,
10705,
10225,
ef,
c5f,
10938,
4a1,
10ae5,
1093a,
106de,
1030f,
1091c,
40e,
1008a,
89a,
3fd,
8fd,
1000e,
4d9,
c52,
284,
1052e,
648,
11077,
105c7,
1286,
c08,
151e,
d36,
315,
482,
10945,
10a1b,
10080,
10226,
ae6,
2cf,
1010a,
bc6,
10169,
103d0,
1004a,
450,
106e8,
10478,
b0a,
175,
10436,
1024b,
474,
413,
653,
103e3,
3f,
10cb7,
10207,
46e,
f68,
10985,
ced,
928,
b85,
105b6,
11602,
1083e,
103b4,
7f,
1057c,
1090c,
101d7,
428,
52,
10821,
11648,
10bcd,
1056c,
10883,
109,
104b2,
62f,
565,
10d7e,
112a5,
115b8,
1061b,
353,
108fe,
1021a,
103c0,
1051b,
103e9,
1029c,
10030,
10e4a,
105ea,
8a,
3b6,
5f5,
103b9,
536,
171,
60,
10421,
2e0,
107f4,
104fe,
49b,
6cb,
1024f,
1003b,
104bb,
10678,
214,
3c9,
2a9,
10837,
10a17,
22a,
10749,
10496,
f3,
10396,
8ab,
10016,
4e5,
bd5,
28b,
3d5,
47c,
106dd,
30,
10253,
a10,
656,
6c1,
46a,
934,
2b5,
1031d,
103c9,
399,
102d8,
105a0,
102f8,
1024c,
8bb,
996,
8c3,
10386,
4b2,
1061a,
1163a,
10aa3,
101ae,
105a7,
85f,
1001d,
25c,
217,
10368,
247,
11c93,
1169c,
10dba,
10232,
5a6,
102f2,
10892,
10e78,
108a8,
1016a,
1186b,
10c1e,
5e,
53e,
10592,
14b,
112ff,
10a8c,
e31,
10234,
10ed9,
103c6,
ca0,
415,
1049d,
1092d,
a09,
348,
6a3,
1052e,
1058d,
4bb,
27f,
3a8,
1012e,
10a0f,
566,
37f,
5aa,
6db,
10772,
23b,
4f2,
254,
105b3,
3e4,
7f7,
779,
872,
100fb,
107d0,
6c5,
1032b,
10914,
31,
10208,
961,
1004a,
4bf,
10866,
296,
102ba,
10560,
1002f,
914,
92a,
6dd,
103ec,
109f5,
10327,
103bd,
345,
a6,
d54,
77a,
25d,
3ca,
45c,
102ea,
1038d,
102e9,
10240,
79b,
1020e,
7cb,
5d8,
27d,
20,
108e0,
1006c,
2ee,
103,
102dd,
105ae,
aeb,
5cc,
1037e,
4ac,
bb5,
10466,
4aa,
106f4,
10506,
10713,
e5,
10519,
102b5,
10587,
cb1,
10656,
10926,
1032d,
1042e,
100f2,
10171,
10750,
64,
424,
15f,
109cd,
10295,
10477,
1045d,
495,
1060a,
47b,
100b0,
84b,
b94,
105c9,
10a69,
102e2,
10067,
154,
162,
100e8,
104ad,
1020d,
10286,
38b,
39,
1a,
582,
91f,
1058b,
101ca,
104f2,
105a6,
10082,
10255,
2e0,
91,
742,
b26,
1029c,
11821,
1227c,
11925,
10c04,
76,
33e,
103fb,
10f06,
101c0,
108f8,
10d1b,
10a78,
27e,
10206,
10d32,
103ff,
101f1,
107d3,
a45,
10a96,
10634,
417,
a93,
10121,
10de8,
10d9e,
1041a,
10956,
102f9,
64,
aab,
ee5,
1455,
1665,
103de,
10b94,
104d1,
1093c,
10581,
10208,
10883,
8d1,
c72,
b77,
c05,
10685,
10b9b,
11561,
10ac3,
279,
321,
4c0,
1032c,
20,
83f,
10458,
10531,
10bb4,
11149,
100fe,
5e,
106ef,
895,
7da,
107b1,
10083,
6e,
264,
4e3,
48,
511,
1589,
baf,
10031,
101ee,
7ad,
4b5,
9ff,
1013d,
101d5,
10834,
10940,
1de,
107c2,
1060f,
1092d,
b2,
852,
bbd,
10c,
355,
10b8c,
1068f,
10103,
2b5,
8eb,
1004c,
10581,
668,
101ed,
10947,
102f2,
14f,
7e7,
4a1,
107d5,
26b,
35a,
1020c,
711,
cd8,
afe,
e18,
89d,
101fb,
10215,
4fe,
1030e,
10451,
7c3,
eae,
b8c,
e3c,
5b1,
4f1,
9b0,
10136,
10208,
10048,
81a,
b91,
173,
544,
10657,
e1,
155c,
b49,
be2,
105cb,
a87,
d9f,
1001d,
10313,
371,
10,
16b1,
13b8,
16a4,
128e,
fd4,
2e9,
105e0,
258,
10160,
862,
95f,
3d6,
10266,
eb2,
1019e,
eab,
101b0,
dd,
602,
9af,
101a6,
5fc,
49e,
101e3,
10605,
e6,
33a,
a0a,
27a,
7e3,
4d,
10936,
10a5a,
10872,
10303,
10ad0,
1022d,
10422,
5b8,
3bb,
758,
1055e,
10c78,
10ab7,
895,
1089a,
10d37,
1095d,
102cd,
6a5,
2ff,
1062f,
1c1,
104a0,
103a8,
750,
100c8,
239,
67f,
1064a,
104e2,
1003c,
476,
102ff,
10dbb,
1069f,
107c0,
10719,
611,
510,
277,
1022f,
103d3,
10117,
11cbf,
10b4c,
6de,
10554,
90,
10ac5,
10845,
100d3,
10087,
b01,
1111c,
10aa4,
102d1,
442,
dc7,
104d9,
1096b,
896,
993,
f0e,
11c40,
2b5,
67e,
519,
564,
10df0,
e,
a68,
a1a,
443,
10a6f,
2dd,
166,
677,
10643,
1089f,
3d1,
10078,
396,
10735,
1038d,
124d,
831,
c05,
51b,
b31,
252,
102c0,
10135,
1021d,
29e,
100b7,
1d2,
6fb,
356,
65c,
10d65,
102bb,
107e9,
45f,
10039,
1064c,
10b51,
7e0,
1037f,
107eb,
10422,
10a6e,
866,
10236,
1097e,
10459,
10b5c,
10150,
1024c,
10bcf,
ef,
4e6,
6e8,
5fd,
10e6e,
119cc,
104f7,
10a56,
27e,
100bc,
10b90,
10d6f,
105d4,
6d7,
ce6,
554,
105af,
2b,
690,
1009e,
f,
1062d,
26,
100c5,
1f8,
6c6,
101e2,
105be,
a8,
1329,
100b3,
2e7,
1087d,
107ff,
971,
337,
3bb,
3c1,
dca,
12a0,
103db,
105d9,
77,
10c6c,
1cc,
100f4,
10245,
a24,
46c,
10801,
3b0,
105e5,
cfb,
f85,
a65,
1053c,
21d,
a1f,
38,
1041d,
42b,
e86,
b80,
755,
10537,
10600,
10d,
2f8,
10157,
100ba,
e07,
a27,
146d,
504,
1007a,
a0,
6d,
106ec,
102b0,
4bc,
1135,
117,
c0b,
109c5,
10ce5,
e0,
101f6,
10441,
92d,
38b,
ab1,
1ff,
10f47,
104c2,
10f1f,
105f1,
100d6,
102e6,
92b,
688,
406,
10801,
10380,
677,
10e44,
33f,
74d,
26f,
10061,
10228,
12880,
105ca,
121d2,
10022,
10dff,
557,
299,
102f7,
7f9,
109cb,
11290,
110fc,
11265,
1011,
101fd,
465,
10ec9,
10d89,
542,
10c1,
5e,
1107a,
258,
10483,
10641,
220,
1240b,
11095,
343,
1070e,
10e72,
107e2,
b4c,
f9e,
10c2,
5d1,
10818,
10573,
93,
1189f,
12bad,
106bc,
8f0,
11c5,
1446,
13e0,
124b,
b9d,
10294,
11ce6,
1109b,
110ae,
11383,
179a,
82b,
13f5,
13c3,
de7,
10625,
103ed,
10708,
10763,
10228,
8ff,
555,
15,
10363,
860,
112f,
357,
10b1d,
103a2,
10a9f,
5f7,
11382,
10c0a,
3a0,
1047f,
114ea,
10cb0,
10d22,
10165,
7f6,
101d7,
11906,
1140f,
10e67,
10fa3,
117ce,
10a74,
12c,
10f91,
16,
1000b,
109ad,
169,
ca,
6ef,
10759,
10d05,
10b9d,
106b7,
12,
10e36,
1021a,
10418,
103ce,
11179,
1040e,
1064f,
10c41,
104c5,
462,
102b5,
440,
1632,
10cf,
1fd3,
18f2,
10b5,
1006f,
21e,
1031f,
1021e,
1a4c,
14b6,
1e75,
1d51,
1aa2,
f97,
14d4,
27f,
10b2,
32d,
1363,
1725,
1b41,
dc1,
45f,
10018,
1058,
907,
105e5,
5ad,
3d,
756,
1c2,
11946,
11a4c,
11473,
36d,
175e,
975,
1245,
119c8,
12d53,
12b6f,
118a5,
10fd9,
100ba,
a34,
ce8,
d6f,
afe,
11dd4,
11b2d,
1181e,
11630,
1076a,
1033b,
1007d,
1059d,
c2b,
12c5,
1e3,
10952,
11416,
10e95,
d89,
e00,
10091,
1026d,
100ce,
1031e,
881,
4df,
211,
10546,
10d5d,
10508,
8d7,
179,
4b9,
444,
11387,
103d7,
73d,
c2,
10060,
666,
760,
1010a,
107d3,
103a3,
109f3,
10b86,
10b8c,
100d5,
1039b,
a6c,
10546,
219,
1a6,
10650,
10621,
101fc,
104b8,
826,
365,
67,
1063e,
102aa,
2f3,
10359,
b2f,
e14,
fbb,
1989,
c54,
f05,
10ab5,
10183,
10ae2,
10cfa,
2f7,
a7e,
10c8,
159c,
12a9,
926,
e44,
10106,
4eb,
10189,
5ce,
5d6,
8ee,
101ad,
7,
bc6,
1513,
dc4,
d60,
125a,
10037,
10d15,
107e5,
10ddb,
1052e,
8ee,
12b7,
bac,
b6d,
d90,
110cd,
1167f,
10f54,
106d4,
103e8,
377,
1a4,
34b,
18f,
90d,
11583,
11052,
96,
1057e,
103a0,
1001b,
106ee,
147,
9b5,
1044e,
10b2e,
101ac,
1031d,
925,
157,
10035,
1008a,
1029b,
72a,
5ce,
10092,
10383,
914,
10194,
1052d,
8d0,
10450,
364,
1fa,
593,
105bb,
10512,
108dc,
4a7,
4a,
103b7,
105b7,
107b7,
415,
65c,
110b4,
10a49,
103a2,
e4,
a56,
1062e,
105cb,
1036d,
25d,
2bf,
11130,
10860,
10aaf,
1010f,
346,
10b59,
10978,
3f,
193,
505,
112a6,
1067a,
1068c,
a2,
105fc,
1f9,
10db0,
103d9,
b58,
662,
32e,
488,
9ff,
560,
104ae,
132,
210,
632,
21e,
225,
6d5,
dea,
688,
d76,
9c4,
837,
d0b,
520,
45c,
114a,
542,
eba,
e73,
4c4,
10241,
1055d,
703,
899,
c69,
1369,
36,
37e,
8f,
6cd,
1097b,
522,
851,
10370,
12e,
bb4,
7c6,
684,
24d,
108c1,
7be,
c76,
65,
5e3,
104ca,
96e,
65c,
6f6,
6cc,
64,
10045,
10041,
10083,
109b1,
8be,
10045,
628,
10787,
2df,
3bc,
660,
8fd,
100cc,
54c,
6e6,
6c,
105db,
1023d,
23b,
107ae,
10dbc,
10573,
105e5,
957,
b2,
4f0,
10608,
130,
1105e,
11381,
113f4,
11120,
105a3,
100f2,
1003d,
542,
10df0,
10ec2,
10817,
10e3f,
10032,
10e13,
88,
96f,
1057d,
14c,
e2,
6a0,
f24,
1b61,
514,
10af9,
10aa8,
10e17,
ec,
308,
7ed,
b4f,
124e,
1da0,
56b,
10caa,
105df,
1022b,
10105,
d36,
712,
12b3,
bdd,
17b,
10535,
10a18,
10d8e,
10020,
d2e,
47c,
dd8,
7a5,
10a29,
10fe2,
10d3c,
892,
739,
10129,
104ea,
10137,
10634,
1053e,
10cf0,
10d18,
189,
82e,
107f6,
20d,
c79,
101,
1068d,
105a9,
c5d,
c6e,
b25,
26b,
8bb,
10126,
35c,
239,
10516,
15c,
10440,
706,
964,
325,
3f1,
106eb,
248,
3f6,
102c5,
11049,
10126,
10861,
101d2,
31f,
101fd,
10131,
fd,
6f3,
10a61,
10602,
104a8,
101d7,
10217,
110b4,
10d78,
104bd,
1037b,
98b,
1044e,
10b52,
10088,
10389,
17a,
261,
10bff,
14e,
10da1,
10001,
100d8,
3cb,
56a,
83f,
16b,
e04,
a59,
287,
27b,
840,
f08,
ade,
43b,
c1c,
114b,
642,
d2e,
2d8,
10384,
1133,
2a4,
f4f,
f44,
b87,
10157,
e5,
474,
84d,
738,
1284,
a9e,
13a,
173,
2ca,
10255,
10ad8,
100a7,
643,
746,
3a0,
454,
10c20,
10600,
10623,
81,
476,
1092c,
10519,
10916,
40a,
c0c,
10c8,
ba3,
f06,
fc1,
104a,
2f3,
5c8,
13f3,
a67,
101b8,
c3e,
109c,
107c,
beb,
1363,
3f9,
a42,
890,
564,
100fd,
2db,
746,
10099,
65a,
d4d,
596,
1013e,
6d3,
1036a,
748,
ea6,
491,
106f2,
10985,
105bb,
10027,
ad2,
102f3,
3c9,
10b90,
564,
10216,
103f8,
106c8,
1006c,
dee,
869,
a9e,
533,
10c73,
1010a,
1032d,
1019c,
4e0,
317,
cbd,
164,
4f8,
8a5,
1026c,
111c4,
10228,
233,
78d,
12b6,
882,
8b6,
10716,
df,
10e1e,
b,
10dec,
1028b,
33c,
10172,
10928,
103f9,
135,
3ef,
b9f,
11dd,
10127,
103d2,
882,
296,
10002,
10158,
423,
752,
769,
428,
90e,
7c5,
10179,
108b7,
df,
103bd,
8a4,
528,
104de,
1023e,
37c,
535,
103f0,
74e,
26e,
169,
3a3,
b0,
10a3b,
10bd4,
10ab0,
54e,
e2,
10308,
a7f,
4a4,
10a9d,
1034e,
1058a,
10352,
105c4,
10aa3,
79,
5a0,
10663,
106ae,
10c58,
10883,
1132e,
1063b,
1006b,
25e,
47a,
7b8,
104b7,
110c7,
10d4d,
10061,
10f22,
106c3,
390,
312,
10fe,
61a,
110cd,
102b8,
10cf9,
10377,
10bfa,
1098c,
1062b,
40c,
fc2,
c16,
106d3,
10804,
103b4,
69,
f66,
8e7,
21c,
10108,
10694,
1b1,
585,
10239,
102dd,
101e5,
133e,
859,
101a9,
10151,
10a5a,
10195,
454,
639,
5d4,
15b0,
927,
15d9,
64d,
10055,
100a2,
11203,
102f3,
2d,
871,
ffd,
1078f,
10062,
fec,
1001f,
105a5,
1102a,
107ba,
103d6,
571,
393,
104e7,
10ad2,
101f4,
a34,
7,
1005f,
74a,
c9c,
104e7,
10265,
10e37,
1011c,
102be,
10346,
105d2,
1014c,
101ec,
3b6,
10805,
f9,
913,
91f,
10965,
10633,
106f1,
95e,
25f,
103f6,
103f4,
2f2,
db0,
971,
10250,
abb,
64a,
1138,
3b3,
587,
107fb,
8e,
68a,
10023,
2ea,
97,
10259,
10ae,
e13,
5a,
10300,
103b9,
e29,
4a5,
10549,
10106,
108bc,
530,
5ff,
815,
6c9,
9ce,
10a87,
105dd,
11021,
10cf9,
494,
10877,
e0,
89c,
101a5,
1a9,
1129c,
10607,
1050b,
101e4,
41d,
10b8f,
104a2,
f,
100da,
1f5,
10442,
846,
100d9,
c06,
1f1,
1032b,
1049e,
48c,
78,
b21,
460,
10065,
2ad,
b89,
bf,
2a,
143,
1095e,
103da,
15,
2b4,
8cd,
db0,
8d0,
90,
10252,
872,
2bf,
10a29,
1036d,
10b8b,
104f1,
10401,
bdb,
10781,
1053a,
571,
93,
1007f,
10825,
10bd9,
4,
144,
101e3,
10c4f,
1143d,
10b0f,
8c,
108d2,
10d1a,
10396,
677,
10479,
11c69,
11ba3,
10ff9,
117,
11053,
10447,
460,
111ca,
1136a,
108cd,
10fc0,
10255,
1065e,
1003e,
105fc,
106da,
10a95,
646,
10467,
10037,
91e,
12e1,
80f,
100ee,
110d5,
10cd2,
10b70,
589,
453,
90c,
1ae5,
85d,
13c,
10645,
108d4,
10ed7,
1077a,
d9c,
637,
e64,
10088,
10603,
10a18,
101dc,
10a66,
10965,
d47,
145c,
297,
104e9,
107bf,
1063c,
1070d,
10a8f,
103d0,
99,
46d,
b25,
3b2,
10526,
10919,
109f1,
10474,
10a70,
10375,
1016b,
1320,
107b7,
106ce,
10982,
114f3,
1175e,
10a6a,
10a45,
2c4,
1098f,
61b,
10154,
1065a,
10644,
3c0,
1a7,
2ab,
10abe,
104ab,
1012f,
d1f,
294,
11118,
1033a,
102ca,
ac4,
11238,
5c9,
11ad5,
1cd5,
132d,
391,
10cce,
10933,
10429,
10629,
10371,
69,
1080e,
16f3,
103b7,
1082e,
1060f,
111d3,
10571,
11973,
115e7,
102a9,
105ac,
479,
d65,
937,
1b6,
10232,
10584,
10645,
11993,
1085f,
1006f,
17aa,
12e9,
b4e,
84,
11ce,
140a,
1ab,
e6,
103b1,
10755,
4dc,
948,
10070,
a45,
cfb,
421,
1001e,
109f3,
10c55,
112e2,
19fd,
1001e,
1034a,
10450,
11d,
10200,
11272,
10ea4,
102a7,
10428,
100db,
11035,
111bc,
111f9,
10c25,
106e4,
1010a,
5e8,
1046a,
10020,
481,
28d,
673,
101b6,
100a0,
572,
1032b,
670,
10229,
100ab,
266,
7a6,
10482,
10016,
79,
5e9,
13c4,
fbb,
f3b,
51a,
10487,
102a0,
666,
3b5,
733,
4b8,
692,
10530,
10905,
10079,
65f,
10c79,
9c2,
732,
11d6,
1066,
724,
100f9,
112d3,
10d13,
1023d,
10bb8,
101b2,
102d4,
2da,
10217,
8ec,
104f7,
11814,
10ab1,
11124,
1126f,
65a,
b04,
9b1,
6f,
1156c,
110f0,
116b3,
10735,
10224,
357,
109b6,
10daf,
10788,
11338,
10ef9,
1053c,
10010,
6,
106a8,
368,
1041a,
1119b,
1062d,
10334,
10f79,
105d9,
11433,
10096,
7a3,
10125,
7b1,
105c2,
1c6,
10396,
1c11,
3af,
107f4,
8fd,
86a,
104ac,
107f4,
757,
10177,
101d9,
71,
10e44,
436,
b2b,
ee0,
a3e,
107ff,
10b32,
680,
9a8,
851,
1601,
dee,
452,
71,
10081,
101fa,
10725,
1059c,
81c,
df0,
bbe,
132b,
d07,
af3,
10391,
10625,
10c53,
10b0c,
470,
1625,
156f,
951,
de0,
100db,
56f,
54c,
10ad2,
853,
590,
693,
194,
10155,
10738,
1075c,
10848,
53a,
814,
b98,
cca,
e9,
8c,
c0,
109f7,
102b3,
12f,
3f1,
100a6,
8f9,
9a8,
10ab4,
1059b,
107d8,
11005,
c2,
1056e,
259,
286,
267,
1013d,
f3,
46d,
c7,
42c,
10835,
1096b,
101c7,
10c24,
1e5,
1029e,
7e3,
267,
3b1,
422,
107f3,
63b,
102ff,
1059d,
10196,
9ea,
10097,
bf3,
4db,
9b6,
4a3,
100c0,
374,
704,
3da,
cfb,
8f5,
9fb,
af3,
a17,
758,
68b,
10229,
1005b,
326,
107af,
664,
1599,
fd6,
913,
8e9,
79b,
11097,
1074e,
741,
422,
b57,
ff6,
a3a,
934,
989,
631,
101cc,
47e,
6ed,
11ff,
ae5,
10e7,
3ea,
2dd,
85d,
10280,
10480,
2fe,
9a0,
3ad,
d49,
651,
9cf,
d01,
3d4,
10dd8,
109fb,
1077a,
100ee,
5f,
61e,
1030a,
10131,
108ac,
348,
10ad6,
65,
12a,
105e7,
10bc6,
408,
38b,
3a4,
1064a,
100c1,
10a17,
10207,
2b8,
106d6,
10428,
594,
5b0,
499,
10688,
10022,
23d,
69d,
79a,
841,
14b,
103e0,
91,
107b3,
10c11,
10069,
10232,
6d0,
71d,
1d,
401,
d47,
10481,
103cd,
1022d,
10a93,
389,
43b,
10065,
169,
67b,
91f,
b16,
f08,
380,
ca4,
459,
10b6c,
101ec,
c26,
582,
709,
570,
109c6,
10537,
10bec,
103e6,
6ce,
863,
156d,
bdb,
102b2,
103c8,
3af,
10c10,
10bc0,
1078d,
105a2,
3ee,
f27,
3ce,
10197,
1cc,
1083a,
10b99,
10082,
10479,
27b,
1003a,
10b84,
11374,
10717,
26c,
105f8,
5e,
172,
57c,
e1,
106b9,
103ce,
109ff,
107d9,
100d3,
a0e,
29b,
11f9,
cab,
104d0,
109ed,
7b0,
529,
104c6,
10548,
3a3,
93c,
1019a,
5ac,
260,
f5,
a0,
10252,
10051,
48b,
27b,
2fc,
105d8,
108d1,
103b0,
223,
1025e,
10863,
66,
791,
f43,
184,
913,
10918,
5f4,
10358,
10446,
10bf4,
104e4,
bbf,
481,
643,
78c,
8cb,
273,
24b,
1003f,
10086,
535,
e62,
a08,
1023d,
766,
102a1,
10b0c,
1042d,
69f,
a22,
aca,
c55,
22f,
e6d,
10153,
10a10,
10dc3,
10398,
69d,
77f,
f9c,
81a,
753,
48f,
104ec,
ab,
10656,
6c,
1041d,
dcd,
11a7,
3e2,
750,
220,
10168,
393,
10654,
18f,
739,
823,
b05,
235,
100b3,
de,
1054e,
10e2e,
21c,
689,
10325,
10a55,
1097d,
1022c,
10ac2,
282,
12e,
106ff,
332,
9b0,
325,
104c8,
1c4,
a4,
398,
1050e,
314,
10124,
10419,
1cd,
10052,
101,
458,
55,
10970,
10af2,
128,
17c,
918,
101e2,
728,
104d5,
19a,
10ab3,
109a5,
10bbe,
1004d,
aa2,
59,
5e7,
8af,
58b,
1fa,
304,
1013f,
102b0,
1019b,
7b8,
4ff,
581,
dcc,
197,
909,
3a2,
4a4,
1030b,
3a7,
10745,
b,
355,
10289,
102f4,
14c2,
955,
10308,
345,
a12,
1018,
123,
66c,
6c1,
a30,
ee2,
7f6,
1064b,
107a3,
102d2,
10b2c,
105ff,
56,
403,
356,
10410,
10236,
10ebc,
10df0,
10b41,
2cf,
c85,
b1e,
3bf,
281,
26,
b78,
1a2,
6b4,
10375,
101db,
587,
113f,
959,
ea,
38b,
168,
44e,
319,
1035e,
100e7,
10467,
27f,
106c0,
4c1,
10894,
11e,
10b10,
700,
3a7,
10365,
105b2,
107be,
105a6,
2d2,
5e,
20f,
10874,
102cf,
39,
6c8,
10e5e,
104d0,
105a5,
10490,
121,
100c9,
1065f,
10025,
105e8,
104f7,
76b,
9e6,
101a2,
5c5,
c16,
9a0,
36,
104b6,
10675,
42a,
7ff,
d35,
cea,
ab0,
688,
8ff,
37a,
101fd,
10532,
5ed,
11460,
110fd,
1088d,
c3,
2bb,
db,
edf,
100f0,
10a49,
1cd,
112ca,
10b6e,
10d16,
10781,
10232,
22,
8c8,
201,
10399,
de5,
10832,
10912,
101b3,
1028e,
10310,
6d6,
b2a,
bd0,
33a,
736,
10477,
37a,
107d1,
4ac,
100ea,
715,
84e,
1009d,
101b2,
6a8,
10ad0,
ea,
7aa,
40a,
9a9,
10475,
13e,
1018c,
1035b,
10166,
c3,
864,
493,
100a6,
42b,
10029,
108d1,
1048d,
10478,
111,
604,
1040e,
58,
401,
10778,
10808,
6f1,
1002f,
805,
61e,
1639,
165,
10050,
283,
1044a,
1042d,
258,
1044e,
31b,
e24,
1cf3,
9c3,
7b,
69c,
10994,
102df,
1080b,
105d8,
1104b,
2f8,
10484,
67b,
ec9,
1047c,
69f,
30f,
101c6,
10bfa,
10d29,
622,
75c,
a96,
10482,
103ca,
1003d,
415,
1250,
105d,
61a,
1b,
37c,
1018f,
2d9,
235,
10296,
10264,
d12,
1795,
9ae,
e0d,
f98,
10601,
10a63,
1065b,
106a9,
eb7,
fe7,
12c0,
11f5,
650,
8c7,
1012c,
4b3,
28,
104a6,
2d2,
c9f,
52f,
1bf,
6c,
107a8,
280,
100,
333,
213,
e11,
104fd,
10699,
1093e,
1060e,
10ae8,
31,
79f,
199,
123,
10613,
104ff,
104ec,
10d0a,
100b0,
1102b,
33,
b74,
43a,
fa6,
1098e,
10098,
10df1,
17e,
10641,
10a23,
10324,
be5,
10003,
10562,
1074a,
cd,
221,
10458,
288,
2e0,
bdc,
1bb,
90,
10fd,
441,
ce1,
a96,
100b6,
683,
1098a,
90,
c5a,
ac2,
21f,
23a,
d28,
17b,
10613,
103eb,
1144e,
104d9,
3fe,
737,
10089,
107d3,
10666,
10636,
110db,
64,
110aa,
70b,
100b9,
4e7,
107a7,
10d10,
10331,
10ea2,
103f6,
10a80,
f4,
303,
a7e,
379,
10d82,
10966,
106f3,
10659,
1ff,
b81,
204,
101cd,
103e5,
10edb,
107a3,
3e0,
1038e,
101a8,
102e4,
11ec,
106f8,
10a9e,
10754,
10559,
c9,
d16,
c8b,
b1f,
a5f,
443,
10431,
1c2,
1086c,
a8d,
1f2,
a7e,
105,
10287,
10b45,
10a07,
100fe,
10126,
1052f,
10201,
233,
268,
10047,
111d4,
102c5,
102b4,
100c9,
41e,
3a2,
10c,
1024b,
10471,
10981,
51a,
42f,
d12,
ae5,
9d4,
67f,
1057b,
1101a,
103b6,
1096f,
100af,
106b3,
10676,
9ec,
10041,
10466,
49e,
1037d,
48a,
c92,
10680,
101f0,
a7,
10024,
10c68,
115dd,
11019,
10fcf,
10f97,
11000,
11b85,
12107,
1061a,
67a,
1011f,
10918,
118b4,
1133b,
11c42,
10c36,
10ec0,
11e08,
106eb,
1ba,
10948,
1100f,
112e8,
449,
9ef,
235b,
1021f,
497,
4e1,
107cc,
1044c,
1008d,
101cb,
1abc,
27f2,
b97,
103a4,
ab2,
10e0,
108c5,
921,
10904,
4b,
704,
44e,
11e43,
162,
1a7,
df0,
27e,
d59,
153f,
bb6,
15a,
10cca,
106ba,
10e03,
1104e,
175a,
10041,
cd1,
fb2,
104af,
2b6,
b4e,
10d5b,
10e94,
113bb,
3d3,
bd0,
32a,
4ed,
674,
517,
1064a,
117a1,
117ae,
10fd4,
b0f,
9d7,
1035f,
1037a,
1e9,
10fbf,
d3,
113bb,
115f2,
1127b,
10fe0,
3ee,
10660,
10dd4,
51,
10682,
579,
10982,
19b,
1143d,
10b25,
141,
10747,
112ab,
10793,
10fe5,
11344,
1069f,
469,
10281,
101a3,
10823,
10a99,
101d1,
1025a,
1044b,
10cb5,
914,
10bd4,
a7,
100e6,
1055a,
290,
c74,
e23,
e33,
109d5,
10c8b,
67e,
10648,
12f,
415,
cd7,
e9c,
1204,
1066,
10c54,
10fde,
101c8,
10fae,
1106c,
102ef,
5a9,
fb7,
1034b,
114f1,
10fa9,
1059f,
128,
106e0,
10ace,
a18,
104f,
ec8,
10730,
109d9,
110e2,
34,
101f8,
92,
10050,
106d6,
104ef,
10949,
26c,
10c1e,
10c78,
104cd,
2ab,
314,
2a4,
10d06,
11866,
108d0,
10885,
10061,
108cc,
56e,
d2f,
853,
b3f,
5f8,
164,
747,
10846,
109df,
476,
850,
b6e,
1291,
c61,
10171,
a1d,
5c4,
106e1,
8f4,
394,
10734,
c52,
ddb,
1009f,
99b,
1074d,
10425,
c35,
dd3,
f83,
677,
79d,
553,
98,
1043,
10211,
10776,
44,
ec3,
3bd,
a04,
ce8,
ac9,
1025e,
65e,
10c37,
105bc,
5da,
90d,
aa3,
e40,
1fe,
1088e,
115f9,
5da,
27f,
1028a,
1e3,
30b,
30b,
599,
175,
109e6,
10a61,
10521,
1fd,
100f9,
3c1,
646,
7ec,
1044f,
1c8,
10819,
6a6,
2e2,
102ed,
c3,
fb,
103f4,
70b,
7ff,
3de,
10294,
2a7,
a3b,
104a7,
102af,
105b5,
892,
96a,
24,
102c8,
1020c,
830,
10331,
10cae,
10580,
35,
2e0,
987,
6f8,
41,
644,
23d,
10236,
1cd,
106c7,
105bf,
d70,
1042,
726,
3c,
10012,
793,
705,
756,
71d,
102c6,
100aa,
18,
d6f,
737,
c5b,
617,
3c1,
102b8,
100bd,
100c1,
1013c,
154,
ad6,
521,
9a8,
c41,
10ac8,
109b9,
10d11,
10a20,
10257,
b1a,
cdb,
aea,
b2d,
1102f,
10e3b,
10900,
10709,
108d3,
1057a,
b9a,
10191,
1045b,
de,
10fc9,
10337,
10532,
10c78,
1007e,
1048b,
1fa,
10f3a,
6e,
106f4,
114dd,
103a7,
10133,
2b9,
55,
84e,
104d2,
103b4,
6b5,
1a0,
10378,
439,
488,
7d7,
624,
874,
8c1,
3b1,
9ca,
2c8,
347,
1023a,
1ea,
a65,
817,
3f4,
1042e,
5ce,
b02,
359,
99b,
54d,
488,
5e,
105d9,
474,
289,
412,
584,
100f0,
465,
970,
a2e,
100d8,
10322,
10109,
f48,
a9f,
737,
65a,
ab4,
1035a,
131,
104fe,
662,
664,
428,
35d,
979,
423,
101c8,
3e9,
33a,
a51,
943,
270,
10547,
232,
114dd,
1224f,
10729,
104d8,
6f6,
c5f,
dac,
650,
10615,
503,
10b81,
1238c,
111d0,
1015d,
234,
100a1,
12fe,
410,
10a3c,
472,
10228,
116a5,
11fa8,
20f,
102d2,
104fd,
9bd,
10289,
103c0,
e3d,
3f0,
10c90,
113a7,
104a2,
108a0,
2e9,
3ef,
ad8,
1365,
132b,
b03,
105,
10395,
1052f,
119,
10344,
55f,
6fd,
1af,
998,
2d7,
898,
327,
10271,
6c7,
ebf,
12a1,
2da,
32b,
103dc,
a9f,
1041f,
121,
100ca,
1059a,
10362,
4d4,
b26,
c0c,
10734,
4db,
1077e,
71d,
8e9,
411,
1013f,
107f2,
1047d,
5f9,
7b1,
1021c,
10a54,
965,
10059,
d1,
106df,
10704,
4d4,
38c,
101f5,
10756,
1032a,
10675,
1062b,
103fc,
10061,
10808,
1028e,
b2d,
1033e,
54a,
10243,
bf,
1028b,
12c,
1053e,
667,
c20,
f1c,
d34,
3e1,
630,
1090c,
10587,
1080c,
248,
2ca,
2a1,
a0e,
58c,
10ccb,
10dc8,
10a84,
1068e,
cf,
6df,
b53,
561,
159,
1032e,
10b73,
10266,
10413,
12e,
1025e,
108c8,
273,
718,
525,
23d,
706,
28d,
10391,
1097d,
202,
106,
726,
155,
1024c,
5ee,
2f3,
269,
477,
2b3,
75c,
10161,
61f,
444,
306,
4ad,
6b6,
294,
529,
e44,
142,
10465,
10655,
3a7,
1ef,
45,
5d0,
6e8,
b96,
b2,
ac2,
41c,
369,
4b6,
cd1,
b36,
541,
4a3,
772,
a7a,
81f,
62e,
10330,
63a,
277,
10525,
106d4,
10511,
1019a,
7ad,
2536,
1813,
153a,
196,
104b8,
1093d,
71c,
1e8,
8b9,
c3d,
e3d,
109f,
b72,
1012d,
103b4,
708,
10210,
db,
115eb,
bc7,
301,
10b74,
109e9,
10dfc,
10df7,
b4,
60f,
11162,
114d5,
13ac,
113d,
1014a,
45f,
10c5b,
10a0d,
7b2,
5e4,
107e1,
103bb,
106cf,
3b6,
74,
1052c,
10be8,
10523,
489,
1006d,
c23,
506,
21e,
10379,
10427,
10160,
336,
9e9,
c5b,
f9f,
9e1,
422,
104ff,
109c8,
100d0,
1c,
5cc,
525,
1030d,
74d,
8a5,
23d,
102b8,
25c,
102c6,
28b,
b2e,
6ea,
10095,
9b6,
1005c,
432,
10075,
8f7,
5b6,
96a,
d37,
59,
10052,
1dc,
272,
52,
5df,
189,
473,
9bd,
fb,
10044,
75,
732,
722,
63f,
103bd,
103b3,
342,
101bf,
10815,
101bd,
61c,
acb,
402,
10d6a,
10239,
10227,
1022f,
10398,
10044,
8ea,
197,
11ea,
bd6,
1104,
1039d,
10e75,
110d8,
103db,
10d48,
769,
35,
533,
166c,
10d8,
10c47,
11079,
1052d,
10eb4,
1e,
794,
10ac2,
10625,
7fa,
beb,
10ede,
115ed,
10bd3,
106dc,
109e7,
10618,
1087d,
104bc,
102e1,
157,
103aa,
104a9,
11646,
107db,
97,
10099,
131,
105c8,
10112,
10bb9,
a48,
10214,
1de,
103d0,
34c,
10aab,
1076f,
d6,
1054d,
1005f,
1008f,
8ca,
4e,
10009,
1068b,
10b3c,
1c5,
383,
1010f,
1033f,
e,
1494,
c58,
62e,
102c6,
374,
10230,
10507,
166,
10799,
5a9,
e9b,
767,
107e6,
104c9,
103e8,
10036,
10493,
100ea,
10b57,
418,
1005a,
9e,
104c9,
10319,
c8c,
95c,
10cc,
cf6,
e1d,
12bc,
fab,
64d,
2bc,
107cf,
106a3,
1016e,
484,
1067,
aca,
1d80,
1575,
8d5,
10901,
10a51,
4a0,
b31,
b41,
51e,
3ee,
253c,
c15,
47a,
4c9,
10e47,
100df,
10263,
10398,
10654,
107fa,
1029,
b5f,
10280,
10cb7,
10791,
10bbf,
4ef,
8b8,
335,
10cf2,
db0,
10442,
10735,
10326,
1059a,
85,
1014b,
779,
107bf,
129,
4cb,
10ae2,
5f,
10bd5,
462,
104fe,
760,
1044c,
299,
101c3,
10da0,
104fc,
10698,
1e7,
1087,
10108,
dca,
2ad,
49,
89b,
1094b,
10071,
c6e,
28f,
bb6,
d00,
33f,
614,
9b,
10319,
1051c,
802,
14f,
db,
1bc,
68c,
1005f,
1020c,
74c,
1012d,
865,
59f,
631,
1de,
104ad,
104bb,
10c8b,
103e9,
10c0d,
10597,
10154,
10161,
a2f,
bc5,
160,
6b,
103c3,
105fb,
100fa,
8e2,
41d,
8dc,
22e,
ac5,
108c4,
10295,
10805,
3dd,
b9c,
ea,
77d,
10439,
1000e,
10929,
10bbf,
109a3,
10290,
c08,
f19,
1096f,
11302,
10543,
109cf,
1168f,
108c0,
cfe,
c13,
1f,
1001b,
127,
10516,
10869,
10d70,
10b48,
4a2,
ab,
a4,
398,
107a8,
10251,
10bf7,
10dab,
899,
e38,
1002,
2a6,
19b,
1093a,
10d65,
10c06,
1028d,
10289,
52c,
334,
106c8,
20b,
3cc,
1065d,
1074f,
268,
de6,
7df,
a68,
56d,
1033a,
10465,
106e8,
10080,
401,
10236,
7a0,
b92,
46c,
1ac,
107e7,
10624,
431,
161,
10db7,
11560,
64,
a93,
475,
88c,
fb8,
110c6,
12b03,
10975,
1031b,
10be,
5f5,
9bd,
102af,
551,
e60,
5d7,
10777,
be1,
5e8,
190b,
1002a,
1043a,
10a6b,
105ec,
105a6,
10c8a,
128bd,
125f9,
e0e,
27d6,
965,
14f,
2a,
b5c,
136e,
5e8,
632,
10005,
e7e,
1434,
c5c,
78,
97e,
23aa,
f3e,
10061,
1087b,
116c6,
444,
1409,
2e1,
102dc,
c03,
11ee,
197f,
7c4,
116fe,
10850,
524,
18e1,
104df,
a,
5ee,
1fca,
cef,
1094f,
10954,
1072b,
210,
31e,
10203,
109cd,
d25,
720,
1075e,
421,
11259,
114b6,
10590,
1c2,
110d6,
11163,
10515,
1046b,
11ae2,
113af,
10ec9,
1116d,
ff6,
1ea,
1129a,
112e6,
10f78,
10605,
10b8e,
87f,
1049d,
1076b,
1b63,
f08,
6bd,
100b0,
e1c,
100d1,
50,
101cb,
751,
694,
19b,
511,
3dd,
1046d,
584,
3c0,
f59,
10df,
10318,
274,
1000a,
a20,
113,
1022a,
144a,
ccc,
77b,
604,
145e,
8b2,
c28,
2de,
10304,
ba2,
7b0,
5b6,
580,
f7b,
140d,
bf5,
8f4,
13b9,
5cb,
514,
102e7,
10592,
e51,
129d,
277,
eef,
e3,
1027f,
1006a,
10974,
1e,
10152,
10654,
d81,
132b,
2237,
670,
106,
699,
1051a,
10795,
10c6a,
118a2,
100b2,
79e,
bfd,
256,
10b74,
b71,
10114,
10865,
1110d,
1065b,
1040c,
1001b,
1007e,
31,
108ec,
3e,
663,
83a,
8e9,
112f,
699,
101ed,
7d6,
3e,
10336,
36,
cce,
9a2,
76e,
c67,
66b,
1009a,
10e41,
101ff,
1018c,
1039c,
102ee,
27a,
10242,
1007f,
105c7,
10486,
109bc,
149,
6a8,
104da,
10484,
26f,
1028e,
2d2,
bf,
306,
4ea,
1c2,
10119,
10166,
3d3,
a4e,
7f3,
10616,
9b4,
688,
10443,
e4c,
3d5,
108,
107ea,
359,
6e9,
beb,
102f1,
102c2,
10188,
256,
8b4,
e,
107fb,
101a5,
5d5,
100d6,
ab4,
4ec,
86a,
51f,
cc9,
a7,
33e,
4bd,
10adc,
10263,
883,
835,
739,
10631,
6c1,
e79,
cd6,
10194,
10af2,
100a2,
42f,
7b5,
478,
1075b,
107a5,
41b,
98f,
484,
1fc,
1016b,
bb6,
aa1,
10211,
1045c,
106ae,
10839,
8af,
3c,
352,
d88,
114e,
c6f,
a5b,
10b3b,
118cd,
5e3,
1005,
187e,
16d9,
186c,
8ef,
4d9,
10371,
101c4,
115f0,
13bd,
10e6,
a46,
613,
10f28,
10839,
10a4a,
1058f,
10333,
3fc,
b48,
74d,
101ab,
101e0,
105d9,
10a13,
10372,
10765,
100db,
3d9,
624,
10333,
54f,
10963,
10876,
9d,
10264,
8ae,
d79,
ccd,
10033,
101aa,
101ae,
462,
107a5,
10933,
0,
764,
eaa,
17fb,
38a,
8fa,
10162,
1df,
1051e,
6f,
1036f,
acd,
e0b,
1938,
8da,
469,
d84,
1008c,
10803,
e5,
10081,
2eb,
a67,
788,
504,
e8e,
200,
10229,
10155,
e1,
91e,
10c13,
727,
237,
209,
5b4,
941,
30a,
3a2,
1020c,
10e11,
1002d,
25a,
b3,
10037,
2dc,
10168,
102c1,
113e1,
10c1e,
10569,
8a9,
118,
10450,
46e,
10527,
110c4,
1035e,
10b9a,
9db,
f0e,
306,
1005e,
727,
f03,
1cde,
0,
1e6,
75,
dc6,
593,
dd5,
37d,
104e0,
c79,
54c,
998,
10133,
775,
16c,
10327,
107b6,
103f0,
5cd,
1064e,
14d,
104eb,
51,
3c,
10118,
1000d,
10176,
64f,
1541,
439,
12e,
44c,
10ed7,
10aab,
195,
10504,
1a,
867,
1332,
f3,
3c2,
100cf,
10256,
10b88,
10049,
101bb,
109b4,
45a,
7cc,
acb,
750,
996,
393,
1002a,
10153,
1066e,
10635,
1036e,
105d9,
575,
22b,
43a,
103e3,
10764,
40a,
4a8,
10907,
10464,
10a78,
a2c,
2eb,
33d,
10eb0,
1071c,
b25,
2f8,
1056d,
e0,
10760,
e4b,
10496,
102d3,
1096b,
10414,
e3,
7a5,
2f8,
894,
1049c,
10489,
10554,
10d7d,
1107b,
34b,
779,
ebb,
11a5,
f59,
11fe,
19,
20b,
6f0,
760,
504,
1075e,
109,
10555,
102ed,
d21,
8ba,
63d,
298,
107c2,
1058e,
1013f,
1048d,
627,
47a,
977,
1040f,
774,
10076,
10117,
295,
108cf,
3d9,
10205,
ce1,
5d6,
10129,
744,
a4d,
550,
10975,
65,
1ad,
5a6,
fbf,
ba5,
16c,
6b6,
c95,
10217,
102f6,
73a,
103ca,
10afb,
10652,
367,
10331,
f48,
1052a,
102f2,
4df,
ab,
110ce,
10ed4,
542,
61a,
62c,
53c,
336,
10854,
29d,
3b5,
812,
103d0,
10c8e,
ba9,
9ba,
aab,
8f8,
101cd,
1086d,
2e9,
102bd,
10e67,
10557,
103cf,
2e2,
105d5,
102a5,
8a4,
102ea,
600,
10819,
10296,
10743,
10bf1,
10298,
105d0,
10756,
42c,
104cf,
7c,
102a2,
c63,
7c8,
1029a,
100a6,
113e0,
11993,
106c3,
1097d,
101bb,
10264,
100ba,
10c7,
bb2,
103d7,
91a,
514,
404,
11dc,
17be,
14be,
b7c,
271,
787,
103fd,
10d59,
355,
404,
5ec,
9f6,
fb0,
1057,
5fc,
de6,
10077,
10c41,
7c,
10eb3,
103ee,
10302,
7c6,
5ed,
e04,
c41,
10333,
10729,
107b3,
10d0b,
11231,
1b8,
10957,
10330,
10021,
1184,
87d,
b23,
10842,
10f2a,
10624,
10ebb,
10e35,
1069a,
594,
bd2,
62e,
c50,
65a,
606,
105bb,
10068,
10256,
10007,
29a,
1014,
393,
285,
106df,
400,
10251,
1076e,
1045a,
105cd,
103d7,
1060d,
1011d,
c50,
103d,
742,
10502,
823,
59a,
c4e,
1014a,
10fb4,
bd9,
4a3,
4d1,
91f,
9af,
107cc,
63e,
1064b,
10046,
46d,
7f1,
10344,
ed1,
129e,
77d,
1062b,
4,
10478,
10895,
148a,
782,
10462,
1042c,
6a7,
1015a,
10fc0,
103cb,
11608,
10e68,
102cf,
1019d,
42,
228,
10631,
22f,
1036c,
10403,
10459,
1058c,
1023a,
107a2,
f0,
379,
35f,
956,
10d3c,
10a0d,
10358,
10510,
858,
103df,
96a,
103cb,
368,
1af,
10b7e,
10010,
100d5,
109fc,
687,
10115,
100df,
100df,
116a,
1d1,
106d5,
10539,
7f0,
105d5,
b5f,
505,
10242,
587,
eea,
f09,
433,
963,
6af,
107c8,
b4a,
2ba,
39f,
1fa,
ab0,
afa,
1073f,
10017,
106a1,
10181,
93,
133,
10433,
f24,
1bb,
105a1,
101b7,
10bcb,
10895,
10409,
10cc7,
10cf0,
10e5d,
10270,
356,
10103,
10f15,
10a61,
106d4,
1175f,
10d8d,
442,
106c0,
10077,
5e7,
9b6,
104f7,
101e5,
9e6,
1080f,
1051e,
e1,
1002b,
10639,
b5,
10058,
102f2,
467,
ad2,
10a64,
10242,
10bae,
10a20,
314,
39e,
307,
1006d,
1015b,
1e0,
108ff,
10198,
11107,
51d,
10409,
1009a,
5ce,
5cd,
105f3,
22d,
10305,
d7,
5f,
100dc,
1053c,
3fe,
1020b,
1010a,
10a83,
10772,
10361,
8f7,
113e9,
a7,
1073d,
481,
286,
11a,
41f,
ca2,
ee,
449,
10e65,
515,
63c,
10587,
10009,
109b0,
b99,
cfe,
387,
1018f,
21c,
1003d,
3d4,
1031b,
10108,
9c4,
b43,
410,
3eb,
3e5,
4,
1030b,
b39,
448,
7a9,
695,
885,
c01,
101d9,
104f4,
1046e,
26e,
115c,
12f8,
1ee4,
14d4,
5e7,
1053d,
1069b,
1151e,
1049d,
8d7,
35e,
107c3,
955,
c98,
3a3,
7a4,
e37,
5a8,
96c,
10760,
10005,
6a2,
739,
10700,
10b0e,
11108,
11662,
10ecc,
10ae3,
104e5,
532,
1002c,
123,
702,
104a5,
10a19,
10673,
446,
104e4,
3ec,
105df,
10ce5,
10343,
1017b,
10b47,
103c0,
1007d,
2fb,
106bb,
104ba,
10562,
4cb,
6aa,
10d49,
111f0,
10ed2,
10f96,
108d7,
10484,
cbb,
1003f,
b89,
844,
1039f,
10cf6,
147,
10082,
f01,
39c,
107e4,
338,
c8f,
10637,
10e07,
10772,
107e2,
1000d,
f53,
10623,
2a5,
1047a,
7ad,
101eb,
109b7,
101ed,
10c52,
1099c,
1447,
10028,
216,
440,
150,
10362,
1098c,
92e,
1014e,
b00,
12e,
331,
80,
10492,
10e02,
10b3b,
18e,
fc,
695,
321,
1000d,
11138,
10dbc,
7c6,
ee8,
68e,
1438,
1394,
1a6e,
179a,
5e,
10b57,
10a7a,
698,
10b0d,
10ca9,
12e6,
6e4,
1217,
1ea5,
11265,
103c5,
100ec,
105ce,
1104d,
104d8,
40b,
161f,
1f46,
1c74,
10964,
a0,
50f,
1010c,
1021c,
7e1,
d97,
1048,
a22,
99b,
1088f,
77b,
b33,
72d,
b20,
10229,
10333,
f46,
6eb,
438,
10466,
1039b,
193f,
f6a,
10f8,
a64,
14ab,
10324,
1550,
8bd,
19c,
10d76,
862,
1469,
1ef,
554,
4b6,
10e81,
359,
10a48,
109de,
101d8,
cfe,
230,
10c0,
42e,
742,
bc0,
d29,
11aac,
10204,
a19,
10a,
103b,
10338,
1433,
819,
b60,
101df,
115fc,
108ca,
56d,
1054e,
48d,
10cec,
1074c,
2d0,
10a1c,
12304,
111f5,
78c,
318,
eea,
14c8,
1214,
aed,
618,
9d,
102f0,
1091e,
398,
3a2,
1554,
12a4,
a0b,
e7b,
ad9,
1193,
437,
e5,
10abd,
b4b,
1613,
28c0,
d19,
a42,
61,
1090c,
11553,
1076e,
11a09,
377,
15bb,
d91,
7b5,
104e,
9c1,
11922,
10e64,
10f65,
10be0,
102c8,
10b56,
105ff,
12a,
102c4,
309,
1117c,
10e19,
1034f,
10172,
266,
c70,
117b0,
113,
1ba5,
1532,
10cc7,
10e6a,
2ff,
d98,
10de0,
2ce,
10792,
4ba,
1019,
89b,
7a9,
396,
bf8,
bca,
1068b,
11388,
108de,
100c6,
104e4,
467,
db2,
47e,
11d5,
f73,
3b2,
109b9,
1107a,
109a7,
10825,
a00,
118e,
6a9,
1016,
f60,
10c58,
103fb,
107b4,
c76,
674,
10097,
c0f,
10180,
1b8,
103,
10361,
920,
d40,
83b,
b6f,
c65,
87a,
a47,
10951,
10f17,
492,
166d,
1870,
722,
398,
1c2,
643,
10f1e,
10415,
10430,
1500,
1ce8,
1d70,
f36,
bb8,
106e9,
1159f,
10e15,
11726,
1162f,
12c8,
1522,
12e2,
410,
10577,
1031f,
104d4,
110e7,
10b66,
107fd,
1234,
6c8,
10cc1,
10556,
10627,
6c,
10c1b,
109c9,
104e1,
35,
577,
10849,
11533,
10902,
5ef,
103d8,
10a98,
6f0,
396,
731,
10430,
10db3,
10694,
104e0,
10836,
1019f,
471,
9e6,
13dc,
1dd,
10435,
105d0,
10976,
10e9e,
109e1,
10044,
ae0,
118c,
d67,
67c,
103ee,
10548,
114f5,
1077b,
107bc,
10722,
18,
100d0,
952,
10122,
58e,
10a0b,
117d6,
10e5f,
10a3c,
140,
1028a,
104b6,
5b0,
10022,
11457,
108e9,
ef1,
787,
d60,
1f3,
12f,
6bb,
13f,
10b89,
103ba,
102a0,
ebb,
9a1,
e59,
4e2,
2a0,
154,
1ec,
1066e,
1087b,
741,
a80,
6af,
4c4,
1002d,
104d7,
106d0,
11bf6,
113b5,
10f80,
10a4e,
2b0,
10582,
472,
b8f,
105ee,
11042,
11af4,
11c81,
1051c,
710,
100a7,
21d,
a11,
655,
10b19,
10529,
10c11,
107d7,
108d9,
3be,
948,
1195,
3f9,
10ec5,
10af7,
1034d,
1032e,
95a,
446,
10385,
102f2,
1035e,
10d26,
10128,
104ca,
2eb,
10028,
131b,
c5e,
bdb,
60,
5c,
1ca,
10a94,
a33,
1082c,
8dc,
1268,
aa3,
db7,
4b,
e44,
623,
fe,
398,
10b19,
141,
e3a,
baf,
78b,
10124,
40,
10cdb,
10cfb,
10c0f,
108b9,
102b1,
6fe,
106dc,
5c,
102a1,
10b31,
107c9,
11193,
10df9,
2b5,
101a4,
18f,
1076c,
1036a,
107ee,
106f0,
1037a,
10950,
10b5c,
101ed,
3dc,
b64,
103c1,
24c,
1011a,
49d,
c69,
e77,
1145a,
1114d,
105c3,
10688,
1023c,
bac,
c1c,
8df,
de6,
149,
10735,
2b5,
106f6,
108b8,
10009,
83b,
c55,
b1e,
567,
9c4,
100be,
1110f,
107c2,
1027d,
82c,
da0,
770,
1321,
5bd,
11018,
10681,
10694,
60a,
a76,
5cd,
3ce,
cd4,
157f,
41d,
1033d,
6a,
100a3,
d68,
f9e,
10711,
811,
ddf,
330,
10289,
3b6,
c3b,
fc5,
fdf,
19b4,
1054d,
dc3,
d75,
2ff,
104b9,
7bf,
4e8,
67,
bea,
b79,
dc1,
45c,
a36,
778,
161,
10800,
10efe,
10e76,
1043f,
150,
1a7,
643,
afe,
1068e,
479,
6eb,
1048a,
10519,
10aec,
10cea,
102aa,
3a4,
107bb,
1035a,
349,
ea5,
162,
254,
a25,
108bc,
1092c,
10338,
859,
63,
6c6,
bd5,
10d9,
436,
1f5,
110e4,
1018b,
5f8,
100db,
2ac,
a07,
67e,
101fb,
10b2d,
107f5,
10712,
107f4,
1089c,
104f7,
a05,
8a7,
f3,
104a0,
10862,
103a5,
10c80,
1079e,
3f7,
317,
480,
1d0,
10124,
1038d,
1031e,
25c,
ea3,
101c8,
10190,
37d,
691,
a01,
269,
dba,
10645,
cc8,
12ac,
1027c,
1099b,
105c9,
1eb,
10a5b,
63f,
734,
1045d,
6bc,
1ba1,
4e0,
104c7,
10816,
70d,
6ce,
46d,
55b,
38,
1026,
663,
c77,
b92,
bbb,
2c7,
5,
1029f,
47d,
100b0,
58e,
104b8,
1135,
262e,
1cc9,
10153,
108d6,
1191c,
11408,
10cb1,
10527,
10b21,
1b26,
1628,
2d0,
10161,
242,
1025d,
10d70,
10e4e,
10679,
10a16,
df0,
a40,
1005b,
d98,
879,
101cb,
10d3e,
10a63,
115b3,
11346,
1250,
1ca3,
112,
a5,
104b2,
10fdb,
1108a,
10c55,
11672,
10d78,
108ab,
102d4,
ed9,
105b8,
1001b,
10988,
31d,
105d3,
60b,
10cff,
10300,
107a8,
104da,
10249,
2c7,
6cd,
5c9,
c5,
8c3,
ac,
107d9,
10e22,
10040,
1060c,
10640,
577,
f23,
11cd,
ac5,
b6f,
1055f,
2a9,
5c1,
1e2,
be,
1040f,
411,
a63,
f28,
1462,
102ad,
10273,
10ce3,
10e23,
379,
36d,
378,
535,
e98,
f93,
106ee,
10a7c,
10681,
108ea,
926,
105e6,
10051,
