memory_initialization_radix=16;
memory_initialization_vector=
1f96,
127d,
2685,
12620,
11b1f,
3668,
2c29,
1c1c,
13ad2,
14a57,
4573,
3cb6,
11832,
10dc2,
14ebf,
3207,
341e,
1325e,
109ac,
14060,
4d32,
2571,
11a95,
11330,
12aac,
2f83,
106cb,
11489,
1098a,
11cab,
3f90,
405b,
100e3,
e18,
188e,
1de4,
1b1d,
5958,
47c1,
10201,
167f,
334d,
54e1,
3c38,
50ed,
5c69,
3b64,
10585,
1400,
2c5f,
6337,
50c3,
3025,
379c,
32a6,
3604,
20b3,
2efc,
302b,
2d58,
13eb7,
11cde,
13b30,
82,
14b4,
13671,
112b7,
12461,
11f28,
24c1,
15c2c,
126ca,
12c35,
13296,
945,
2f8d,
10e5,
3bca,
5639,
3fef,
11aee,
1228d,
1095c,
17da,
cf9,
149cf,
12824,
123c3,
afe,
2099,
13141,
14b58,
12302,
1063a,
b97,
123c6,
1223b,
22f7,
107e,
40f9,
10e7d,
289a,
10a4c,
1b36,
11147,
101d6,
32dc,
592,
1119a,
1322b,
25b,
45c9,
107a,
1290f,
1368a,
4052,
66bb,
4291,
1228c,
91b,
4a46,
390d,
3a9e,
10985,
10a4b,
1202,
432d,
32fb,
13d6,
598,
33b2,
4e5b,
2b6e,
2b2,
10b4e,
129ca,
1338f,
c69,
10e44,
ea6,
1316e,
137b6,
1153c,
11d06,
1292,
1750b,
12269,
1370b,
a7f,
2c88,
