memory_initialization_radix=16;
memory_initialization_vector=
100c3,
106a3,
80e,
3d5,
b25,
72f,
100c5,
147,
10217,
607,
700,
3d9,
10763,
3a6,
10421,
42c,
7a1,
75a,
5c6,
ae7,
75f,
10696,
103fa,
1084f,
84c,
1049e,
2ad,
7bf,
3b4,
5d2,
101a9,
10264,
105bc,
426,
7e,
a8a,
9e5,
911,
1006f,
10116,
e07,
5d5,
106d6,
9e0,
8c8,
16c,
127,
2de,
8da,
10559,
55,
100d3,
6eb,
1017c,
10187,
72f,
33f,
10483,
103c7,
528,
10531,
108e6,
eaf,
101db,
411,
192,
256,
108e1,
1044b,
789,
10868,
994,
462,
905,
46f,
34d,
188,
103f3,
1099f,
1017e,
e8,
c87,
1065f,
1f3,
139,
712,
bee,
1027d,
7d5,
38b,
10286,
4ff,
107fe,
1066f,
10050,
1004f,
106b2,
302,
284,
265,
4b3,
aad,
6cb,
7be,
a44,
707,
108c9,
17c,
8c6,
30,
1077b,
101a1,
105d0,
100f1,
8d2,
10449,
49f,
155,
442,
1075d,
1045,
283,
185,
101dc,
b5e,
454,
10343,
e10,
10568,
98f,
3ef,
1027d,
6df,
10567,
527,
90,
4ac,
102dd,
d7d,
1026a,
103dd,
5d0,
705,
108ff,
948,
10763,
3c8,
1031f,
f0,
4c1,
1ca,
be0,
1034e,
10383,
74a,
12e,
351,
4a7,
7f9,
50b,
108e8,
562,
1003a,
38b,
720,
1044a,
a62,
55a,
6bf,
297,
108e5,
101ed,
103fe,
1046c,
5e6,
1083a,
108f1,
549,
2c3,
b83,
25,
32d,
f9,
a2,
100f9,
107ee,
10501,
16d,
ae,
102ad,
10760,
92e,
a83,
a8,
6c8,
ad1,
107f2,
27b,
28d,
1056c,
