memory_initialization_radix=16;
memory_initialization_vector=
1515,
24ad,
2bcb,
df6,
1c62,
2901,
1612,
10681,
393e,
cbb,
10867,
1e4a,
124ce,
1060e,
12835,
136cf,
122fc,
104f6,
10495,
25ac,
2aef,
1070e,
7fe,
2b58,
13b82,
130ce,
11fd,
1200,
1b70,
11c9f,
2809,
4c8,
10b1c,
e6c,
2d86,
1510,
12dfd,
102c6,
2026,
1285f,
10f09,
109b9,
11775,
11c94,
108b2,
120dd,
216,
10053,
25d0,
5be,
12819,
274e,
113c,
11275,
245e,
117f5,
143d1,
ae4,
1185b,
12e21,
1089b,
11ba3,
243,
265d,
95a,
309c,
2835,
1cc0,
28e0,
2791,
78a,
1318,
1ef9,
1112a,
108e6,
10508,
12273,
121ce,
10038,
6a,
12ee7,
100ee,
de7,
10e56,
10a85,
12fe1,
1bdb,
cf2,
11291,
286b,
12008,
1207d,
15f,
13646,
11e91,
10e50,
1381e,
10a0b,
2772,
1005e,
ef2,
1ca4,
11545,
26ed,
2081,
11d69,
103c4,
9ab,
1da3,
40a,
115ef,
105ce,
1ed1,
2957,
1377,
1ddb,
110e7,
20dd,
2a4c,
9d0,
1ff3,
10317,
1be2,
103de,
11f8b,
101e,
a31,
144,
15a3,
19d7,
11f72,
1b7a,
ed2,
122aa,
12359,
10454,
1db5,
114db,
2842,
2aa4,
115dc,
39b,
c09,
12a5d,
10fa2,
10fb9,
10c85,
11346,
101a4,
11d66,
644,
27c0,
996,
12d51,
32b,
120c9,
2394,
123af,
12a1f,
356,
3b1,
10cfa,
1dd5,
d8f,
17b,
2a03,
fb3,
11df9,
10cab,
7bf,
1a87,
1b62,
1010,
1260f,
11cd9,
104fb,
1137b,
12437,
231e,
110ce,
2455,
10a70,
10329,
1da,
1811,
12537,
27fa,
10818,
11cb8,
195c,
11f6a,
10d8a,
126f3,
d44,
127b7,
105d6,
11186,
11841,
11992,
10040,
1da5,
122ab,
2457,
2167,
11859,
105e9,
2eb9,
16b4,
216e,
10c,
10260,
1009f,
11eea,
135a9,
123eb,
1da6,
10eff,
2035,
438c,
10ab5,
125df,
1082f,
449,
1ba2,
117c3,
107b2,
114bd,
986,
10f32,
1fa8,
108a4,
12e6,
2158,
b58,
11db2,
145ba,
1392e,
11a1b,
116fe,
1011d,
1b80,
50cc,
2b18,
40c,
898,
117be,
2054,
1ec2,
2774,
11318,
1118e,
1347f,
ac2,
11236,
104cc,
332e,
6d7,
103f3,
13575,
12c78,
13631,
10973,
1070c,
123a,
2042,
2e4b,
fd0,
120b1,
13837,
11ccd,
110fa,
12820,
10f85,
126d9,
12175,
113c7,
12448,
1127a,
c8e,
10775,
b56,
1e8c,
18cd,
5b9,
1bcf,
1002b,
11da2,
11d7a,
12758,
10022,
10905,
11496,
119a9,
106d7,
7bc,
25b4,
234b,
2c10,
642,
116f8,
2cb3,
103d6,
11492,
1484,
73a,
104a7,
107fb,
891,
335f,
1053c,
1152,
2e40,
dad,
1f24,
36c8,
eca,
10204,
24a8,
1c8b,
924,
10cb2,
10065,
123f2,
11eea,
10cb9,
127c,
11020,
12699,
10710,
11e1c,
10980,
13ff8,
200,
10e68,
1b3b,
114ad,
110a2,
e51,
1226a,
19e4,
d98,
12ac8,
1048f,
2363,
10a23,
11564,
12d50,
116f4,
671,
12d72,
1014f,
1a17,
35e5,
1ee6,
1d60,
2710,
21b5,
24f5,
40f,
1969,
2dfc,
3635,
1e2b,
11226,
233c,
991,
125ea,
10b17,
2d92,
d27,
101cb,
1317,
100db,
103c1,
10264,
101c3,
1e24,
1f33,
10ed0,
865,
123e2,
1956,
1179a,
466,
6b,
10690,
27d8,
19c3,
560,
23ae,
1217e,
2b7,
6cd,
12022,
128b4,
11f01,
1fcd,
10bd7,
8db,
252b,
d79,
2341,
10512,
f8c,
2998,
e94,
1e9c,
118c4,
105ee,
11578,
2aa8,
2cdd,
719,
1163b,
bd8,
10ebb,
10ce2,
11f7f,
cb3,
2110,
467,
124e,
70,
68b,
1f74,
761,
af9,
10526,
110fb,
12012,
15b9,
a71,
1000,
123ad,
106a7,
10c0f,
18de,
67e,
11f08,
120cb,
10ff0,
12a25,
137e5,
18ca,
1279c,
11b3a,
12239,
1106c,
234,
6b1,
11116,
65d,
1452,
9e9,
314d,
20c0,
11a67,
1266,
daf,
10dce,
1f66,
322b,
1f7d,
22fb,
10879,
1054a,
13f0,
11440,
18b9,
21ed,
10aa1,
113c,
10bc1,
358e,
112da,
10929,
10f6d,
2087,
2b70,
1d32,
7da,
1f61,
2190,
105d0,
9d5,
1147e,
1b68,
1820,
27d5,
13cc,
646,
b50,
369d,
3cc1,
18d,
11b62,
1383,
12724,
1223a,
10f78,
1273c,
10b01,
2c0a,
8d,
1425,
94,
18ab,
11bef,
de3,
10f48,
11c85,
1c90,
149f,
77a,
161c,
2e40,
1e9d,
1c18,
51d,
3cd8,
37c6,
2f80,
703,
135e5,
180b,
4f6,
13614,
12ab9,
12047,
12117,
13157,
1ce6,
10a00,
17e3,
14f3,
10255,
690,
ea6,
1b50,
2d6e,
