memory_initialization_radix=16;
memory_initialization_vector=
217,
b86,
22cf,
23b2,
14c4,
cb5,
917,
b75,
15b0,
b6b,
fc2,
2108,
2209,
4f0,
1b33,
732,
11c3,
72e,
10ae,
10259,
7eb,
ff7,
91a,
10969,
102fa,
f66,
24a,
10880,
9eb,
3c2,
b39,
103f2,
1120f,
113fa,
10ac7,
109c8,
103d4,
1027e,
10025,
1a8,
10093,
10602,
10f7e,
10b73,
476,
1418,
b68,
1014c,
105ae,
10087,
10366,
10a75,
10417,
106eb,
101d,
1ef5,
15c0,
731,
5,
10353,
49c,
1044a,
10f,
457,
33a,
6a6,
b07,
b0a,
64e,
3cc,
1025a,
56,
3a2,
1027f,
39,
7f9,
cf5,
1b,
850,
10caa,
4e7,
7ea,
302,
7ec,
100de,
1739,
d19,
763,
1029a,
101c7,
55f,
54e,
a28,
1028b,
103f9,
10103,
104c0,
1026b,
1085b,
10212,
1009b,
1083c,
10ca6,
114ec,
10546,
110a3,
c0f,
108ab,
10bf8,
1119f,
10c5b,
10e3a,
10f41,
110a6,
110a2,
11667,
1068d,
10fc8,
1139e,
259,
10290,
11174,
111b7,
11a3d,
11385,
11273,
577,
10fbc,
10d54,
2c5b,
10455,
10fd1,
104f8,
103a9,
1093d,
10473,
106b0,
103b8,
10592,
1e8a,
1099a,
102ba,
10266,
79,
4d,
109b7,
10109,
111b0,
117f0,
1046,
106a5,
abd,
451,
611,
93c,
10590,
11893,
11d7a,
10cbe,
70d,
f62,
536,
db0,
853,
10ceb,
115e8,
1187b,
11afe,
207,
e0a,
1464,
14b6,
764,
109dd,
2cb,
11022,
119e6,
10d70,
10ee3,
6a3,
a9f,
1239,
110f4,
11931,
2c,
114c2,
110a0,
106ad,
11bb3,
1089c,
5dc,
f9,
10c74,
11540,
10241,
1098c,
101b9,
10481,
129a7,
10a11,
102ce,
357,
794,
60d,
10770,
11038,
10411,
102da,
108aa,
6a7,
1082f,
10960,
ab2,
716,
18ad,
886,
7ef,
108a0,
678,
104de,
53e,
d16,
1046a,
2e2,
5c0,
ee0,
504,
113d4,
1093a,
1a0,
2a,
701,
12a,
10208,
6f5,
90c,
104,
20a,
1065e,
10bf2,
f2,
86b,
112f4,
fc,
db6,
10552,
106cf,
4e3,
1053a,
768,
100b3,
714,
107f6,
10832,
15e4,
6eb,
c5d,
9d0,
125d,
10007,
10620,
1fd,
633,
35,
101b5,
988,
518,
1126,
d48,
55a,
544,
10195,
932,
1047e,
1052d,
1008a,
17a4,
f78,
c21,
10160,
101de,
7fd,
1d7,
1018e,
69b,
103fc,
a60,
f64,
100fd,
107da,
106cc,
10337,
1088d,
10a5d,
10efa,
10bb1,
104f4,
1fd,
10135,
105a1,
60e,
161,
102f6,
10531,
102cc,
841,
297,
10ac7,
103dc,
10925,
549,
106f3,
1073e,
73c,
1055a,
bba,
704,
2f7,
225,
10b23,
103d2,
10a47,
106ad,
11e,
1058c,
a68,
2a5,
10d24,
1a0,
1054f,
10aab,
109e3,
83e,
74e,
1049f,
9c8,
97c,
10372,
1044,
1d2,
10546,
107c6,
122,
101f5,
936,
5b7,
286,
1036f,
1fc,
103bc,
104ea,
1047a,
3ca,
c53,
866,
a8a,
10594,
10058,
10803,
80d,
10c61,
f3,
1002e,
8c0,
14e,
10ae1,
89a,
400,
103a8,
8d7,
10919,
518,
528,
ee3,
101f8,
17b,
efc,
b2,
1091e,
476,
944,
4c,
247,
afe,
10204,
10003,
b13,
f,
329,
10858,
305,
d4,
1097e,
6f5,
85d,
104b9,
3c5,
10804,
11003,
1010e,
194,
11477,
117e6,
10e7a,
10519,
cfb,
3d1,
104bf,
11088,
12718,
e62,
1021d,
41f,
10003,
c28,
d9,
47d,
108fb,
11a73,
1190c,
13d2,
1af7,
176f,
c52,
1ee7,
e4e,
258,
11449,
100bc,
ca9,
101f,
1015,
2351,
620,
108b9,
1118e,
185c,
ee6,
10a2c,
10833,
eb6,
9c2,
81f,
1057e,
1150d,
118a1,
30c,
e70,
1013f,
13f,
11e9,
f9b,
103dd,
11736,
10def,
114b0,
e82,
5e4,
1027d,
a53,
424,
104a9,
101ff,
10052,
10654,
1113f,
10d43,
10cf4,
10e53,
10403,
10357,
1121f,
11477,
10db3,
10e4e,
103ac,
113db,
12813,
110d9,
10ef3,
110b5,
118da,
11383,
1093e,
10eb0,
238,
114fb,
11c0b,
1100c,
120a8,
58b,
109d7,
10617,
a83,
173d,
cb2,
8d3,
10555,
1169a,
12acf,
82d,
7f2,
313,
104e1,
10b3b,
105e9,
10ac0,
1177c,
109ff,
1034e,
10352,
102fa,
b6,
102ca,
1047f,
447,
103b7,
10145,
2c7,
1053f,
ab2,
35d,
105bb,
10b1b,
4b3,
10113,
109ea,
10617,
b3d,
8fc,
1026a,
10309,
100a0,
10150,
10525,
843,
102fa,
10973,
c8d,
105f,
107fc,
10e84,
10015,
10ee6,
713,
7aa,
1078f,
245,
10393,
1283,
1105d,
10ba5,
10059,
5ab,
826,
1045c,
10454,
1062b,
2b2,
a7b,
10246,
1098c,
10658,
100cc,
854,
10cdc,
5f0,
40e,
1c7,
884,
10b6f,
10754,
10372,
65c,
103c6,
104c8,
5a9,
100a9,
af5,
a41,
1013f,
109b3,
822,
7da,
811,
9f4,
100c4,
b37,
10265,
109a4,
df,
10d9d,
10b1a,
86b,
c6e,
a03,
1126,
f19,
10505,
1061c,
94,
10444,
369,
10ad6,
71,
10cba,
82,
103fb,
b83,
1205,
4b9,
10c74,
9d5,
4f2,
596,
672,
26c,
10211,
c15,
1250,
10556,
10fd2,
10680,
1014b,
cda,
9f6,
1ca,
10204,
3a0,
5b6,
11756,
11699,
10f92,
10daa,
455,
4f7,
a1d,
10297,
10622,
1076f,
117ef,
109f5,
110c3,
78,
1c5,
99c,
2c9,
10291,
101cc,
1c6,
324,
43c,
104df,
120,
216,
942,
5c6,
e98,
8c5,
37b,
eb0,
10301,
93f,
fa2,
2f,
31f,
c71,
100ca,
3,
110a8,
f05,
f5a,
919,
ed8,
2e4,
e2,
101fe,
11027,
10a46,
110e9,
cdf,
1fe2,
60c,
73e,
10e0f,
10625,
10112,
1005b,
107de,
119ea,
1021a,
c84,
100f1,
10c8a,
10dc3,
54c,
c56,
d17,
ce7,
1011c,
1010,
1377,
a0a,
125b,
946,
6a0,
c8a,
1205,
92f,
f0,
1aaf,
5bd,
6f1,
377,
2f6,
e94,
8bb,
8c2,
102da,
106bf,
4a,
105b8,
10bde,
106bc,
76b,
4fd,
5bf,
b0,
10694,
1044a,
97b,
10ba9,
10317,
10ddb,
410,
574,
4cf,
3cc,
21d,
77b,
e2,
1056d,
1096e,
450,
633,
88d,
9d9,
b60,
b6,
3e5,
10bb1,
107f7,
63d,
9d4,
4f0,
104ed,
10559,
8a1,
2c8,
b49,
10721,
1067f,
107a6,
607,
133,
41b,
10123,
d6,
1004e,
e5b,
548,
106bc,
4ff,
876,
69f,
95f,
1005f,
10205,
30d,
10221,
4d1,
103e0,
4c3,
10347,
541,
108,
107ce,
101b1,
105c7,
10214,
23b,
3c2,
6ab,
1059c,
101ee,
ef,
109d7,
1095a,
11288,
10c6e,
1040b,
109d8,
10082,
1001a,
113,
77,
cf6,
1024,
bf7,
105cf,
4d8,
b7e,
5c5,
9bb,
684,
42,
ae4,
700,
5d9,
85e,
e19,
226,
6ae,
183,
74c,
11ab,
4a4,
def,
77a,
7f,
94b,
d99,
784,
a8,
9b3,
100a,
f8e,
8da,
ae4,
110,
16a,
51a,
10503,
10a3d,
2b3,
275,
10069,
221,
174,
8b5,
10563,
1050d,
10e02,
111a6,
1092e,
1006d,
240,
93,
928,
2d5,
e77,
49c,
102db,
10941,
108ba,
1f7,
1014,
a9,
189,
10830,
1059c,
6fd,
102db,
10580,
102d8,
8e7,
675,
1094d,
10705,
1007e,
10812,
10264,
1e7,
5ff,
915,
c39,
10d,
2aa,
10329,
10c65,
10b77,
10886,
7ef,
10400,
44,
10230,
10ab7,
10643,
10c10,
110a2,
977,
c00,
432,
c9,
8b4,
1528,
1125,
8a4,
7d0,
c6b,
333,
5f6,
aa5,
13ab,
18cb,
1b15,
f68,
9d2,
721,
941,
c0d,
78f,
13c2,
9b1,
1008,
be1,
e91,
e48,
7ed,
4e9,
b6d,
9eb,
ba7,
700,
54e,
75a,
8b0,
b00,
496,
82e,
ae0,
10503,
10194,
10266,
109c6,
10bf9,
3a,
10035,
aa1,
9aa,
10550,
11582,
110eb,
104e6,
102,
102a5,
121f,
a09,
100f2,
63,
107a1,
10291,
10b86,
b8,
177,
1038e,
961,
258,
102,
461,
808,
109ce,
108df,
61e,
10228,
9b,
104f4,
2fb,
2e,
101d4,
d82,
65c,
77e,
152,
10b28,
6bb,
10a9b,
10843,
1b9,
100ac,
387,
494,
101db,
487,
1015e,
10750,
93,
10e24,
10324,
344,
101b4,
37f,
10124,
10873,
355,
1076a,
52b,
55e,
105ca,
107e4,
108ef,
1068b,
27d,
1006d,
1007f,
10023,
1036b,
103e4,
102fc,
10948,
2db,
6b5,
1062a,
108c0,
5c1,
101b8,
2be,
1026b,
1002a,
102ad,
1072f,
5f3,
1036e,
101a4,
1063d,
10417,
e6,
10236,
10181,
35a,
395,
10362,
b,
ae,
19d,
391,
1084d,
1058b,
359,
34e,
10172,
10411,
100ca,
1086e,
1072c,
108e8,
35a,
413,
232,
10406,
151,
10459,
103e1,
990,
105dc,
391,
233,
101ca,
c5,
10759,
381,
107e6,
10554,
11c,
672,
10752,
4a6,
10784,
35c,
47,
1f3,
3d1,
108f6,
108a9,
10372,
49f,
10242,
10191,
241,
1045e,
1e5,
1e2,
36b,
49c,
109be,
10169,
36e,
1050e,
38b,
600,
10404,
10244,
85,
108a1,
54b,
10265,
1035d,
463,
2d1,
10014,
109,
106df,
10115,
343,
628,
15d,
f9,
27a,
107cf,
10353,
10278,
108bf,
100c8,
33a,
539,
101e4,
1057e,
103d2,
352,
401,
37a,
100be,
203,
56b,
104a1,
101b2,
106f6,
342,
10177,
10654,
600,
1002d,
109d9,
1b9,
562,
64,
3cd,
67a,
1062a,
608,
2e0,
1033e,
358,
108f0,
35e,
4ec,
1026b,
10179,
103df,
107c9,
10089,
86,
107c8,
10759,
105fb,
106c0,
631,
10254,
10406,
108e0,
5f1,
509,
2f8,
10060,
1004d,
10834,
1014a,
104ed,
156,
2cf,
1026e,
1099d,
109a4,
1eb,
62d,
10753,
1091d,
103f1,
10931,
600,
1005a,
284,
104d5,
62e,
108c9,
4a5,
3b7,
104ea,
1010a,
10956,
119,
47c,
10984,
101c9,
1084c,
339,
1079f,
53a,
108a8,
10805,
57d,
108ee,
1034c,
1000a,
86c,
28e,
3f0,
105f1,
100c4,
10091,
4e5,
10238,
10862,
261,
2ba,
10030,
3e0,
283,
10782,
1061f,
4c5,
10698,
1003b,
104e9,
420,
146,
177,
3fa,
7f,
10467,
100ab,
171,
480,
1c1,
4a,
1d7,
1012c,
102f5,
102d9,
1075d,
101aa,
305,
107ba,
101e2,
100a9,
103b2,
10528,
3fc,
10906,
100da,
109a4,
10863,
f9,
87e,
74,
1081f,
102a0,
649,
10786,
2a9,
207,
1c5,
10636,
41b,
e0,
10329,
1cd,
102c2,
104ad,
1f7,
10882,
106c6,
1061b,
101f0,
3c6,
10639,
3f7,
143,
101b3,
1062e,
10735,
108f9,
2b7,
5c2,
54a,
38e,
10092,
3e4,
109bf,
1034c,
104a2,
104b6,
192,
142,
3b8,
10358,
1044b,
2a6,
1065b,
276,
101cb,
104f2,
1a1,
1099a,
106dd,
127,
1099c,
107f9,
e1,
279,
207,
2,
1a6,
10263,
18,
5da,
108f6,
329,
7f,
1062e,
1007f,
b9,
62e,
4ce,
107f3,
103e0,
3f6,
101e8,
100c0,
103e3,
108d3,
1087e,
1dd,
10186,
1027d,
10116,
1035a,
1041f,
5c1,
108ad,
102ce,
105d4,
1043b,
100fd,
10005,
107af,
10443,
455,
4b,
105df,
5c3,
1024a,
f6,
10527,
108d3,
10136,
54f,
19,
5b7,
62c,
103e8,
10168,
26e,
100af,
106eb,
356,
1067c,
1058b,
107ab,
1b1,
10755,
10202,
1088c,
104b1,
2b9,
10661,
2c3,
108d5,
109b6,
43a,
10408,
106e0,
528,
10211,
10603,
628,
495,
108b1,
537,
281,
1052b,
105e2,
2e2,
eb,
145,
591,
10271,
e3,
6a2,
5fb,
1061e,
3fe,
104b0,
102c1,
1057b,
10762,
28f,
101ce,
268,
10586,
101d8,
104e5,
101d0,
335,
1094f,
7e4,
10320,
763,
30e,
77f,
d8,
10353,
105a6,
525,
3d,
168,
105d3,
382,
107b8,
b5,
10e,
274,
105dc,
10646,
2c5,
4a1,
682,
1074d,
76b,
154,
104b1,
1071c,
204,
af,
5c2,
100a5,
165,
1064d,
1038b,
325,
6d4,
10512,
433,
1dd,
471,
69a,
212,
734,
1028e,
22c,
391,
106cc,
75,
20d,
1039f,
21d,
61e,
10719,
678,
7a8,
1b5,
10357,
10661,
474,
1b4,
101d8,
64b,
10007,
75e,
4a9,
4ea,
107b6,
10659,
735,
56a,
10234,
5dc,
4d2,
128,
359,
1055b,
10375,
1063a,
108d5,
1045c,
10268,
557,
106f4,
152,
102ab,
1099f,
10598,
1013f,
10421,
1024e,
105ff,
1de,
101af,
616,
565,
18b,
71,
101a1,
1022b,
1021b,
4c0,
10126,
1047f,
507,
5aa,
352,
10722,
1039f,
10459,
418,
58e,
1085b,
2a0,
517,
10425,
101e7,
101c0,
3d3,
107b5,
105c4,
464,
35a,
2aa,
108e4,
100bb,
57,
109bc,
105ed,
109d6,
3e7,
10822,
105c5,
106f0,
103d1,
1028c,
312,
10128,
4d,
1070a,
10043,
105cf,
33a,
531,
10419,
28f,
1020c,
5ff,
108b2,
10584,
3c7,
107,
1f8,
102f0,
103cc,
591,
1009a,
10891,
10953,
10699,
10243,
1040b,
362,
107a1,
325,
1c6,
68f,
1,
3e9,
1035a,
cf,
391,
101b6,
305,
1043e,
1d4,
14a,
15e,
51a,
10433,
5c7,
351,
1004b,
10136,
1080e,
1033e,
3c7,
105bd,
a0,
103ff,
591,
101e6,
10023,
10180,
10a2b,
177,
100ac,
10562,
10815,
108df,
103a7,
936,
1012e,
47f,
1fb,
10788,
103f6,
10953,
359,
440,
54e,
10947,
101ff,
10817,
48f,
10308,
10877,
10670,
d8,
10389,
559,
10240,
51e,
4d2,
80,
10185,
33b,
1084b,
10929,
1063d,
1011c,
108ec,
1be,
479,
187,
106db,
95,
35e,
f1,
273,
101dc,
1087b,
24c,
200,
1045b,
105e6,
699,
480,
1061a,
581,
b,
375,
10869,
10469,
240,
9d,
683,
10232,
1036d,
10781,
108b4,
3aa,
1043d,
10400,
1089f,
10430,
5cf,
318,
7eb,
748,
1054d,
287,
1027c,
10117,
408,
1eb,
102f0,
59c,
197,
1006a,
c7,
10757,
102c6,
10495,
10871,
108c4,
1dc,
167,
1072f,
10279,
10651,
106d0,
495,
1033a,
620,
da,
103db,
10250,
10342,
1088b,
10070,
126,
10300,
10335,
3ae,
1044c,
584,
1063b,
2d6,
109ce,
1025e,
104ba,
1062e,
10070,
58b,
173,
1091b,
177,
10149,
10944,
10260,
106ba,
10435,
107e0,
1002c,
104d4,
106e3,
5dd,
56a,
10604,
1077f,
1071a,
1091a,
1088f,
488,
49b,
10163,
51e,
1016d,
10956,
305,
10375,
103dc,
4f9,
101ee,
10045,
10860,
1073e,
3ee,
10458,
1038b,
47f,
104c6,
1011c,
10569,
cb,
1006c,
10445,
52d,
1092e,
421,
108ca,
100fb,
10622,
104f3,
46a,
1056a,
10881,
10048,
383,
197,
67b,
dd,
4c5,
1059e,
3e,
105b8,
103ac,
10721,
c9,
108f0,
10106,
1019b,
1a8,
102f5,
10876,
4cd,
29c,
10807,
108c2,
1031f,
107d5,
407,
1070a,
358,
2e5,
fa,
10474,
10025,
58,
1026c,
1049b,
462,
1077c,
10373,
606,
59,
10352,
108d6,
102f6,
10479,
10537,
3d5,
103dc,
140,
10858,
103a4,
2a2,
189,
b2,
107c7,
57,
3e,
103fb,
10602,
3b8,
1011d,
10804,
3cf,
10425,
104a5,
348,
100cf,
1050b,
28c,
1072b,
1038d,
10713,
1010d,
655,
105bb,
10467,
1041f,
9e,
10206,
10792,
109ea,
527,
1079e,
10081,
309,
1012d,
10092,
558,
10176,
10281,
106c7,
1045c,
1d2,
10132,
4ac,
42e,
100f4,
10675,
105c2,
104ba,
4ef,
101fa,
10378,
100ea,
106a2,
1db,
48,
1c7,
10744,
640,
10032,
1060d,
100f5,
102c0,
10127,
10323,
107c3,
10503,
103f9,
101f4,
5d6,
54,
105dd,
10794,
600,
77,
10420,
10672,
10178,
19b,
370,
100b8,
10213,
10819,
10040,
1008c,
5e9,
64f,
103be,
105b2,
10487,
10602,
5f3,
107da,
10046,
1a2,
10723,
10516,
243,
1bb,
10157,
1069b,
1004b,
101b0,
100ca,
2fa,
100e6,
101b1,
10209,
394,
1009c,
100bd,
283,
462,
1022a,
10969,
1036d,
103b2,
288,
1045c,
316,
1035b,
10514,
10656,
613,
105a0,
562,
171,
1055e,
108ec,
5ab,
105e7,
104ea,
15f,
102ff,
1043c,
10377,
10653,
106af,
10361,
635,
1056d,
10235,
100c8,
104f0,
1ae,
1009a,
10737,
4ed,
10547,
1016c,
10625,
108d3,
99,
10841,
1066d,
4b6,
108f3,
4ee,
10137,
131,
4c8,
10234,
1334,
1540,
18ee,
b26,
100a7,
10586,
10ffd,
1a,
10c2a,
1228b,
11340,
101b8,
87,
1bb,
214,
cd2,
43b,
106f8,
11406,
127cc,
10a76,
52e,
f5a,
111e,
927,
1131,
13a6,
108bf,
10ff3,
10cf2,
54d,
10b3e,
101c7,
d6b,
14de,
a88,
eb,
101d0,
100ee,
285,
3e7,
10c5e,
10055,
ff3,
123,
e13,
293,
1e0,
104d5,
d32,
135e,
102eb,
11185,
4a2,
10bb2,
7e8,
5ec,
72f,
b68,
d19,
15e1,
104b5,
10304,
10aaf,
406,
38c,
10146,
a3a,
e7e,
6e0,
c4d,
7b5,
702,
405,
9b0,
5e0,
275,
7b5,
0,
77a,
2f2,
d7e,
560,
10259,
ecd,
eed,
571,
10ba0,
1062a,
1087f,
10821,
924,
10804,
1023d,
7f9,
104f9,
1034a,
1080b,
33e,
1023f,
1ce,
1006b,
109b6,
112bb,
10e3f,
106e1,
417,
2dd,
475,
1021b,
bc4,
865,
d80,
10426,
88,
114b1,
10966,
10de6,
3ff,
1213,
1334,
16ee,
165a,
d20,
60e,
10a13,
10ddf,
10c22,
10534,
1669,
1a23,
2707,
1d3e,
2dc,
115e,
10e42,
12102,
10872,
626,
12ac,
2748,
176a,
4df,
10345,
1b53,
617,
12bd0,
10747,
e13,
14df,
e5e,
3be,
305,
9e4,
153f,
10a9c,
115c1,
112ce,
266,
5b9,
1035a,
e6c,
24f,
17d9,
984,
12bec,
11b05,
11592,
102d2,
108d8,
101e1,
61f,
921,
211b,
df7,
1238e,
1187c,
1202a,
103c4,
6f,
7a8,
198,
d0d,
1efb,
89d,
1066e,
8da,
10a64,
104f6,
dc9,
ad0,
1239,
1b57,
8a1,
14cf,
8af,
11b1,
10963,
4c,
638,
1329,
1006,
72d,
19ba,
8d0,
10662,
109b1,
1007d,
967,
1018c,
10f22,
10210,
476,
51a,
bfa,
17ed,
a42,
10696,
102b2,
29f,
1121b,
11609,
232,
9f6,
537,
9e3,
1ed,
349,
10217,
321,
110bc,
108ec,
108a0,
6d2,
96c,
1011a,
5f1,
10ebd,
1051b,
1005b,
551,
10521,
5dd,
1059b,
10755,
101ec,
781,
10927,
ad8,
120f,
d5d,
10ddb,
4ed,
10030,
110d7,
1074d,
8f,
8ca,
968,
b71,
b54,
10083,
371,
10182,
656,
10009,
98b,
62b,
1442,
ff7,
1262,
4b0,
1d5,
10aba,
31c,
10546,
3e7,
102c6,
10067,
ed2,
1420,
1485,
9f5,
1095a,
10e47,
109fb,
559,
1150c,
10953,
20e,
c1c,
7cf,
10d5f,
10805,
10a75,
46f,
10127,
10218,
42f,
c1b,
756,
cac,
10305,
1e0,
10d22,
afa,
fc0,
10580,
739,
c3a,
358,
10a41,
11745,
1059c,
11153,
1006b,
7c7,
a8,
f71,
3a6,
10b1c,
10fd8,
111ec,
105b0,
a8b,
64f,
b39,
526,
a6b,
10362,
bb,
10406,
10a1f,
10195,
dc6,
468,
1069,
147,
10442,
1001f,
294,
10260,
108c2,
77d,
d3f,
3d7,
b94,
109f8,
10673,
10b0f,
607,
c0e,
287,
1100,
1052d,
faf,
e05,
2d2,
1e0,
6b2,
395,
270,
bc9,
76c,
10067,
1117,
e9e,
ccc,
eb3,
105dd,
10466,
76f,
33d,
1047e,
339,
16b,
1000a,
1ea,
1e7,
1061a,
10139,
53f,
107f8,
102ac,
10989,
10d04,
109df,
10b22,
412,
1d,
1049e,
bff,
10172,
1076c,
100b4,
1065b,
13a,
112d8,
1049e,
10c71,
115a1,
1102f,
1163b,
1063c,
269,
1478,
1ed0,
1565,
182,
101be,
100ba,
10a8f,
106fd,
664,
158d,
199e,
2486,
119dc,
12c0a,
11d4b,
113e4,
1084f,
17ea,
2798,
28e7,
1af5,
2250,
11aa2,
10ac3,
120f,
19c5,
1673,
97f,
10096,
10ce,
1c1c,
137e,
1044b,
40d,
c7f,
2158,
1cdc,
213f,
1118f,
119ba,
8a9,
1963,
10113,
107a1,
1cb8,
1024f,
108fa,
8ee,
1035b,
10dc5,
65,
10114,
81c,
1098d,
807,
c34,
b8e,
114c,
929,
10caf,
11253,
11922,
10be8,
7c,
1001b,
10ee3,
10563,
c02,
298,
10dd7,
1063c,
10f15,
1055d,
10eb,
1030,
5bb,
10190,
45d,
1091e,
1142d,
109f1,
9e3,
d55,
18b9,
e76,
c09,
b33,
1018c,
89f,
10e6,
2345,
141d,
11978,
125be,
11d75,
11b35,
10d3e,
1092e,
104a5,
67c,
72b,
a0a,
105a1,
109e5,
108ec,
110b6,
10f28,
1056d,
106fb,
ae3,
c90,
3b9,
11047,
11696,
122bb,
10c9a,
240,
c12,
24a,
1020,
10028,
ec1,
110b9,
10443,
891,
14ea,
589,
1038f,
621,
300,
547,
13f0,
52d,
b0b,
d1e,
1772,
69f,
108df,
106c8,
1028c,
109b2,
10c06,
107,
1032c,
81a,
1057a,
10c75,
10c90,
109be,
b8,
2dd,
116cf,
11033,
1072b,
6dc,
7e3,
107c7,
101c9,
107fa,
10296,
10d02,
11376,
11e71,
10cf9,
11297,
103ca,
10dee,
106d0,
10fb2,
10e25,
10f2f,
111fe,
10914,
10d77,
1051e,
10b7f,
107de,
1094a,
10a8e,
10cf0,
1142a,
10397,
e02,
c08,
575,
103e2,
370,
1035a,
2c9,
1034a,
10106,
b72,
39d,
91b,
10590,
110d,
f78,
772,
10623,
111aa,
11073,
10b40,
769,
a8a,
394,
e71,
12cd,
a63,
d24,
ab3,
10ca7,
11495,
3e2,
2fb,
18a,
e6f,
fbe,
1d4,
e86,
5b4,
f47,
904,
7e2,
d4c,
1005d,
9de,
547,
1089d,
10d41,
a3d,
e4,
e1f,
ca0,
296,
37e,
10020,
10188,
f7,
103b6,
10335,
10ae6,
1090b,
11681,
11930,
1145d,
1060d,
10eb9,
1076e,
10e4e,
1113f,
11d15,
1176d,
11858,
10e34,
105da,
106f5,
30c,
108f9,
104d4,
10774,
10fd3,
11c17,
109e6,
1119e,
11034,
10098,
10317,
10587,
10c9e,
1073d,
1031f,
10a6e,
101c7,
10a4e,
644,
10540,
f6,
10378,
777,
10054,
ed2,
b99,
706,
10af5,
19,
b44,
b58,
776,
106ab,
10706,
106d8,
15b,
10a8b,
11975,
11ad7,
118bb,
10c90,
107b5,
104f6,
10f5a,
103a7,
6c6,
10ed5,
1143c,
11987,
10e7b,
111ca,
10853,
1021b,
104d2,
a46,
b96,
10a9c,
10d1f,
10e91,
10957,
1027f,
10266,
a77,
163,
9cc,
a22,
10f5c,
10e07,
10440,
1,
25,
10b1d,
10704,
10039,
247,
797,
10f18,
260,
990,
9bc,
104da,
1ba,
10927,
10c88,
106a7,
10361,
100de,
3fb,
7fc,
100c2,
27f,
92b,
1043a,
10a76,
10375,
10e24,
10104,
1167,
b67,
8e,
235,
10006,
627,
12d,
101f3,
109ff,
10c37,
109db,
1071f,
109a9,
10321,
2e8,
108c8,
10cc3,
10c28,
1115a,
1136e,
1117b,
1085f,
102dd,
10cec,
10f8a,
11092,
10854,
10c41,
1075a,
10cda,
10026,
10813,
10516,
17,
101b2,
108f0,
100b6,
131,
10670,
10027,
406,
10916,
107ee,
10603,
10e3b,
10b6b,
11582,
10b67,
b42,
60d,
105c7,
10d2e,
10848,
10e66,
3a9,
23e,
105fc,
56d,
1f2,
10563,
112d0,
10c1d,
10238,
1019c,
426,
46c,
682,
650,
10256,
118c3,
1177b,
11328,
100c6,
5e8,
c72,
10b6,
9fb,
add,
91a,
11914,
10577,
1045a,
b05,
cdf,
541,
712,
10437,
10192,
99,
10a9b,
100d2,
102c1,
685,
82f,
103f2,
101ce,
109a7,
10129,
10899,
381,
14e4,
10094,
104ed,
10a15,
1044d,
10204,
1078c,
10811,
10dbc,
2c6,
148,
10696,
11072,
10277,
10faa,
1005d,
1078a,
10c35,
11144,
278,
10b14,
10da0,
10407,
10ee8,
10ed5,
bb,
33f,
10215,
10361,
1077e,
4fa,
10968,
107c2,
10695,
10608,
10947,
1091d,
292,
104de,
4c2,
c1a,
6ee,
98,
105d1,
499,
919,
1022d,
240,
339,
224,
75,
52a,
10760,
106e4,
10652,
197,
1be,
7,
73b,
c1e,
1052e,
1090c,
10424,
2d9,
387,
90f,
10216,
3df,
c9f,
104b2,
1158d,
10fbc,
10469,
1013e,
197,
73e,
613,
194,
b68,
1257,
5a4,
b23,
289,
102d8,
f7,
586,
20c,
55c,
37b,
fe0,
100a9,
d8d,
1087e,
108b7,
101d5,
2c7,
10a12,
58,
1068b,
b04,
10167,
173d,
1183,
413,
58b,
10a26,
10878,
105dc,
2ce,
14c,
4ad,
128e,
505,
3f0,
10241,
43a,
100b5,
1e4,
852,
10a7f,
10804,
2c4,
109eb,
108f4,
5c5,
4d3,
16a,
3b2,
15e,
10663,
4b7,
1034e,
10716,
105c8,
6d5,
cf,
4e9,
9a2,
35c,
ec3,
f07,
9ac,
34d,
3c,
505,
e55,
6ed,
e14,
133e,
73e,
ca3,
1a50,
25a,
100dd,
ca6,
1b13,
19db,
108b,
f82,
92b,
10fd,
90e,
10d9,
10693,
1021b,
10a4b,
10763,
470,
1053d,
103bb,
c57,
77,
32d,
10596,
213,
1015,
10115,
10566,
10719,
b63,
c59,
a96,
711,
1002a,
10d92,
108fb,
10b8c,
1065a,
103f2,
d63,
d26,
f55,
bc8,
118,
11631,
1139e,
10257,
10297,
105a0,
1046f,
1db,
513,
4eb,
3d,
42e,
107ee,
10a30,
10d8c,
104a9,
10b,
9ab,
7e6,
f91,
166,
694,
718,
1051b,
104b1,
100c4,
104dc,
50,
511,
10141,
5d8,
58b,
b0,
835,
75a,
b50,
109fb,
11179,
10744,
10340,
1063b,
10597,
10849,
100fa,
d18,
fd1,
10a24,
10ef9,
10b6b,
10c11,
11264,
128b4,
11823,
10689,
11473,
11864,
10fa8,
10ce3,
11b9b,
117b4,
10bbb,
10927,
10a0d,
339,
f7,
120ed,
10072,
10e8c,
11708,
10f22,
11c7b,
10752,
10bb1,
1477,
2bd,
102c2,
10756,
1119b,
11177,
11296,
11d7b,
1058,
9cc,
d0,
414,
100c3,
10285,
10a77,
10f37,
1127c,
1103e,
10060,
1007e,
10371,
acc,
1022c,
95,
576,
11201,
10e24,
100c4,
11753,
a07,
10084,
111c,
113ba,
7c4,
10746,
11d33,
1151d,
1110f,
106ad,
12f6,
100b,
10019,
11a36,
1bc,
10aa8,
10f57,
11263,
10bcd,
10552,
b9f,
10d2,
1147e,
11be3,
1172f,
10ce1,
1110a,
102b8,
543,
215,
176b,
b16,
625,
10433,
1152c,
10630,
38,
11ae,
bb7,
c39,
f07,
1433,
2358,
1030e,
376,
50c,
62d,
858,
10320,
11158,
11154,
48,
10191,
1a0,
10364,
8de,
57f,
10110,
2a2,
1,
283,
c1e,
4a1,
107b9,
668,
ad6,
1fa,
71f,
537,
4d5,
142a,
107f4,
616,
10bdc,
8a4,
555,
805,
66b,
75f,
100cd,
10992,
105b4,
10cb7,
10bf1,
33e,
8d7,
3df,
f66,
10e6b,
108e6,
59,
c0,
10cb2,
101f7,
1019e,
100e4,
a,
2a4,
103d1,
3cc,
10b23,
11058,
10890,
101db,
1096e,
2d6,
c4,
93c,
e8,
343,
10a9e,
10f6d,
10ea8,
108d9,
10b06,
b78,
834,
bad,
c61,
edb,
375,
10fb1,
10785,
229,
415,
fb6,
8ea,
3e2,
10441,
b88,
a24,
10db4,
100fb,
103fd,
1040a,
106ce,
10378,
10927,
8dd,
1008d,
104de,
10ac8,
101e4,
9e4,
1040c,
10075,
1486,
fcc,
1397,
2d8,
17b,
27f,
105a7,
10aa5,
102c1,
395,
de,
d2a,
d76,
16fe,
ef2,
a64,
10545,
1014c,
10999,
10cce,
103a9,
84,
1029a,
592,
1099f,
100ed,
71,
72b,
10b73,
10466,
10557,
338,
ce2,
84e,
6b6,
10088,
ba4,
106c8,
10679,
10460,
a2e,
1058b,
cb2,
140f,
626,
f1,
10caa,
47,
1082b,
67f,
716,
10162,
9fe,
95f,
cf,
c8,
10019,
10023,
49c,
c64,
de,
105eb,
3b4,
650,
309,
591,
cf8,
760,
100a2,
529,
13dc,
627,
10681,
10121,
10673,
10368,
106fe,
10,
7b,
72e,
ae0,
253,
682,
10665,
290,
103f8,
10b4b,
100cf,
54a,
e,
10624,
105e3,
10b12,
101d8,
1053d,
104f9,
112fd,
10241,
10e31,
10713,
86d,
ae7,
103b,
b06,
1a64,
198e,
10f01,
1288a,
1063c,
2d4,
2e,
10009,
4ea,
11037,
10c4d,
116ae,
11479,
12549,
1377,
7cf,
1298,
fa8,
ca2,
e39,
bd3,
10687,
10427,
117e1,
12cd,
98a,
1596,
1082,
1318,
d7d,
895,
10f52,
118e3,
57f,
101a7,
38d,
54c,
72c,
1030a,
40b,
d71,
10a99,
10d0b,
1003c,
1064,
232,
856,
1365,
10700,
10a0b,
100ca,
b7c,
43d,
a41,
1450,
37f,
103b1,
bc5,
105d7,
108a7,
df6,
115,
109e9,
396,
90c,
232,
1073c,
100ad,
1163e,
10341,
10a6a,
23b,
649,
747,
103ff,
b6a,
7b6,
6e8,
1060c,
787,
277,
2c9,
110ef,
11cb,
376e,
c8e,
3c,
10643,
10d6a,
10efd,
5ff,
104c4,
b6c,
5bf,
172c,
195f,
1dc9,
1f44,
f5e,
10aea,
104d4,
105d0,
10efd,
1012c,
a45,
11e3,
115b,
d7c,
1031d,
a9,
10b3d,
2c8,
aec,
10050,
14aa,
10ba,
531,
b2b,
a63,
100b9,
10c39,
4c4,
dbe,
267,
9a5,
2ec,
ec3,
10069,
84c,
10,
10049,
47e,
616,
eda,
10b70,
10de2,
1014d,
10316,
10625,
1063b,
106b6,
75e,
580,
66e,
114e5,
103f7,
106b8,
107dd,
45e,
103c0,
1009d,
76e,
c92,
3f7,
109ab,
103a1,
10198,
4d9,
10940,
76a,
4c,
104d,
10235,
105d2,
10448,
40a,
106ac,
126,
1030c,
cf,
106ca,
100b9,
10837,
10cab,
100e5,
10465,
1080e,
14d,
10b1a,
1111b,
10738,
10cb2,
10da6,
11991,
15cd,
10fe,
f22,
5c7,
487,
1000e,
10d80,
10da4,
103bc,
10296,
8b,
1098c,
10ccb,
10e53,
102e7,
112cb,
102fd,
43a,
130a,
130f,
10c11,
1138b,
105aa,
1088f,
10de8,
8,
32a,
8cb,
144c,
11f6,
275,
1062d,
1017e,
10390,
556,
8c2,
104b9,
90,
10677,
1057a,
112c7,
10374,
1082a,
10030,
10412,
19f,
108fe,
10170,
106f8,
38,
10d88,
216,
1028c,
10290,
920,
957,
381,
90a,
10079,
10c8b,
7ce,
d35,
c7,
1069c,
1097e,
10467,
62e,
434,
51a,
10c48,
857,
883,
101ef,
11199,
10ee2,
108ef,
100d7,
47b,
10413,
e6,
10954,
10ac7,
102be,
10b3a,
366,
5e,
414,
10150,
105b1,
10882,
10c62,
11710,
10806,
108b1,
10575,
175,
4b0,
cb6,
3a4,
1012e,
1048b,
292,
200,
b0c,
fcd,
a73,
12d8,
1991,
1b79,
6ca,
e2c,
cf2,
152d,
1a6a,
ff1,
13fe,
9f4,
10d88,
1098c,
10c1e,
bba,
ae7,
101e,
a36,
574,
df4,
802,
9b0,
67e,
78c,
af,
99f,
67e,
88f,
10281,
dd,
cbc,
10364,
2d5,
1089a,
151,
54f,
2cc,
103b9,
a80,
487,
31f,
888,
a57,
100a9,
9cd,
b95,
61,
72c,
106c6,
1020b,
342,
3ac,
886,
4c8,
434,
171,
2d8,
101c9,
27,
3a,
10747,
10262,
2cf,
12a,
10312,
3fb,
911,
1015e,
9fd,
10771,
102ea,
1024a,
56c,
101e0,
5e,
90e,
2ad,
1004c,
10654,
b88,
3f9,
108b6,
45a,
3ce,
1038d,
10609,
106fa,
1063c,
10626,
10c0c,
1124b,
10a55,
10200,
100d6,
101c7,
11001,
10b47,
10c72,
10d70,
103af,
10d30,
10a32,
103e5,
10583,
87d,
262,
12a0,
a3f,
a70,
d17,
5b3,
1021,
36f,
28d,
630,
8bc,
a63,
1184,
13cb,
a56,
1612,
c45,
849,
7c8,
896,
1f8,
1ef,
2ae,
470,
b8c,
10bc,
100ec,
e09,
35,
6a6,
74a,
a4e,
105c4,
10031,
6c0,
3a7,
56d,
aa7,
1015d,
24,
10749,
10642,
10589,
103a2,
69a,
3c0,
1a8,
4f0,
431,
1056a,
540,
108ca,
105e8,
10a6c,
102b8,
49c,
3b2,
10128,
56a,
101e1,
56d,
10794,
10529,
106e8,
107b8,
26c,
2d5,
1018c,
494,
9a5,
10097,
5fb,
315,
10090,
1073c,
10ab8,
10169,
650,
152,
1bf,
54f,
b9e,
10538,
104d3,
10fad,
10e5e,
113,
66,
101f6,
10b81,
6f,
10d30,
10a1c,
10801,
10331,
104ea,
10438,
a49,
7f4,
ac1,
10116,
40e,
76f,
11aa,
f88,
14ad,
15e,
6f1,
ac4,
a0c,
106ac,
445,
4a,
919,
114e,
17db,
cb9,
29e,
4f6,
c2d,
10340,
e6,
6ac,
a43,
d3c,
e1e,
7a6,
7b,
574,
f2c,
731,
a3,
20c,
100f7,
1084e,
639,
14c,
1ef,
77a,
766,
100f2,
cef,
2e,
10c0d,
1021d,
59c,
104e1,
10265,
85,
10062,
17c,
ef0,
10111,
1098b,
107c1,
10852,
631,
101cb,
103e8,
107cd,
7e6,
50d,
4de,
10654,
1026c,
10cb9,
112,
296,
5e9,
233,
1054f,
120,
107bc,
1005f,
1c,
1043d,
174,
57b,
bb,
7,
1004a,
10266,
106fc,
1137e,
104c5,
103d9,
34e,
254,
ecb,
237,
10d90,
10edb,
10753,
1078e,
1022c,
4f0,
10629,
5e1,
a38,
10095,
10bbc,
104eb,
ad7,
d0f,
95b,
564,
852,
f84,
39d,
1072b,
107ca,
10611,
10013,
1e3d,
12eb,
105ec,
88c,
15f4,
e38,
528,
10cf9,
107b8,
abe,
6cc,
d00,
1e6,
16d,
175b,
ee2,
10763,
10879,
10179,
a24,
1246,
1024e,
e2,
800,
98e,
71a,
101c2,
231,
4e8,
561,
35a,
10195,
10252,
100ab,
9a0,
10184,
105d7,
10265,
a27,
100b6,
84d,
8c1,
34c,
8a1,
39a,
6d3,
5da,
72a,
398,
444,
10720,
c6,
81d,
104d7,
117d4,
10b84,
53b,
194b,
1be,
10fbc,
11cb1,
16d,
10203,
29,
1072e,
10b98,
a88,
6a7,
6e7,
10a67,
10b55,
701,
104e3,
984,
10609,
10fd1,
61f,
25a,
10ab3,
20e,
105e9,
10ed5,
10939,
10945,
10617,
10943,
1009e,
105d0,
10481,
10a45,
10780,
109d5,
10adb,
10faa,
10eb6,
60f,
dff,
168,
64,
109e0,
10fdd,
108d5,
10e41,
10f42,
1141c,
1397,
abd,
1004e,
68b,
181,
1037a,
108a2,
2,
105b9,
1059b,
846,
849,
d6e,
3e9,
1895,
5cb,
3ba,
cb5,
d47,
10268,
eb9,
b67,
982,
a74,
2349,
1026,
106d8,
1a0,
be9,
103ca,
1152,
12a6,
1252,
14f3,
1321,
27d,
11259,
1029c,
1c0,
af0,
17db,
909,
d9c,
a0a,
10358,
113a7,
11278,
341,
b09,
ce6,
167c,
10140,
109e7,
1074a,
10973,
102e5,
11964,
6e,
902,
10068,
985,
10d52,
11424,
10fba,
10819,
10413,
10351,
bf0,
10253,
12426,
107ff,
11571,
10a56,
dd2,
92a,
d69,
459,
5ec,
20e,
10a47,
10d22,
b8c,
408,
571,
10034,
4ed,
36a,
10789,
592,
318,
105f2,
101a9,
109ba,
10b23,
111a4,
10906,
10a3c,
1144b,
88,
639,
343,
10838,
10681,
10564,
10b2a,
2b7,
fc8,
737,
10cbd,
106d6,
83e,
10155,
4c1,
107c8,
25b,
100fa,
106c3,
10105,
46c,
10eea,
10035,
10714,
105e6,
105fd,
10637,
5b5,
a50,
347,
10204,
10f86,
10266,
100b5,
109df,
b9a,
256,
cb4,
154,
b28,
5c0,
6c2,
f7b,
874,
10592,
fe7,
7c,
10156,
17d,
5bc,
949,
104a3,
103a6,
504,
13c4,
c6a,
10548,
10894,
10ed,
d0c,
63b,
ea,
10b6b,
10430,
268,
958,
10240,
dff,
9f5,
108e1,
10765,
104a9,
101f7,
106e2,
1022d,
3d8,
137,
10ddd,
11408,
10cf2,
10a67,
10ef3,
101df,
622,
4f8,
1000d,
bfc,
109f3,
100ec,
b46,
3f4,
10675,
10766,
6d4,
339,
1003c,
1018c,
10b15,
447,
618,
3dc,
109bf,
106cf,
10582,
10869,
10726,
108cc,
10fb8,
20,
e96,
7e1,
eb9,
301,
1059e,
10686,
1058a,
1061c,
11124,
e4,
e10,
10118,
527,
10b52,
10115,
1bd,
10752,
10b70,
737,
10bd3,
2a5,
7cd,
102d3,
108ad,
154,
10675,
797,
860,
101e0,
12,
105ed,
954,
836,
cba,
105bd,
893,
dba,
f43,
10c3e,
10a64,
524,
ccb,
104c6,
1206,
4a1,
1007d,
a6a,
fc8,
103dd,
10776,
82c,
10015,
9ad,
a38,
103d6,
101b4,
382,
68c,
50d,
102b2,
360,
e55,
fe5,
845,
6fe,
102d4,
762,
350,
10124,
101ac,
108e8,
10385,
10425,
1084b,
10f85,
3a7,
10819,
85e,
555,
a83,
1780,
102f1,
3bf,
798,
101df,
8a0,
fc4,
92f,
398,
100d5,
84f,
21,
f23,
199c,
30b,
10682,
1081c,
103da,
10663,
949,
1f1,
103d1,
170d,
1a69,
10451,
11e6e,
36,
10667,
108f0,
271,
172e,
199d,
10048,
1117c,
10378,
113e7,
10485,
102e0,
111bb,
10edb,
10a3a,
3f8,
45c,
1a6,
108f2,
106e0,
135d,
338,
10c27,
112bc,
13fb,
963,
100f6,
11d62,
10e33,
66,
183c,
47e,
773,
1ac1,
240,
101fb,
10e4a,
10e28,
108b5,
10f78,
100b3,
371,
10a0e,
10467,
21,
7bb,
103,
111a1,
359,
10741,
f7,
108cc,
101c2,
11c4,
10c6d,
10fb1,
10dff,
11714,
185b,
105ba,
100b6,
10caf,
10cd5,
1122c,
12037,
1259f,
11f97,
1191f,
11a6e,
11fe9,
11522,
1039a,
1067a,
10431,
10978,
10750,
105a8,
10a6f,
101a7,
102b9,
1090a,
10523,
815,
10396,
10380,
df7,
53b,
4d4,
10709,
10937,
10db8,
10010,
1050d,
100d4,
101ba,
61,
1001a,
af0,
1027e,
103bf,
1072f,
105b6,
3e4,
1015d,
10b0f,
10a22,
1026d,
773,
127,
143,
10360,
10393,
858,
3c,
10765,
10c6f,
4f0,
1e3,
17f,
1009e,
10227,
10532,
10010,
101c2,
10208,
3be,
102c6,
ec,
103a5,
108a1,
6dd,
47c,
10859,
106ee,
1071a,
10b59,
10039,
87f,
10a12,
109,
1032a,
10198,
436,
f5,
10129,
10aaf,
15d,
103a1,
39f,
370,
826,
10277,
467,
1020a,
10105,
10bdf,
1080a,
106f6,
1ac0,
1472,
5d1,
100da,
107a4,
df,
5e8,
386,
10d3e,
10048,
100a8,
bd2,
b83,
c6e,
1a2,
10471,
10119,
461,
107e7,
10002,
1374,
11c8,
1013,
c98,
1fb,
31c,
791,
62d,
396,
5,
129c,
1139,
904,
52b,
654,
1048d,
93b,
b99,
b5,
50,
10884,
4fc,
ac,
de,
1010b,
102c0,
3de,
8ce,
2b5,
c6c,
1a4,
59d,
5e5,
101b0,
10597,
10669,
c5,
10057,
1092f,
3d9,
10cab,
5ae,
26a,
10a06,
10c66,
10536,
108ff,
109c7,
10b1e,
448,
109f6,
1002d,
1023c,
430,
10915,
1119b,
10fc2,
1105a,
110e4,
10b53,
781,
139,
102fa,
6d3,
1109b,
11018,
117d3,
108de,
1078e,
10624,
296,
1008b,
1ea,
3d5,
107b1,
10eee,
10db2,
107c7,
108f0,
108ae,
5e9,
10084,
5e6,
1f5,
7d8,
3fc,
a9b,
888,
44a,
70,
10e0e,
1266b,
11d71,
1094b,
253,
10336,
614,
100,
60a,
990,
110bc,
118cd,
1065f,
10a33,
59f,
1027b,
1012c,
b23,
778,
bfe,
10f86,
108df,
33d,
10360,
37,
35a,
81f,
4a2,
d66,
942,
10269,
10262,
6b8,
10767,
247,
48e,
1070c,
879,
9a5,
8fb,
10aff,
1070d,
be2,
103d8,
650,
10343,
10887,
10a20,
10160,
1073f,
5ec,
5c0,
a29,
10412,
32f,
102f7,
10410,
105b5,
292,
395,
92c,
73a,
882,
108b5,
10973,
1088d,
10451,
413,
99,
1032e,
103ed,
10121,
10974,
502,
107af,
106d6,
10193,
3c0,
10192,
1088c,
1064b,
103f7,
10360,
10738,
10879,
10a2f,
111cf,
1ba,
104db,
11204,
1058f,
10706,
106ca,
10184,
56c,
10336,
10584,
10701,
11553,
10c32,
10c95,
11569,
11435,
365,
10374,
10590,
107ee,
1009d,
103a2,
1009b,
10d5b,
109be,
100f0,
c8e,
ceb,
30a,
1b2,
680,
8c8,
10462,
10d21,
10278,
852,
100c9,
31d,
7b8,
b99,
8d4,
d0e,
bcd,
106fc,
2f4,
426,
9b6,
992,
1013d,
10813,
1164,
1064,
462,
11740,
4f1,
444,
10303,
10098,
10ef9,
109ca,
103ea,
93c,
1063e,
10a52,
105a6,
56e,
10536,
10ccf,
10570,
10906,
10aec,
5e1,
5e,
15e,
6da,
2af,
9fe,
101b7,
101b2,
1054d,
10486,
10c7a,
104a7,
10009,
1fb,
10139,
71c,
4fa,
103c7,
1097c,
10e6a,
10e36,
11402,
14,
10296,
b09,
e58,
c3e,
104ed,
9a,
108c9,
10a58,
10da3,
5e3,
9b5,
105eb,
1013f,
1ac,
10857,
11027,
102a6,
10796,
10766,
1016b,
31a,
bf7,
82a,
843,
1b2,
8c2,
6f8,
2d6,
621,
80c,
f18,
148f,
15b2,
1074,
1297,
1372,
a9a,
59c,
cbb,
1002a,
b84,
32f,
b5b,
e79,
90f,
813,
10002,
479,
4d1,
105a2,
82c,
f16,
11c6,
cd5,
11dd,
fb2,
119,
630,
723,
b6,
7cc,
ecd,
891,
a52,
7b7,
3aa,
10959,
fc,
10017,
1036b,
10505,
928,
48b,
10108,
b1d,
56a,
148,
983,
10d,
15b,
415,
5d2,
a29,
7a0,
2f5,
109e6,
1045e,
f5,
10428,
aa,
100b0,
ddc,
100b9,
57e,
6a4,
10828,
10290,
1049c,
106b8,
9d8,
104e9,
10264,
141,
10024,
48,
101cf,
231,
1028f,
10bae,
3b4,
1a2,
420,
1e1,
6b1,
3f5,
10451,
10329,
10976,
344,
12f3,
78a,
196c,
bb5,
1ea9,
f44,
9df,
94d,
10d64,
10359,
db1,
1313,
1322,
14ff,
10b06,
100cd,
10609,
6bf,
1025c,
10517,
91b,
1824,
1036d,
d2e,
f9,
103ff,
2c2,
54a,
39e,
1af4,
9cc,
10144,
10000,
100b1,
f5,
5a7,
10a1e,
677,
615,
10da,
19a,
10a04,
4b6,
10f3f,
11c70,
107d3,
1089c,
10317,
10472,
10714,
10d7f,
10bc1,
101b6,
f07,
b0e,
104eb,
11a2a,
10cc9,
103c8,
452,
10eee,
10f17,
281,
ee6,
c86,
10c92,
1246a,
11046,
7e2,
f3,
9c5,
10411,
10c7c,
8d6,
98e,
105f6,
10b01,
10eda,
10f23,
f8b,
cbb,
7c,
27d,
60a,
12b2,
15ee,
abb,
39a,
1034b,
102bb,
5f4,
9ac,
100cc,
39b,
dc4,
11b1,
1204,
849,
253,
d47,
142f,
1038,
df9,
e2b,
16c7,
aa2,
954,
812,
11347,
1089f,
e15,
b4d,
192d,
1260,
11fc,
f97,
18fd,
10b47,
108c7,
12fe7,
5ce,
b04,
664,
831,
3b3,
cc1,
15a2,
216,
10c18,
13eea,
10af9,
11460,
111,
5b2,
10d3,
bce,
660,
11834,
10e48,
128b2,
112a5,
10508,
7ce,
716,
1971,
efb,
399,
112a2,
1165c,
10d40,
817,
1085,
112f,
7da,
d4d,
4cd,
e94,
10b54,
10709,
105e7,
1481,
dca,
c46,
101d6,
1107,
856,
93a,
11035,
1176a,
1104d,
101ec,
1361,
aed,
10542,
10097,
1152,
10248,
1051d,
10cce,
11735,
2c2,
143a,
15b5,
1688,
108b,
fef,
100ab,
10cd0,
f43,
10db4,
68,
3c7,
1e9,
679,
101be,
10027,
10a80,
10a8f,
1047a,
105a4,
1ad,
3b3,
1096f,
1381,
260b,
14a7,
10f1,
41d,
10dcd,
106c2,
12c,
b6,
4ee,
175f,
110c,
a5b,
104bd,
916,
7a8,
106dc,
4ae,
5af,
1f85,
23c9,
c81,
1015f,
4f7,
665,
261,
949,
cf6,
137c,
13d4,
8f3,
106ce,
a7f,
3d8,
103f0,
272,
3d2,
d72,
10356,
10bec,
11429,
5f1,
10573,
6af,
108cd,
f2e,
1032e,
10286,
10,
1f,
32b,
100d3,
fc,
117d9,
10ac1,
1002b,
477,
10146,
1032e,
10077,
603,
107cd,
10720,
107fb,
10ff5,
5ab,
efd,
adc,
376,
10b25,
1003d,
10845,
c6a,
6b8,
1028f,
523,
f23,
c7c,
6b2,
f7a,
155b,
1b2b,
21e9,
1546,
106c8,
3d4,
704,
1da,
1ff,
e14,
e50,
10d1,
16d4,
1ab3,
5f6,
1e4,
7db,
2dc,
10ca9,
107cc,
10322,
c2e,
15ec,
6e3,
cb2,
f85,
80c,
100cf,
10682,
10297,
e49,
1022c,
29b,
10874,
108fa,
10200,
115b,
1a4,
716,
ec1,
1676,
107b3,
cc,
10a6c,
10539,
109d8,
684,
47c,
b6a,
90c,
8f4,
f5,
d51,
1105a,
46,
103e3,
5d5,
1067,
e3b,
10229,
10ae1,
6e5,
a1b,
109ee,
10457,
100bc,
103bb,
64c,
102d4,
103ff,
258,
504,
33e,
20f,
10a,
108aa,
2dd,
247,
10cc6,
101d1,
10320,
975,
1387,
cc8,
36b,
1032e,
bff,
59f,
1011d,
100b7,
10852,
14e,
10a6,
16a4,
736,
1011e,
35f,
88c,
3a0,
106f6,
10869,
52f,
2e5,
175f,
105ad,
274,
ad7,
ac,
106a5,
1041c,
10b83,
1b0,
1038c,
1024c,
67b,
eef,
b77,
1a13,
943,
843,
18a,
10141,
108e0,
11187,
11682,
11d9e,
10488,
772,
858,
cb1,
10db0,
10f8f,
1138f,
12681,
121bc,
1211f,
111c2,
d1f,
106ad,
11b68,
12836,
1027a,
1366,
12ed,
1b28,
103c1,
109d1,
11b70,
109d9,
10ce8,
2bb0,
24ea,
24a8,
1ddd,
2018,
1223,
1fef,
10814,
e2b,
1dc6,
2b6d,
14c9,
1218,
460,
171a,
2054,
18c9,
15b0,
10008,
291,
12,
10492,
cac,
10923,
101a1,
15b5,
189b,
156b,
1458,
1700,
103f7,
10b68,
225,
102d1,
8ba,
93c,
10a01,
384,
fce,
1122,
98f,
639,
10574,
4e5,
104f5,
d00,
9aa,
1117f,
10bc9,
1057c,
10051,
10967,
1142f,
11f47,
713,
d19,
5b5,
10a20,
105e9,
265,
10636,
1055f,
1161d,
1072b,
10fd5,
1041a,
d91,
d9f,
10558,
ede,
e57,
10092,
101f5,
40c,
d0b,
11b7,
56c,
107b4,
2e2,
10141,
1021d,
11359,
10cae,
1030b,
10c39,
107cc,
1119b,
10154,
10b2e,
11898,
10b11,
10fcc,
10dcd,
28c,
10301,
10f7f,
11bd2,
11fdd,
1112f,
10767,
101e1,
1ad,
10451,
105ac,
11243,
10607,
115b3,
11f18,
10e44,
392,
725,
7d,
6ab,
b41,
10170,
4d4,
1035b,
373,
60d,
58c,
4cc,
629,
100,
ff8,
b79,
1432,
10b6,
c0c,
d7a,
1043c,
617,
ff2,
e22,
f60,
b19,
cd1,
407,
10256,
a4e,
7ac,
1135,
b99,
8e0,
1069,
10287,
3da,
100f2,
11287,
1092a,
10bf5,
10bcb,
10d90,
105f9,
10f6b,
10203,
10733,
1090e,
11217,
10368,
10080,
105b9,
10602,
105e8,
10d56,
10f26,
11a47,
11ea7,
1471,
e89,
ccb,
7b6,
c4f,
549,
1039d,
10893,
119a5,
11b45,
10a5c,
10a95,
417,
10d8f,
10daf,
10544,
1062f,
112e6,
113b6,
11b9c,
11e5c,
1103d,
109df,
110b5,
1083a,
424,
6a,
9d6,
9b,
10cdd,
101b2,
10c9f,
10ae0,
108d7,
100fa,
10821,
10706,
a0b,
b81,
2ad,
a95,
31b,
1ca,
24d,
402,
1c0,
6dd,
442,
25,
d03,
1dd7,
776,
108fc,
a13,
101f8,
6e9,
12b5,
118,
11005,
11974,
33d,
352,
82e,
790,
600,
684,
616,
195,
112fa,
11bb6,
10aee,
10a6e,
1017b,
103f8,
1077f,
10845,
104ae,
50,
8f,
10904,
4ab,
10d74,
114d4,
11851,
1076d,
10bb0,
103e8,
ae9,
14d7,
ef5,
283,
10507,
109e3,
e12,
41b,
376,
3a,
8f7,
53e,
10a19,
15a7,
b0f,
70a,
746,
487,
108e6,
10459,
10461,
245,
197,
1033,
57a,
265,
108d7,
113de,
11000,
11142,
10fd2,
116b6,
10a26,
1037,
1724,
10c05,
10370,
11421,
1149e,
1071d,
1086b,
10d14,
10daf,
10025,
1020c,
10cdf,
26b,
10dc1,
438,
274,
7d,
10db1,
10a19,
11a47,
11787,
119b2,
10446,
d12,
8d2,
2b4,
10153,
10279,
491,
11b49,
117a5,
103a7,
10821,
876,
7c1,
1007f,
13b,
ee3,
555,
7e4,
657,
103c3,
10721,
1019c,
10492,
588,
120,
106d,
b28,
bdb,
30a,
44a,
6b4,
5f0,
995,
e77,
59a,
c2e,
56e,
31,
f55,
ad2,
a58,
9d4,
982,
929,
cc5,
37,
900,
92d,
511,
105c9,
10241,
10a49,
1080e,
10b69,
10934,
bab,
a55,
14b4,
19fa,
58d,
106b7,
103cc,
34e,
10555,
10f2f,
102c4,
10abc,
17c4,
943,
10771,
11b60,
10c64,
11b13,
11751,
11d6c,
11232,
10f08,
126f,
101f4,
11151,
1105c,
1201e,
1164e,
11630,
11814,
110d4,
10cd5,
37a,
681,
109c4,
1052b,
11492,
10d65,
10d4a,
10142,
100cc,
103e4,
9f3,
109e2,
10e14,
5ee,
5df,
55f,
102d0,
c0d,
5ef,
860,
108a9,
10001,
116a5,
3e5,
10409,
b41,
c21,
d58,
12e8,
1803,
c20,
7ba,
110f3,
1115a,
129,
62f,
10066,
b68,
c6b,
1c6,
f7c,
1049,
100db,
101d5,
494,
1028c,
8b4,
d86,
af6,
48f,
100f2,
18f,
1021d,
1083b,
107e7,
10060,
3cf,
a06,
f3b,
28f,
92d,
108d5,
10d72,
11359,
1091b,
112ad,
108fc,
10405,
10455,
101af,
e9d,
908,
1687,
78,
109a2,
10698,
10042,
0,
10fe4,
10e80,
13f8,
c69,
9fc,
102af,
10c44,
11860,
10b48,
10c5a,
1027b,
100c1,
1934,
9b2,
20a,
11476,
103f1,
10802,
10404,
526,
6c9,
964,
b4e,
c5,
1066a,
10822,
10b3b,
a,
103ac,
576,
de5,
5ce,
4dd,
4b1,
11185,
105ce,
11ca3,
10686,
10215,
68f,
bb4,
57,
100f5,
1bd,
10722,
10246,
10e37,
3a7,
105e2,
35,
100a4,
3d6,
aa9,
10710,
688,
101ce,
11277,
626,
a1,
10c6c,
4ef,
9a7,
9f5,
1000e,
105a2,
104ab,
103de,
105bd,
1068a,
100f7,
a4,
c41,
1037e,
51a,
105d1,
87d,
1004c,
2aa,
2a7,
e4d,
967,
c57,
101b4,
341,
10eee,
10731,
bd,
10b0e,
10599,
1012a,
c25,
49f,
10764,
81,
10268,
39c,
179,
18a,
106a5,
3d9,
103c9,
1097c,
10723,
642,
105a4,
10047,
106a5,
10479,
1013d,
107ba,
10987,
576,
10109,
7fc,
ff,
107cb,
180,
1073b,
4b8,
7c6,
3f,
10826,
10230,
33c,
10763,
10815,
10990,
10311,
685,
1056a,
10765,
289,
49b,
1056f,
102fc,
4ee,
105ff,
4a0,
2da,
10085,
273,
349,
1054b,
108e5,
4e3,
10552,
10086,
21c,
623,
10396,
106f7,
10530,
10313,
4f9,
3bf,
10506,
1020e,
57c,
27d,
50a,
152,
57c,
10101,
108b5,
1037e,
1041e,
61a,
102f5,
d2,
10532,
43b,
1036c,
13d,
10954,
10533,
1022f,
101b8,
795,
455,
1046e,
100c6,
10085,
101c3,
102b2,
216,
ec,
67b,
4e,
10136,
102a9,
1e8,
474,
1066b,
47f,
102cb,
2a1,
10551,
1054a,
104bf,
371,
814,
1050f,
75c,
372,
1066e,
10249,
107dc,
1093b,
102e9,
3b7,
3ca,
640,
107e2,
1a5,
10648,
72a,
741,
10200,
107ce,
488,
376,
463,
1005e,
21a,
7c6,
10274,
104a9,
101af,
328,
280,
a6,
262,
282,
102c5,
535,
10714,
101b4,
28e,
105f6,
473,
5b5,
441,
593,
104cc,
103ee,
10734,
86,
4f5,
622,
103ee,
1069f,
fd,
10978,
10167,
781,
104fc,
1033e,
107bd,
10457,
383,
10357,
626,
1cc,
105ab,
63c,
97,
106ca,
205,
c,
1ed,
1057d,
5a1,
1031e,
782,
10020,
10184,
10253,
115,
109,
1011e,
10351,
10,
1026d,
10090,
106cd,
ab,
74b,
1015f,
10335,
5ef,
10625,
633,
10737,
61c,
1eb,
1070b,
104d2,
10231,
10340,
10195,
101fe,
10006,
1010f,
10402,
10367,
10563,
104bb,
108f8,
303,
4ca,
26f,
1053f,
104c5,
101ec,
113,
1051d,
10759,
102d2,
1063d,
1033a,
541,
107e3,
10824,
1064d,
100aa,
385,
c,
d9,
10313,
7b2,
10537,
10252,
127,
1098c,
155,
3bf,
108ed,
169,
31d,
1070e,
107d5,
104ea,
10450,
10548,
4da,
106cc,
100e8,
102bd,
624,
246,
10313,
32e,
2c6,
2a2,
46d,
106da,
63e,
10992,
103c9,
77b,
102e5,
10912,
104a8,
1072f,
182,
208,
10764,
1058d,
10479,
2ea,
102cd,
10722,
104f5,
104b8,
104bf,
95,
44f,
10063,
361,
106ff,
5dc,
467,
9b,
3fe,
1050b,
29d,
10706,
10694,
f2,
101bc,
523,
557,
107c4,
103cb,
115,
52f,
10985,
106a4,
10242,
105df,
1028c,
106cf,
104e2,
10718,
107b5,
103c5,
106fd,
1019f,
10708,
104,
135,
39,
10836,
1020c,
10940,
1073a,
10302,
10692,
e9,
100a5,
10600,
1014f,
100d7,
20c,
108bd,
101a1,
1093f,
3f8,
10509,
101b8,
8c,
bf,
1006a,
10629,
31f,
106ab,
103a2,
3cb,
1065d,
2c2,
104a4,
10040,
106b0,
304,
10237,
99,
457,
100ed,
df,
1a3,
104ee,
5e7,
35e,
10d,
263,
10601,
10584,
108fc,
10037,
1c4,
232,
652,
cd,
1044f,
10822,
101c0,
114,
3d,
105c0,
b6,
10316,
10989,
100b4,
103f9,
19d,
638,
531,
1058d,
1c5,
1093c,
10159,
105c4,
10971,
101af,
10511,
1008d,
1ab,
1077c,
363,
107d2,
1014a,
10988,
38b,
104b9,
3a9,
624,
4b1,
10169,
40e,
1c6,
468,
6aa,
100cc,
103d4,
100a5,
10099,
101f5,
7de,
101b4,
4d0,
36c,
10757,
10635,
584,
107d1,
238,
100dd,
353,
1017a,
1f1,
10319,
10171,
346,
529,
10687,
762,
2a,
35d,
10516,
815,
4a8,
1079b,
10162,
5fe,
10482,
1072d,
175,
105b8,
105d2,
11e,
463,
2f8,
1057b,
1022e,
fe,
107d8,
10381,
10102,
494,
31b,
1053d,
102cf,
2be,
1067a,
406,
34c,
100a0,
10634,
10183,
36f,
101d1,
105f9,
10330,
3c6,
688,
48,
10279,
90,
10656,
1024c,
445,
612,
100b7,
68e,
594,
1057c,
104e2,
10039,
10526,
10555,
102f3,
10305,
285,
669,
72a,
8b,
3ef,
10148,
bf,
1022f,
103d6,
10347,
1041c,
10729,
106f1,
27e,
6ef,
7a0,
10798,
38f,
5e5,
10016,
777,
447,
1003d,
6f5,
101d7,
769,
2e2,
102ad,
1dd,
10398,
f,
43b,
105b4,
484,
33e,
10631,
102db,
14a,
100c0,
10468,
102c0,
4d3,
10798,
10494,
104e3,
101e3,
10713,
1064c,
108ab,
391,
10705,
6c6,
44c,
8a,
3e7,
104ff,
101d4,
561,
10258,
10878,
100e1,
534,
154,
3f9,
10516,
1073d,
101a2,
475,
10458,
10801,
45d,
7b1,
10286,
395,
1a1,
64,
10537,
3e8,
100b7,
280,
1063c,
1060b,
10468,
107d0,
105dc,
1012b,
10619,
779,
10589,
146,
10960,
464,
3fb,
535,
1024e,
100a5,
10378,
1077f,
dc,
36c,
102f6,
1037f,
10007,
10608,
30d,
9e,
1070b,
7e5,
1b5,
105e4,
105c5,
107b9,
100c4,
100da,
4cd,
104b2,
484,
10287,
3f9,
5e4,
5f1,
1031e,
38b,
3af,
10237,
441,
29,
141,
e6,
1ef,
2cc,
1061b,
6aa,
105d5,
1ed,
100ee,
390,
103ac,
5e4,
10386,
10624,
342,
10765,
107c3,
105e9,
10236,
1067d,
652,
107d2,
10386,
107b0,
680,
10498,
10524,
58e,
208,
28,
656,
17a,
1029c,
108d7,
3ce,
108ea,
414,
10206,
1066d,
1072b,
100cf,
1088b,
5dd,
29f,
10230,
10326,
10504,
8e,
78d,
159,
101,
1ec,
64c,
105b8,
104bc,
4b1,
647,
10287,
728,
5c5,
106b2,
b5,
b0,
10677,
552,
22c,
2a3,
10651,
1f,
10536,
65f,
1b7,
105f5,
10351,
10324,
6b4,
6e5,
10621,
10180,
af,
0,
10272,
2f9,
107ea,
10637,
1016f,
1073f,
3cc,
108b3,
16a,
106de,
567,
65e,
102dd,
4c6,
100d6,
4df,
10731,
51,
10098,
55b,
632,
10531,
21f,
10883,
10197,
124,
1069b,
10606,
22,
10766,
10560,
76,
110,
488,
391,
107ea,
3e0,
391,
103b2,
100b9,
325,
108af,
205,
594,
112,
106cb,
1087f,
2ff,
10857,
1e9,
43c,
616,
2a6,
10290,
103a5,
125,
103c0,
10007,
106a5,
1081d,
10634,
38d,
2cd,
5b,
105bd,
1090c,
10401,
470,
1bf,
10655,
5da,
70,
10948,
1057c,
478,
108d8,
19d,
1022b,
77,
14b,
104e4,
385,
101e1,
105cd,
398,
107f1,
10284,
1029f,
227,
1018e,
1015a,
10149,
2d3,
10686,
687,
1050f,
10651,
108b1,
102cb,
10851,
10198,
336,
1039f,
4a0,
10000,
5a5,
2a3,
495,
10827,
1052e,
10683,
1eb,
1066d,
7c3,
102b4,
1060c,
10718,
10775,
30,
102a3,
1072b,
a4,
18,
106f1,
1070d,
10293,
10128,
10040,
508,
178,
1f,
1024b,
1029f,
10679,
1081f,
10310,
105c0,
105a7,
10872,
4fe,
107eb,
23f,
4f6,
67d,
4d,
10104,
413,
10382,
10983,
10196,
270,
1022c,
104e2,
100f6,
15a,
57c,
1090b,
138,
5c1,
1004e,
10757,
10809,
104aa,
10785,
105e7,
10351,
1038b,
103ed,
1061f,
44c,
10629,
104f0,
129,
62a,
10749,
5e3,
101b4,
10352,
10980,
107d9,
407,
3a,
407,
100ee,
3ee,
10558,
10905,
10739,
36b,
105fd,
10076,
10792,
10126,
1038b,
1046c,
10773,
10965,
10475,
10237,
10431,
1040a,
149,
10616,
10457,
10793,
362,
1075c,
1078b,
108e7,
5f7,
1fc,
246,
477,
10462,
10265,
105d1,
10813,
1008b,
10485,
10515,
100f2,
41,
29c,
3cd,
108b3,
10100,
3af,
498,
10725,
3b7,
1082b,
104d6,
2c7,
b6,
1dc,
2c3,
1040b,
418,
1036a,
104bb,
527,
538,
1014c,
588,
10025,
102d9,
45a,
100df,
10330,
10639,
134,
10828,
25e,
106d2,
103d1,
10034,
10254,
1051e,
10001,
10899,
1068b,
10107,
104cd,
1f5,
10056,
10307,
10442,
1066b,
10557,
526,
1014a,
1090f,
1063c,
100bc,
40,
10516,
566,
105c9,
10636,
43a,
106ff,
522,
1b5,
1077c,
78,
10247,
1032e,
fc,
1044d,
103c6,
36e,
10255,
91,
634,
3f1,
14e,
10724,
73,
1035f,
10603,
10350,
1098f,
bc1,
338,
10134,
944,
10d25,
10ce8,
10358,
a6e,
12db,
ffb,
6a9,
abe,
377,
10012,
10471,
10e45,
10847,
100f7,
305,
ee3,
3f1,
e8,
7cd,
10e72,
106da,
12332,
113f9,
110d4,
10ac2,
10865,
cb5,
d44,
e12,
10070,
10239,
1164b,
108aa,
1063f,
10b04,
10218,
1150,
11b2,
100c9,
845,
2d4,
11c4a,
10c78,
10240,
10045,
1084c,
3f7,
51a,
2d5,
487,
55d,
10e07,
10c8a,
100da,
725,
10194,
413,
9df,
a30,
10285,
1cb,
10378,
e1c,
10b96,
10f73,
11124,
7d5,
745,
68a,
5d6,
105f7,
3b6,
551,
105ee,
106e3,
10ab0,
22e,
6eb,
216,
10903,
10d1b,
11048,
1010d,
1062e,
109a0,
10a13,
1029c,
41b,
32c,
1e3,
1041e,
10837,
10e30,
10b68,
101f9,
10bf5,
105e8,
10474,
100d4,
107cb,
10e93,
100ad,
10436,
1068d,
bc4,
108de,
104d7,
100de,
10c9e,
116f6,
10b9b,
1054d,
106f1,
6d2,
1dbc,
1046b,
1054c,
103e6,
11367,
11549,
10765,
1033d,
11bfe,
f56,
d87,
8b6,
943,
63f,
100b6,
108c2,
116f0,
2e1,
27a,
86f,
13c1,
10eb,
1ef6,
c82,
5f2,
103a7,
103f0,
7a4,
6ef,
10df9,
1037,
17d3,
11e8,
c1a,
357,
7bc,
10343,
103c8,
1001a,
102f9,
93f,
2be,
ffe,
1070b,
10955,
516,
10667,
10555,
530,
1509,
209,
10652,
df8,
1049b,
107fb,
10673,
102d7,
10bc5,
101cb,
14c2,
192,
2c1,
105c2,
111f0,
1051e,
1075c,
99c,
3ca,
a8f,
106b,
2f7,
116a1,
11413,
104e4,
421,
15e9,
1d35,
1135,
1cf3,
be3,
ed6,
10e49,
158,
d6e,
10227,
108f5,
109d9,
a63,
107e2,
101c8,
10cb,
c5c,
4c5,
10a7,
1098,
fce,
7df,
338,
417,
239,
1010c,
5a3,
169,
1015e,
10472,
10c71,
1028c,
1240,
8,
1058e,
106c8,
100ae,
1062d,
101b8,
107d8,
100d4,
278,
102ab,
113ae,
105ab,
1062f,
10419,
2bc,
104aa,
102e8,
504,
102ef,
10c6c,
10ab8,
10101,
10020,
664,
1014e,
10386,
a,
a08,
fb9,
11369,
10932,
197,
1002a,
988,
283,
190,
b16,
a3e,
8ea,
1046d,
5a2,
104ef,
1099d,
10c85,
5d1,
269,
e89,
76f,
993,
2e,
10c62,
116e1,
1098a,
1116b,
93,
6b5,
ae7,
102b3,
1076c,
107d2,
108a5,
10f06,
10a8f,
235,
10254,
10396,
3f4,
1022f,
664,
105a8,
10732,
10bd7,
10ba1,
107cd,
60c,
f19,
10232,
101c0,
25e,
10eca,
1078c,
1082e,
12265,
10aa3,
db9,
10ba,
10196,
4e9,
51f,
b1b,
d61,
20a,
110fb,
107d7,
1ef,
803,
6d0,
10219,
2cc,
f16,
100a4,
10d,
1012e,
10861,
1073c,
3,
1015d,
109c5,
1052b,
1f,
10dcc,
4f7,
10cd8,
10d80,
58e,
2f9,
2ae,
10ed2,
10f,
a0d,
10465,
32e,
10752,
10921,
1044c,
102a5,
22,
2c1,
108a6,
6b7,
8f1,
a29,
3da,
105dd,
364,
10736,
10ac8,
10465,
10376,
101c7,
936,
1033f,
100e6,
10019,
24e,
6f1,
69,
105e3,
10511,
10185,
714,
4e0,
10162,
d6,
4f,
d66,
10950,
10c78,
629,
198,
104b2,
1013b,
2d3,
10608,
818,
5b3,
27b,
6ed,
56d,
312,
10f1b,
10de5,
10c08,
10e22,
101f4,
103f9,
1035a,
a0d,
2d9,
6ce,
6dc,
10347,
292,
1093a,
106a8,
10613,
10a16,
100b6,
1005f,
10cbc,
1037f,
ea,
10d19,
113e4,
105f5,
10b17,
10796,
87,
324,
103d8,
10d3e,
11f55,
1101d,
112c1,
1db,
11398,
1154a,
108f8,
95a,
10798,
100ba,
10ea8,
11655,
10953,
10a8e,
11f9c,
11006,
3b5,
415,
107ad,
cfc,
10438,
1171e,
128a7,
10f06,
1120b,
10ff7,
db9,
1721,
1d2,
3df,
9a5,
10a13,
1182b,
11394,
113e2,
4d,
18f9,
1be1,
901,
10a25,
10a01,
10cdf,
11777,
1099f,
1118c,
110aa,
31d,
3a9,
1249,
88,
1052d,
10c66,
113e5,
1084c,
10ba8,
10df8,
10ff3,
1097d,
10623,
10c3e,
11596,
11920,
11151,
1c18,
1016a,
107cf,
1073e,
1109c,
1118d,
1143f,
10efd,
1062c,
112eb,
433,
112a,
1197,
ea4,
10719,
103d2,
105c7,
109a3,
104e5,
108ce,
85b,
cff,
716,
f5e,
103b4,
b31,
10489,
10325,
106c5,
848,
10300,
3db,
60c,
c05,
958,
b69,
7d4,
1008b,
bc2,
4ce,
774,
5b8,
1051c,
10300,
1010,
1a94,
1094,
10b6,
90a,
1005b,
cf8,
af3,
248,
cf,
1427,
129d,
f48,
1747,
1571,
dae,
9d9,
7f4,
109c3,
8ae,
b33,
128b,
504,
333,
ee6,
39a,
b31,
2e3,
105c0,
1069b,
10520,
7d2,
ac4,
104b2,
101dc,
109b4,
102c0,
a4,
81d,
1082c,
2cd,
fe,
293,
103c6,
10c0b,
10842,
491,
1016f,
101af,
1090b,
10b1e,
1059e,
70,
10503,
10ab9,
10425,
fae,
40f,
219,
abf,
8c9,
26d,
400,
ca,
105b5,
10001,
753,
10a9f,
1071b,
10a42,
108d0,
178,
10518,
90b,
1358,
14fd,
50e,
10e7f,
1091b,
157,
10699,
10345,
d68,
eac,
d48,
8e2,
1033,
776,
b96,
ecb,
148e,
e95,
a9d,
595,
1016b,
5f9,
af1,
ec3,
14fc,
bf3,
70a,
138e,
cfc,
ac0,
10301,
10100,
161c,
1018,
634,
a42,
1014,
133a,
74a,
86b,
9ff,
10610,
10bba,
714,
838,
1017b,
c81,
6b5,
d25,
9dd,
c5b,
700,
10ec7,
10a2d,
107fc,
10a17,
10acb,
72e,
209,
504,
55,
5c1,
105f5,
10230,
585,
977,
8e1,
524,
3a9,
679,
259,
10f3a,
1093b,
1087a,
10ae2,
10415,
646,
101c5,
e7b,
ac3,
117,
10ce9,
11d28,
1011b,
103cd,
1006f,
c1a,
14a4,
1970,
18bd,
5de,
1d2,
26b,
1410,
1388,
6b0,
5c6,
c43,
10f,
10a50,
10185,
1018a,
1177,
e80,
eae,
f45,
405,
89d,
9b2,
10258,
75b,
104ea,
daa,
319,
d13,
52c,
10361,
e0b,
799,
c58,
a56,
10075,
96c,
10466,
1073f,
101b4,
5da,
eb7,
596,
bc8,
e92,
738,
6ac,
587,
4a1,
102,
10568,
6d8,
1100,
afa,
b3e,
19c,
8d4,
101ae,
2f0,
98b,
10fa,
db6,
d3b,
1101,
ccf,
308,
1d,
7d9,
1018c,
33d,
1003,
ee5,
13be,
882,
1038b,
10462,
10519,
b5,
5a0,
1e7,
104ab,
6e3,
b1,
59a,
106a7,
1095e,
1089b,
1044f,
6,
1018c,
4be,
1003e,
1049f,
100e2,
10b4e,
10eed,
11009,
107fb,
10d99,
107f5,
10330,
1004c,
10468,
10df3,
10be3,
109b0,
36a,
10921,
109da,
10624,
10316,
9a9,
a63,
455,
101a7,
89b,
10e39,
699,
390,
afc,
2ea,
5b3,
476,
a44,
36f,
1003f,
1132,
8a0,
10005,
f1e,
3a6,
489,
86d,
10d8,
872,
114b,
3a8,
c43,
484,
100e1,
3d7,
9b7,
5da,
36e,
781,
d20,
10551,
651,
19,
10992,
45b,
421,
951,
f50,
13d,
15a,
1083e,
10237,
b4b,
108de,
4b3,
ae,
add,
dbd,
1021f,
2d3,
10c97,
10e0d,
1f3,
513,
1008f,
102c0,
9d3,
33a,
10279,
47,
289,
10d40,
10e10,
6b2,
10618,
10091,
d9a,
10271,
10aab,
11159,
337,
803,
148,
10499,
10474,
107d7,
1037b,
b6,
10c4a,
10ad6,
6c6,
3fb,
1c9,
103f8,
3b7,
10209,
109f7,
10747,
290,
10225,
108be,
10487,
10684,
a6,
a6f,
fee,
dcd,
14bf,
756,
702,
1078a,
11469,
105ae,
878,
c77,
592,
4e1,
e2a,
131d,
bc4,
10694,
1010a,
3e2,
10b,
5f3,
10111,
5b4,
100be,
458,
3c9,
101cd,
21b,
10092,
761,
1011f,
100dc,
10306,
ce,
d7,
853,
103dd,
b28,
cbb,
1bc,
21e,
46,
61e,
554,
7e1,
1099f,
106f9,
38e,
8c9,
9d0,
607,
8c0,
10990,
b36,
37f,
2e,
106a9,
10455,
106b0,
101d0,
252,
103d7,
10277,
10840,
5c6,
10206,
10134,
10598,
105ba,
4e1,
101de,
3c8,
1005d,
6d9,
17f,
208,
1023d,
10274,
1016f,
108c9,
10588,
10719,
10551,
10805,
10865,
1077a,
6db,
1059c,
10b37,
10a28,
109e3,
109cc,
10085,
10740,
10016,
10353,
1051c,
9a,
10586,
10919,
10248,
105de,
10724,
51,
1096f,
103d4,
3ff,
10499,
217,
202,
101b1,
10045,
10380,
10195,
1040f,
101da,
418,
10545,
582,
1095b,
102c2,
1010d,
3b3,
2ff,
24f,
9,
108a6,
101ba,
1064e,
63a,
102b1,
101c6,
200,
105a6,
10240,
10603,
10978,
100ef,
547,
28b,
346,
65e,
631,
10844,
2cf,
10021,
1052e,
3e,
29a,
1042b,
102f8,
101b8,
32d,
1052e,
104d9,
1019b,
102e3,
6f,
10026,
4,
109dc,
588,
ea,
6ca,
108b5,
106a7,
1031e,
791,
311,
108c6,
4fd,
3f4,
10133,
2b9,
561,
10290,
10721,
10820,
10388,
5da,
665,
225,
101d7,
10591,
1074b,
4d3,
10406,
30b,
1063e,
10102,
102d6,
102d1,
10410,
105f2,
2c,
3b9,
34d,
10369,
4a3,
438,
108da,
43c,
10949,
253,
10874,
1e,
2bc,
1067c,
1094b,
46,
a24,
106d2,
1012b,
1035a,
50a,
104e3,
355,
108b8,
16e,
100ce,
3f7,
23f,
103fe,
1039b,
133,
1058e,
44b,
4ae,
462,
102d5,
1070a,
10826,
8d,
614,
107b1,
1e0,
10b,
107d4,
14c,
1f3,
1036f,
568,
696,
3d4,
10567,
42a,
10409,
10043,
10133,
10141,
1010f,
10505,
47c,
103ba,
495,
88,
177,
10700,
4b0,
100e3,
10378,
102f2,
10555,
4d9,
10718,
1060c,
102cc,
108e2,
1059c,
5ce,
10181,
25a,
33f,
720,
102bf,
10400,
1044e,
100db,
108ab,
2e5,
101f5,
59c,
1082d,
105c9,
10424,
34,
106d7,
582,
640,
1042c,
5f5,
1016d,
8d9,
218,
4ea,
1006d,
107cf,
10623,
106f7,
1aa,
1055c,
100e7,
2d3,
612,
65,
10616,
4f7,
10149,
144,
103a9,
10890,
5ab,
1d5,
20b,
73,
10112,
1079a,
315,
1006f,
10513,
10723,
10154,
1049c,
10090,
10668,
4b8,
1091d,
102a2,
5db,
106a3,
10554,
5ab,
102e1,
107f4,
10708,
551,
108,
10261,
10559,
10640,
10275,
10237,
107fd,
171,
3e,
611,
10142,
103c3,
17b,
272,
105e0,
1052f,
1003c,
194,
542,
108a7,
443,
1070f,
101fc,
10702,
3f,
124,
10204,
21a,
10568,
1041d,
409,
10090,
10335,
4f5,
1029c,
10905,
3b9,
4b3,
1063a,
5ce,
107ca,
508,
10017,
5b0,
105a6,
4aa,
488,
10264,
1047a,
10626,
408,
521,
101c0,
5d3,
1077f,
584,
58b,
32,
12,
101f0,
23b,
64d,
1034d,
2da,
333,
407,
10378,
1087f,
399,
3b,
425,
563,
10070,
112,
572,
494,
10638,
662,
100e4,
605,
10477,
41d,
10399,
104b5,
106e3,
1054e,
1046d,
c9,
413,
10743,
4cd,
10672,
106af,
106c5,
55d,
10402,
10902,
10642,
10212,
1005e,
108fe,
683,
5a5,
579,
157,
10344,
42,
2,
104da,
129,
105f5,
540,
105af,
656,
10605,
550,
10193,
10526,
1000b,
4f0,
61e,
1023c,
122,
10373,
47a,
10922,
102b0,
103a9,
d0,
1030a,
10996,
20b,
104f3,
442,
107e8,
555,
1030e,
100d4,
1023f,
10403,
4bc,
1074b,
108fa,
10854,
108f2,
10321,
526,
65f,
625,
624,
32e,
108ed,
1079f,
b4,
2cb,
10934,
39e,
49,
106ac,
10712,
228,
15c,
99,
978,
10955,
1079f,
979,
70b,
106d5,
10109,
100f1,
106ec,
7c4,
1049f,
101fa,
1058b,
10553,
10696,
101f3,
10352,
331,
1042f,
10633,
104c6,
55f,
102e7,
104b1,
43c,
b7,
749,
106a8,
617,
13a,
2e2,
10027,
10692,
105f6,
1090b,
85a,
102a8,
107c8,
10426,
1fd,
1038b,
1051d,
102de,
30f,
1016a,
104d4,
1072d,
1c3,
12b,
10126,
41f,
480,
3af,
102ed,
10799,
100c6,
1b6,
10131,
10029,
17e,
354,
10818,
517,
7b4,
34d,
10593,
744,
53a,
351,
607,
2a3,
50c,
39a,
10158,
67e,
104da,
9b,
58e,
42a,
108de,
ed,
20f,
2d3,
1041a,
34c,
a2,
e,
4d3,
692,
102ac,
21a,
6e6,
64b,
105ff,
10106,
1e3,
10477,
1014e,
1078d,
10006,
107c2,
3ae,
10058,
1b0,
548,
1081d,
10881,
1045b,
60f,
101e7,
1080f,
10240,
10657,
10916,
4b8,
10951,
1041a,
10614,
8d4,
367,
383,
107c9,
10c,
de,
107f4,
10616,
461,
10927,
1061c,
10259,
1c3,
10039,
0,
1003c,
105e5,
654,
10418,
309,
10662,
1004c,
610,
10399,
446,
10426,
632,
108cf,
10551,
10217,
cc,
10644,
10302,
58e,
3de,
e5,
320,
4fd,
442,
23e,
103fa,
102d5,
413,
762,
105ac,
15,
103ac,
10526,
10216,
107bf,
323,
1092e,
103e7,
310,
10561,
1041e,
21e,
10669,
105ba,
10409,
102c2,
369,
10164,
274,
10090,
40a,
10847,
1013f,
24f,
81,
1033f,
103bf,
10562,
10881,
10546,
57a,
10206,
10610,
a20,
10178,
106bc,
1036a,
10431,
7c,
1026e,
20a,
103ed,
1062d,
38a,
8e,
101c2,
10135,
10650,
10415,
106a9,
107f7,
4bc,
16e,
10815,
b9,
1041e,
1071c,
10406,
88,
101cb,
15,
1083e,
104fe,
101a4,
324,
177,
10162,
10448,
10496,
4f0,
473,
10836,
3c7,
2d1,
1021c,
1054f,
703,
3d,
79,
10007,
105ad,
46e,
5b0,
514,
10776,
10372,
10063,
10116,
10681,
10629,
106f9,
10375,
107b9,
71b,
5fd,
71,
10788,
1fc,
1089b,
248,
1008d,
100d7,
10566,
9be,
10086,
1086d,
106f3,
27f,
105ab,
10840,
260,
104bb,
540,
106e8,
1090c,
103f7,
9d,
1025c,
22c,
d6,
10963,
0,
1084a,
1071a,
c8,
155,
10245,
3d9,
1003d,
1f5,
1082e,
3aa,
8b,
103f4,
10137,
1077c,
10639,
10804,
1038b,
108b4,
1085e,
4c,
335,
298,
105f4,
4b8,
107c7,
1014c,
390,
386,
104c2,
561,
399,
3fd,
24e,
623,
10407,
10341,
1039c,
102e8,
189,
39e,
f0,
5c3,
10831,
107ce,
1080e,
1049e,
108d0,
1ae,
1056b,
107e0,
10436,
2d0,
10801,
10557,
10744,
44,
568,
616,
9,
41e,
1032b,
106fb,
521,
106ae,
e6,
10910,
39,
103f8,
153,
505,
1046c,
1093b,
5ee,
2b8,
4d5,
221,
10316,
108b1,
106cb,
10004,
113,
193,
228,
10796,
10654,
1033e,
10375,
101ba,
1036f,
101ed,
101ea,
10467,
12f,
104c4,
2bd,
1000f,
c5,
511,
103ca,
101e0,
10583,
2d4,
1083c,
10250,
100a0,
1037b,
1060c,
405,
5e0,
15d,
65,
8,
63f,
10407,
1037a,
38a,
10760,
5e8,
fc,
5a3,
10926,
147,
439,
104b0,
101ef,
22f,
252,
6f,
224,
1095d,
4b7,
10693,
27d,
102a0,
10471,
629,
10760,
1002a,
107ec,
100e0,
1002d,
10848,
f0,
104bb,
4ec,
102d0,
1b0,
1043e,
101ab,
5fe,
1011c,
10699,
1053f,
38f,
1059b,
107ed,
10428,
483,
6f,
103b9,
235,
108e2,
107d4,
1072b,
6a,
324,
1006f,
10023,
10131,
104cb,
1080b,
80,
1ec,
162,
36a,
105ef,
10237,
32,
10215,
106f6,
106e4,
2aa,
1039b,
268,
10261,
401,
1ff,
106da,
108b7,
1012c,
30e,
1cb,
105ed,
1095b,
1006a,
198,
255,
279,
10507,
1086c,
100ac,
10159,
100a6,
106d0,
2a5,
d6,
106ad,
10949,
1097e,
1063d,
156,
1035e,
100aa,
10783,
104,
1055e,
10435,
10410,
104f2,
16f,
1df,
3b4,
2b1,
102de,
100dc,
10228,
106e3,
100a9,
48d,
10557,
104d3,
102c8,
106e0,
106bb,
10676,
453,
10766,
10718,
63c,
4c2,
4f,
1043d,
5c,
105c9,
10854,
10581,
10829,
10793,
107fe,
639,
109b4,
10618,
1087c,
10837,
1081e,
105f0,
107fe,
10693,
10569,
1094e,
10496,
101e6,
4da,
35b,
343,
4cc,
529,
100a7,
10705,
52,
318,
10914,
1056b,
2ba,
113,
629,
10831,
107a5,
10880,
10950,
10730,
10364,
10342,
1073e,
10629,
163,
365,
103af,
104b5,
1b4,
101f5,
1030b,
106cc,
398,
103f7,
10452,
10552,
105d4,
180,
10249,
108ca,
39e,
259,
1064f,
1068e,
124,
56b,
10161,
10639,
a8,
5cf,
4b6,
8b3,
10a08,
1059c,
1088f,
11163,
10f59,
10ea8,
10ca0,
10458,
139,
10cf9,
10abe,
10832,
1005d,
10650,
10850,
10526,
11629,
11256,
10114,
101fa,
107e7,
10190,
b40,
10975,
10461,
10392,
10045,
10662,
894,
1020f,
84,
106c,
b1a,
109a9,
10649,
105bf,
d27,
b2c,
752,
4fb,
10920,
59,
10808,
10eec,
11a20,
10113,
ac6,
5e,
10432,
10ed4,
1094a,
11b,
11038,
11c97,
117bf,
575,
7c7,
10592,
10d20,
106e8,
7e3,
10e5f,
109b6,
10b23,
104bd,
1c9,
10466,
e1,
254,
64,
101a8,
1054a,
10a18,
10790,
7e1,
150b,
219,
68d,
963,
699,
7a,
106b9,
100c0,
1033a,
885,
6bd,
c8c,
1280,
edf,
10b4d,
1018c,
296,
19a,
1037a,
31e,
594,
8b9,
17ec,
16e3,
255a,
17b0,
1314,
10337,
11357,
1116d,
1115f,
10fe0,
10ab0,
10fbb,
18bf,
138d,
e80,
6,
1e7,
1078e,
104d9,
5ee,
10202,
11f55,
17dc,
8a2,
50a,
102d0,
1021f,
11117,
11213,
58f,
7c1,
1233d,
ac8,
b02,
65d,
d3,
11563,
b18,
10aa3,
10b34,
107f1,
10baf,
1b23,
b18,
7a9,
b0c,
10576,
125b,
213,
10f44,
1077a,
953,
dd0,
4ff,
160,
5f8,
a65,
1f85,
150a,
10a88,
10a06,
1083d,
3a0,
b45,
10872,
20c,
14bf,
1975,
30e,
10798,
10cf7,
113f3,
1073b,
458,
101f3,
16a4,
1599,
238a,
c5b,
1016c,
10dbb,
114a3,
10777,
63c,
1854,
2437,
187e,
238e,
402,
1050d,
102d5,
11421,
105c0,
287,
2af3,
2e0c,
1f69,
16e2,
10b,
10d96,
130,
1083d,
11f6,
242,
ff6,
d47,
76,
101af,
100bf,
594,
ec4,
672,
b41,
a65,
5f9,
43,
105c9,
2b2,
100c7,
102f7,
109c7,
100a2,
da5,
10a84,
3c7,
100c0,
c36,
d84,
65c,
17f,
275,
aac,
66f,
a5e,
80f,
4f7,
5a0,
10e03,
eb,
e1b,
ac0,
605,
76f,
7ed,
790,
1247,
1049e,
10fdf,
1010a,
8af,
1119,
8f2,
10623,
10717,
10379,
102e7,
10f45,
119bb,
10b0d,
10985,
6bd,
102d9,
63b,
39b,
a66,
1af,
10dfb,
1082a,
10449,
10f2d,
106d6,
1025e,
810,
10474,
41a,
b,
10d40,
2c8,
43b,
11119,
333,
700,
9be,
1009e,
7eb,
1f4,
10655,
546,
107a7,
106c8,
c07,
f5e,
f0,
106c5,
2c1,
8d5,
12ac,
387,
104ff,
1dd,
5f9,
11b9,
abc,
1258,
10073,
d61,
10794,
10598,
6e,
39d,
876,
4a7,
10224,
1020,
bc3,
103ba,
640,
73,
156e,
106a,
148f,
bee,
79d,
e18,
9ed,
293,
6fa,
615,
10bd8,
10a47,
ed5,
1974,
393,
d33,
10597,
31,
802,
101fe,
10ddb,
10a4d,
811,
219,
bb4,
40c,
105ae,
102b1,
10403,
10cc3,
1132f,
10a73,
429,
7d,
3b2,
1038f,
665,
10388,
10300,
10130,
10e,
10859,
c7e,
8c9,
bd7,
11d8,
10472,
109d2,
26b,
103e0,
7d1,
103ba,
1211,
831,
434,
7e0,
8b,
1034d,
17a,
9cb,
3af,
557,
1020,
795,
78b,
ba5,
102be,
10539,
100ee,
228,
10501,
1035e,
7da,
1034,
100fc,
103d9,
10c4a,
101bf,
10360,
595,
108df,
100ba,
207,
10006,
164b,
8e9,
1010e,
10e24,
23f,
15a7,
2180,
92c,
afa,
1263,
10e52,
a8a,
1059c,
a01,
10050,
10008,
10041,
144d,
121d,
16a5,
10eb2,
11eee,
10d70,
1180e,
12dd1,
124d3,
1181d,
10758,
719,
106b0,
11991,
1100a,
9d1,
11c8b,
1126d,
ee1,
b44,
10b27,
c71,
10316,
8e0,
3ff,
b78,
5de,
10750,
8b9,
15ee,
1ffa,
bed,
46e,
67,
118e9,
5e9,
10085,
1045d,
5d7,
31f,
19a8,
c54,
10497,
10cb1,
118c2,
10959,
10413,
171e,
7bf,
142f,
f3d,
a39,
101af,
11040,
11880,
10bf8,
fd4,
6e6,
10345,
10341,
c9a,
c15,
938,
10bb1,
1167d,
11394,
10ba3,
10e7c,
26,
a5b,
1367,
1a8,
1033a,
107d8,
10ef1,
11749,
12718,
11d96,
2ec,
ab9,
f78,
912,
1733,
a07,
4ac,
10b,
4f0,
773,
10754,
6,
61b,
10195,
161,
10230,
c65,
10092,
1044,
c6c,
ca7,
3dd,
10228,
32,
10352,
bc6,
1033,
584,
50d,
103a9,
18f,
10675,
10725,
1143c,
11311,
10bb4,
104f4,
103f4,
b3,
10654,
11693,
1,
85a,
1043e,
1106d,
510,
c02,
79f,
3bb,
6b0,
10733,
100a4,
66d,
e64,
373,
418,
47d,
1e4,
10613,
104dc,
9d6,
445,
1532,
51c,
a1b,
706,
d9f,
10d08,
10e8c,
83c,
10a9,
11e2,
844,
858,
10799,
102b6,
201,
1027d,
9c9,
cef,
1203,
8fa,
108f6,
10789,
10a54,
59a,
10237,
10b91,
10633,
102f3,
104f4,
1054b,
10aca,
1079f,
10a0b,
972,
1188,
218,
b8,
104e5,
10955,
106c5,
10b55,
102f3,
889,
1253,
16cb,
b1b,
105fe,
111ad,
109d4,
111de,
106d7,
10432,
10360,
102d7,
1002c,
105ff,
10706,
106f9,
10e6f,
10747,
10551,
106cb,
104ca,
b8f,
15f0,
eaf,
c44,
1044c,
1063e,
1163e,
10ab1,
10e65,
10ff1,
1504,
1a1a,
b24,
7c5,
2ed,
5cc,
508,
100d6,
10eee,
1011e,
1014,
162b,
5d,
65a,
1367,
ae4,
12ff,
102d3,
10257,
1085f,
102c,
13b9,
10302,
101d8,
1024c,
15bc,
a62,
100b4,
10abb,
10d9d,
10047,
647,
102d5,
10731,
69e,
bca,
103c6,
10381,
283,
6d,
105ea,
68,
10088,
10285,
136d,
255,
1c9,
1054,
889,
52e,
10330,
10242,
1096e,
10036,
a05,
105a,
1727,
14c9,
e8e,
10110,
10f47,
438,
10135,
58a,
898,
1201,
11da,
296,
10361,
911,
249,
11043,
1013d,
1096,
100e5,
16,
1037c,
536,
10459,
104fd,
7c7,
105b1,
100d4,
10a8a,
10e96,
1083b,
5ae,
472,
701,
1006c,
1044a,
271,
11f3,
8cf,
10392,
965,
100d9,
101d1,
939,
67a,
16c,
10066,
263,
107ae,
10102,
10722,
109ca,
55a,
3f7,
10101,
108d2,
10c52,
bc,
108c8,
108d2,
10d46,
10103,
132,
282,
2d8,
10933,
1073b,
10d7b,
115ab,
712,
105aa,
bf5,
579,
713,
831,
8aa,
dd8,
10b00,
108e1,
38f,
10175,
1666,
d4e,
a94,
7af,
573,
b78,
1052a,
106de,
200,
a10,
6be,
ca5,
ad9,
3b5,
105dd,
10407,
107fd,
2cb,
828,
21b,
df,
108ae,
104a5,
430,
10646,
1040c,
10a95,
10330,
10556,
84,
10a12,
10775,
103c6,
149,
a82,
10197,
10313,
10192,
4a3,
102ee,
1033b,
131,
202,
1022a,
274,
10cc9,
10122,
1c8,
100bc,
17d,
106d5,
106b8,
10646,
5c8,
10334,
10b7f,
520,
2ab,
1034e,
11188,
1074d,
10f70,
10be0,
1027c,
10963,
107de,
6c6,
103eb,
10eb1,
10ddd,
10cfc,
108a2,
278,
10888,
10c09,
10d2c,
10c9b,
10cff,
10be3,
455,
bd7,
920,
b7b,
1001e,
10cbd,
10599,
10ac6,
106fb,
f1,
6d7,
cc4,
28b,
10357,
99e,
ad0,
b7,
20d,
5bc,
1024e,
95c,
be7,
13ef,
1023a,
10586,
1088f,
10827,
f8,
10447,
781,
1028f,
5fe,
745,
10099,
10aed,
10311,
364,
102,
100dc,
105c5,
10956,
68c,
187,
4ed,
101ac,
10bb9,
1160c,
11110,
10b3d,
1102a,
10551,
c99,
100dd,
271,
188,
102b0,
440,
10aca,
10eaa,
1042b,
10594,
1072b,
360,
30b,
10449,
10f75,
10485,
12320,
11119,
10330,
10d75,
104b1,
212,
1f,
105f3,
10888,
50d,
10936,
10341,
10dcb,
11646,
1019a,
10671,
180,
10063,
1013c,
103f1,
10d99,
10bbc,
10abc,
101f8,
71a,
7ef,
b4a,
c8b,
1038e,
2f4,
5e5,
1068a,
10b1d,
1c3,
10234,
a67,
100bc,
5d9,
81e,
63,
34d,
429,
1050f,
6fa,
10661,
1678,
14f,
828,
98f,
10aeb,
8a3,
103a8,
10760,
2cc,
ea,
5ad,
3ea,
588,
8fa,
1036e,
1054a,
48,
105c7,
1b5,
4b3,
1098,
9a6,
62f,
10401,
10322,
1077d,
1027d,
1013f,
e06,
859,
113e,
fcb,
de1,
1038d,
a7,
10f05,
104f4,
101f2,
10639,
b68,
104e,
100f6,
7d0,
8e2,
1403,
eaa,
68d,
108cd,
11dce,
10aac,
101f1,
303,
1336,
a3e,
107df,
110bc,
12134,
1208b,
249,
795,
1ca,
10669,
b9c,
153,
10fa9,
11ee1,
11d02,
10ad6,
100b6,
8f2,
77e,
cf6,
1035e,
11527,
11bda,
11eca,
10cdc,
1099f,
12c,
e28,
6cb,
6da,
103d8,
10e74,
11874,
11928,
11107,
1fb,
3fc,
9ab,
107bd,
10739,
106e8,
105fe,
10f36,
10f8a,
105d4,
11384,
10577,
37d,
10b7b,
105fb,
1050e,
440,
6cc,
1077f,
11ce1,
10d1d,
909,
100d0,
1162c,
11492,
10933,
43e,
4aa,
1009b,
1144e,
106a2,
a8d,
4d4,
11230,
106d4,
31b,
e5,
be4,
891,
10d5a,
118be,
10234,
104af,
2df,
372,
bbc,
105dc,
10170,
12d,
10347,
110be,
11430,
113be,
1007d,
1502,
431,
728,
10058,
1080b,
1119d,
10e49,
10439,
463,
143f,
1d89,
df,
317,
10eba,
11068,
10646,
100c7,
111e,
7b3,
18c5,
2347,
10616,
111ca,
117a9,
1135a,
b22,
b25,
8b8,
100df,
577,
af1,
119bf,
103a0,
834,
ebd,
944,
560,
beb,
106d3,
11059,
459,
11bad,
8d1,
14d5,
116f,
a7c,
9fe,
10131,
10996,
10805,
2fb,
10fc3,
1134,
1077,
15de,
186f,
1007a,
1064f,
109f1,
10785,
107d0,
100bf,
1179,
1320,
13f2,
173f,
65a,
1017e,
136,
10988,
1025e,
3,
e63,
1035c,
d04,
2084,
1642,
1285,
10608,
6be,
10631,
33e,
3cd,
101a2,
12df,
261c,
1aa1,
1215,
ad8,
100ee,
116,
dd,
10a61,
181a,
2157,
1b16,
d36,
1683,
bab,
109e8,
3ad,
93b,
1ec,
c0b,
1059,
210c,
bf5,
122c2,
10dd4,
10a42,
863,
1826,
806,
11e9,
795,
100a4,
11b92,
111af,
9ff,
1b8,
1102c,
651,
6ea,
1053b,
112c5,
11107,
11088,
872,
139e,
1b93,
10388,
6f7,
36,
10898,
10133,
1123a,
105c8,
10a61,
839,
4ad,
149f,
ce6,
e9,
103d3,
10735,
10982,
11e12,
10240,
1d55,
46c,
44d,
26b,
eec,
1005b,
101b3,
145,
1153c,
db5,
1042c,
11955,
10ebf,
1047b,
c85,
979,
1002f,
10871,
10cfe,
c2a,
12320,
11c82,
10c2e,
16e,
bde,
f5c,
89d,
10113,
10236,
105fe,
10604,
1121d,
851,
10380,
148b,
542,
afa,
9e5,
1041e,
10aab,
1062d,
79a,
97,
bb8,
210,
724,
a34,
7d2,
d5c,
1112f,
1193c,
250,
6a5,
882,
173,
32f,
f03,
f25,
16c5,
104ad,
5a6,
d82,
12c5,
be,
599,
b89,
191f,
12f,
4c9,
1080c,
787,
968,
1490,
1207,
e22,
1251,
e0d,
104cd,
1082d,
100b5,
1064a,
5a6,
b7f,
87d,
72f,
1819,
33d,
10f65,
1077e,
11208,
10aa2,
1181,
3c8,
3c0,
74d,
d64,
101f5,
10059,
103ef,
3f0,
5db,
1310,
1250,
308,
4dc,
31f,
80d,
10a94,
860,
10e2b,
58a,
139b,
b9f,
104b5,
e5a,
984,
9ee,
10101,
2c9,
103ec,
b4d,
c72,
f71,
10aa3,
385,
39c,
105f7,
1042d,
a5f,
10183,
5c4,
207,
e4,
10737,
102cb,
10250,
8a4,
757,
a36,
10889,
1163e,
10bff,
126,
77,
10502,
c9e,
155,
b65,
6a5,
108f7,
112d4,
1054e,
30a,
855,
861,
110d7,
12d69,
12d60,
10c86,
1655,
31e4,
1eaf,
11e1,
10463,
10d3b,
12108,
1294d,
112a4,
10c12,
10485,
1047f,
1659,
177d,
10a,
12ca8,
12d58,
120da,
10442,
10176,
11087,
11905,
11d84,
f9,
10ea8,
2fa,
10be2,
1144c,
10904,
1b45,
164b,
e26,
111b7,
11822,
1162c,
102cc,
109af,
11655,
10958,
10881,
1024c,
1013e,
128b2,
13435,
11efc,
10771,
11b9b,
10099,
112e,
10070,
12d5,
101c6,
11e3e,
115d3,
4a9,
13f,
115a4,
12387,
10774,
10200,
10436,
1143e,
12356,
11866,
10c71,
1141c,
10c14,
10c40,
10535,
116d0,
11946,
12c28,
12c88,
11213,
3d1,
10bc1,
11869,
11e20,
107e1,
661,
9a7,
1933,
1669,
101c0,
168b,
5fc,
101cc,
11c50,
11c8c,
1171e,
298,
462,
10d1c,
108b3,
58b,
1045b,
110be,
110e8,
100aa,
9c,
a3c,
1164,
100f4,
65e,
510,
1094c,
1196d,
10915,
1033b,
145,
147,
d62,
3cb,
a18,
f17,
116c1,
11a2a,
10719,
78a,
107b3,
109ec,
1015c,
7e0,
10955,
10b8f,
1048a,
109f0,
10dd4,
76b,
121,
1005b,
e43,
bb9,
109de,
10e11,
47d,
105cc,
54,
742,
42c,
a0,
10024,
6c1,
bc,
83,
102fa,
10768,
d65,
abe,
10298,
10139,
318,
102e8,
10e3e,
10b2d,
10b96,
e9f,
120d,
1076c,
10175,
349,
105e8,
101f9,
10de9,
1114e,
10140,
1928,
a4a,
101b7,
80,
5de,
107cd,
101a2,
1142e,
1013e,
1069d,
148,
108a7,
10f62,
106f5,
111dd,
10eaf,
66b,
148,
be7,
f6b,
c86,
7ff,
10026,
10938,
10c74,
1c6,
9af,
8a8,
722,
10044,
9c6,
10de9,
11afc,
112e0,
99,
37f,
1224,
1d50,
b26,
10091,
106d3,
1207f,
11c99,
10553,
106b6,
411,
f21,
d20,
c3e,
10192,
11540,
1067d,
74a,
10262,
10573,
110b0,
1058d,
1049c,
1018b,
11050,
677,
1006f,
ab1,
6dd,
f6,
103ab,
10ac7,
10123,
307,
10c66,
10755,
106d3,
832,
fec,
2cc,
103f6,
10921,
10a22,
109da,
10c15,
1057c,
a17,
1011e,
2f5,
318,
10edc,
109c4,
10733,
10d07,
10ae5,
104b6,
871,
1008e,
8f1,
10c33,
10d3d,
102cc,
1be,
a01,
10e8b,
1208c,
1130e,
2a7,
10d5,
8e1,
10b81,
102de,
a2,
745,
114de,
11de8,
10a1c,
5f0,
284,
792,
67e,
2be,
590,
2fb,
10ca5,
109cd,
80e,
db7,
d60,
b6b,
e10,
1089d,
11197,
1003a,
9b6,
10634,
1191d,
11933,
1026c,
10158,
10251,
c3d,
99d,
c9a,
10909,
10ffc,
118af,
10cc8,
10f3f,
10315,
17ec,
1d9c,
e05,
d68,
105ed,
1145b,
11d5f,
10877,
1030d,
1461,
13b9,
b08,
74c,
4bb,
11325,
11d28,
1219c,
1013b,
2c6,
421,
fd3,
3c5,
10260,
180,
10d13,
11346,
109e0,
d2,
10b3c,
67b,
651,
639,
10612,
1046f,
59f,
10e2b,
1027b,
1013a,
106ba,
6f9,
b76,
160,
102e1,
10650,
13a,
1036e,
1c,
100a9,
1058b,
c7,
998,
1015c,
10d33,
10d87,
10428,
1005d,
103bc,
10cb0,
10387,
10593,
105b6,
108ae,
1075c,
2,
971,
1041a,
1031f,
10739,
10d76,
10823,
10847,
10d6d,
105db,
10600,
103bd,
10a12,
1029c,
11237,
106ac,
bd,
1051f,
10236,
8d2,
4cd,
496,
10353,
108aa,
11c99,
11312,
37b,
d68,
1ccd,
1470,
16f4,
314,
11102,
11ba1,
11083,
10f99,
757,
f28,
ef6,
1630,
14ff,
11042,
11c5c,
11172,
108b6,
10126,
0,
73e,
12,
469,
512,
10870,
1174a,
10f6d,
10861,
216,
105b8,
b00,
d4,
a18,
102ac,
28a,
117a4,
106af,
10019,
646,
92e,
15dd,
e27,
103b8,
10b07,
112de,
11db8,
10874,
6a8,
942,
540,
cf0,
3b7,
1104a,
306,
10be5,
11686,
10923,
5c5,
69e,
599,
a9e,
10422,
10b56,
333,
10ff6,
10f79,
103e0,
248,
10083,
295,
4b0,
10be2,
103a7,
104d0,
10b3d,
111ac,
105c8,
105e0,
106e6,
101a6,
106,
1095f,
107fe,
10f,
a57,
11286,
12342,
10dcb,
1122b,
10898,
100c2,
7b0,
538,
10002,
8f5,
ec1,
104e1,
1259e,
1155c,
10aaa,
371,
718,
380,
4b4,
a69,
175,
11dac,
11e87,
11039,
10b69,
aab,
cd4,
572,
6c3,
ce4,
10d97,
12092,
11b05,
11e1a,
6d,
e9e,
80e,
236,
4a1,
390,
10b52,
11cc1,
115ff,
11194,
224,
229,
17ce,
85f,
10479,
df6,
100e4,
11274,
115ac,
10a61,
cd7,
3e7,
14d4,
4b9,
598,
a73,
10471,
1169f,
109b7,
4d7,
3f,
81b,
1f2,
10bf2,
7f,
27c,
10ba6,
10feb,
10863,
10600,
107,
100af,
592,
10103,
10864,
1056c,
4d7,
11180,
11ac7,
10a1b,
108b3,
7fa,
175,
103fd,
215,
105fc,
10e14,
1119c,
11954,
1049c,
10e64,
a9e,
693,
1061f,
10221,
cc,
113ec,
11f74,
10ee3,
331,
325,
b4a,
423,
343,
9b,
49a,
1095e,
10ae5,
4f9,
9bd,
eeb,
11e0,
f16,
f0,
3f,
1092a,
cad,
1105d,
10cd9,
2ba,
2bb,
d53,
4e3,
b68,
828,
10566,
10f83,
1002a,
10748,
b68,
10140,
1021,
5de,
b4f,
b84,
1064c,
10193,
25e,
14e,
3,
637,
111a,
f01,
b37,
f5e,
73b,
d72,
a18,
a6e,
124,
739,
115d,
3cf,
228,
99c,
101a9,
1206,
d72,
771,
c8a,
13f6,
1026,
a1d,
1ca,
110e,
1285,
811,
7dd,
1044c,
205,
17a8,
126c,
a58,
10154,
101b1,
117c,
1401,
eac,
1d9,
1036e,
146f,
c24,
1020f,
46,
105d4,
5da,
35b,
174f,
6a5,
104ad,
c2f,
85b,
64b,
102bb,
108e1,
10cfc,
106b5,
10085,
4ad,
10710,
10a3d,
125,
c9f,
334,
106d6,
9ed,
c0e,
1002e,
10668,
72,
112e8,
10f18,
111db,
11969,
11c32,
73a,
333,
20a,
10760,
10baa,
479,
100fa,
10246,
115d6,
11b65,
70b,
34,
10c47,
6ed,
1116f,
4d6,
1dd,
10122,
10b91,
116f6,
46a,
13f,
10098,
9df,
2,
906,
72e,
102d3,
10ef4,
10545,
38d,
5d5,
3dd,
120d,
72e,
1411,
417,
108aa,
109c3,
8e5,
1033b,
1190,
1020d,
e6e,
668,
10041,
10d27,
474,
42d,
177d,
107e3,
10908,
102c0,
246,
10df2,
1101a,
106d7,
2bd,
f6d,
fa4,
12591,
12401,
112fb,
10df3,
11982,
10b93,
100cb,
dfa,
6c,
103ea,
11d0e,
11f97,
11e92,
10e79,
100c2,
107a1,
d39,
1090c,
1123a,
153,
1171a,
10a34,
109f7,
99a,
22e,
10123,
69c,
1044c,
454,
8e6,
1022a,
10411,
10939,
10532,
108d4,
10e13,
1dd,
3fe,
295,
587,
78c,
10799,
10ed0,
10d7c,
1bd,
17e,
10ade,
100ec,
397,
260,
2ec,
3f9,
10497,
10738,
289,
40a,
4d0,
3f8,
f80,
10b30,
102d5,
104fd,
10025,
3d0,
101a1,
10ea8,
100be,
b59,
10734,
10127,
10824,
103c9,
173,
1282,
10801,
10451,
c94,
d0,
107ca,
1034e,
1e3,
2f9,
1015f,
818,
133,
108e,
16cf,
106b3,
100ac,
1cf,
2bc,
737,
a05,
3af,
484,
16d0,
3ac,
752,
103fc,
103e6,
4d4,
886,
15a5,
737,
bc7,
34f,
7b3,
10637,
73d,
1029c,
1068b,
ca3,
bbc,
a17,
10401,
2f7,
2c1,
861,
104bb,
11042,
107b0,
10c57,
570,
1077e,
10674,
10bb2,
2a,
107f5,
2af,
101b5,
3e5,
14a,
103f4,
10294,
10504,
109c4,
677,
45a,
104e0,
101f9,
9d2,
10662,
10925,
103d2,
9e,
a27,
1123,
50c,
103ec,
f32,
10808,
10ec4,
10b2c,
10333,
a64,
928,
b9d,
9b1,
1131,
27a,
10f27,
1089c,
1002c,
4d8,
10e,
10389,
312,
127f,
df5,
106f8,
1156f,
10b99,
6cc,
102ec,
105ed,
267,
722,
15e1,
19c,
10532,
10052,
10144,
1010f,
97,
555,
1057a,
815,
faf,
698,
5c0,
1010b,
634,
32d,
4dc,
1058b,
103ed,
103dd,
1042a,
24b,
36,
100f0,
10808,
5a4,
14d2,
816,
106e8,
70,
377,
887,
3d1,
109ff,
10c1c,
10902,
100ce,
85f,
10389,
51b,
6c8,
a5b,
daa,
1080c,
10dd4,
10b92,
10a26,
9d9,
14f,
485,
857,
7f,
647,
10cc2,
c2,
13ea,
118b,
cee,
a59,
7a0,
103e5,
10f7d,
112ca,
10643,
da6,
1a4e,
5e5,
10321,
1039c,
2ec,
1d,
10b90,
113e8,
e51,
1409,
921,
192a,
105,
a73,
16ce,
1323,
7ce,
11e2,
7b7,
1a1,
746,
665,
1059e,
427,
25a2,
1532,
1be,
a6f,
10fbd,
116e9,
10a54,
1019f,
10e4d,
cd8,
5f7,
11081,
1085e,
1019d,
11cd9,
11ee9,
101a1,
d88,
671,
1061c,
e,
10d94,
10c21,
11307,
108b7,
149c,
19d7,
102d,
10348,
bff,
4f2,
10321,
103f2,
10df3,
1020a,
14cb,
212e,
ac1,
103ae,
656,
120d,
d65,
d30,
1011a,
1022a,
1354,
120d,
11c6,
bf9,
16da,
1032c,
10a26,
10186,
10322,
3cda,
2ce5,
20b8,
17e9,
d4f,
10830,
103c7,
11d60,
11f26,
112bd,
11888,
10900,
102ae,
ab0,
10392,
239,
d3,
75,
10e98,
109a6,
10513,
4cc,
285,
8c5,
9bf,
91c,
1040e,
8ee,
909,
10651,
377,
10437,
2d6,
fb6,
7d4,
7d6,
108e8,
536,
7e9,
10b24,
2b1,
106ed,
10175,
4ca,
1052d,
1037c,
108da,
10080,
10c8a,
1101d,
107ef,
10128,
1d3,
10268,
10c02,
105aa,
11441,
116f4,
117f0,
109e4,
110e0,
11497,
113ad,
10ac6,
10fb0,
110d3,
10ec0,
11f53,
10f75,
6c7,
1191b,
10df3,
18e,
108c8,
1152a,
10c1e,
10be9,
10d97,
105db,
4f5,
111e2,
11406,
10a1d,
110da,
112e0,
108e2,
1070c,
281,
1024,
2c8,
11012,
11871,
10c35,
102f3,
de,
104da,
1020c,
7,
1026a,
1069a,
79,
541,
86b,
74d,
a38,
10612,
10378,
3f4,
10a32,
1053a,
43d,
7eb,
a02,
904,
95c,
68a,
50,
1e3,
10607,
110b2,
4ab,
1044f,
34c,
10210,
4a6,
a31,
209,
1005b,
10883,
10cd7,
10003,
10731,
102bf,
362,
172,
10b5e,
444,
10404,
1083c,
1079b,
11178,
10546,
10a58,
109e7,
10ad7,
10958,
10219,
10789,
106b3,
10285,
10303,
3d4,
10f82,
1015e,
10c75,
104df,
10a1a,
1065d,
10f58,
d5,
10835,
234,
10184,
10d68,
390,
10775,
108db,
10605,
1000b,
109ef,
11718,
110b7,
10d4b,
10620,
10b23,
1023c,
1145b,
11343,
113b8,
1001c,
114f1,
1201e,
109c5,
10441,
10016,
10052,
109ec,
10a25,
10495,
519,
b,
116cf,
1182e,
1130a,
104e6,
10fb3,
1089f,
10867,
10a7d,
10667,
202,
195,
10256,
105dd,
1087b,
6b2,
12c,
604,
7f9,
bef,
11258,
11035,
1040e,
8f9,
748,
b22,
100ac,
10b6d,
104a5,
10bde,
106d8,
10f79,
10ce4,
1008f,
262,
1041b,
42e,
10341,
1043f,
10920,
10a8a,
10152,
ae,
1015d,
3e0,
adb,
469,
a60,
100d9,
10d19,
245,
109a9,
4ea,
28,
108a1,
1072a,
4fb,
10438,
1a1,
10bec,
105ae,
536,
a5e,
1054c,
103fb,
104f4,
338,
1025b,
109ba,
106de,
997,
2a2,
1ca,
1068a,
129,
1021a,
10f15,
10c65,
105e3,
101,
dc1,
75b,
10308,
10a46,
45e,
10ba5,
10707,
1000a,
1098c,
1080c,
10796,
10226,
10641,
10903,
10c49,
10502,
162,
1d7,
10320,
100e2,
1138e,
1096d,
1038c,
10109,
108b2,
631,
592,
624,
457,
102e6,
10f0b,
113d8,
10366,
1030d,
a91,
71d,
103de,
10c28,
10cf4,
244,
10659,
2c7,
108c8,
101a3,
100d9,
385,
768,
1006a,
1054a,
10819,
1045e,
105ba,
a3d,
7aa,
1614,
b42,
e0b,
101a3,
171,
10cd9,
10e18,
76d,
106a,
ffa,
dfd,
10f4,
b7f,
a34,
1044c,
108fa,
10778,
103f3,
101ae,
545,
359,
6fe,
3b3,
bc5,
1048c,
10224,
106c5,
10a2a,
11630,
10d4a,
10a2e,
10b08,
369,
d,
334,
2d4,
10a83,
1180e,
11076,
11609,
110f9,
110c8,
10d86,
106da,
10090,
42e,
40a,
10ce3,
1130a,
107c1,
104ee,
105e0,
10a05,
10b0c,
1030d,
503,
8d1,
65d,
860,
409,
10c06,
10918,
105dc,
11c,
1056a,
6d,
ba5,
4c0,
3b8,
101e5,
a7f,
1e2,
9f0,
10054,
109fc,
291,
159b,
165a,
10270,
10a11,
103be,
585,
10655,
104d9,
105d9,
10474,
104d5,
2ce,
10478,
238,
db9,
69a,
56a,
269,
1039b,
10243,
702,
559,
e45,
744,
8f5,
def,
1447,
106,
100ad,
8da,
4ff,
483,
415,
10148,
10342,
cd7,
c1b,
884,
f3c,
bdc,
10c32,
10685,
110ac,
10f18,
4d3,
100da,
701,
52c,
8c5,
24a,
dae,
101c7,
313,
106f9,
ec,
6bc,
b50,
dae,
e5f,
b50,
fe0,
9c9,
13a5,
327,
826,
3c,
1012c,
1c2,
531,
4a1,
81b,
b11,
1a56,
f74,
b1e,
10185,
1006c,
9a4,
5c,
25f,
769,
198e,
1165,
717,
a20,
51d,
f4,
ba0,
102c9,
108fb,
b,
694,
a85,
cd,
770,
1049f,
1025e,
442,
1007d,
34f,
101c1,
10265,
49c,
101a5,
c75,
103ca,
35a,
221,
10872,
106ea,
100f6,
e80,
10002,
10f27,
10f87,
107f4,
99,
6a4,
7bb,
207,
105c0,
109e5,
9a,
502,
1100a,
1029f,
e90,
560,
c8c,
797,
10e5f,
228,
3f3,
54f,
1be,
101c5,
10acc,
b1a,
9ec,
9e1,
103f0,
8d1,
6ea,
524,
11300,
5b3,
1fd,
6f3,
102be,
810,
568,
96f,
e93,
1528,
100fe,
26a,
10614,
326,
108b1,
10266,
107d,
ed5,
d9e,
d6a,
469,
1167b,
115cd,
10263,
102f7,
1022e,
3ac,
35c,
9ad,
11f8,
1288,
10274,
10350,
10b9f,
104fe,
105e5,
140,
b99,
a8e,
c87,
741,
1027f,
10c98,
11077,
10659,
105be,
820,
645,
778,
898,
42a,
326,
103ef,
1011b,
79c,
66d,
295,
105d6,
10063,
3fc,
252,
685,
105d5,
e9,
1007d,
bf3,
1002b,
161,
10610,
10c08,
10fe1,
10742,
bb1,
78d,
110b0,
12524,
10d02,
107dd,
1100e,
10b44,
19e,
83,
1b6,
8c9,
6f0,
12bf2,
105a5,
2c4,
10b8c,
1043b,
16b,
1f9,
10152,
4dd,
1d,
120b5,
1032a,
10aa2,
1084c,
10fb5,
10e37,
1045b,
522,
10bc7,
1091c,
11332,
1046a,
106b1,
10cce,
10cd2,
10d7c,
104f0,
27d,
1062d,
1060d,
11dab,
68a,
10484,
10f51,
10cd8,
1079f,
10b41,
1c5,
30b,
10565,
12493,
5be,
105f6,
11497,
10c8d,
116fb,
106a6,
10013,
101ad,
10a46,
11a04,
10f3f,
10a72,
10998,
10b2f,
1163f,
10fef,
438,
41b,
10eac,
106aa,
85,
10957,
10901,
1004a,
109f4,
29d,
f12,
10212,
f87,
109e,
10193,
101d2,
111ba,
2f,
1021b,
10c4b,
449,
3d,
2122,
1a3a,
1023d,
8a3,
1014b,
2af,
10d57,
1117e,
10f3c,
10111,
356,
74d,
102ed,
bbf,
10013,
101e8,
1034b,
2fc,
118c,
cf7,
36f,
244,
576,
10009,
4a8,
10024,
18a,
433,
938,
5a4,
4f9,
10570,
274,
10069,
82a,
3a,
1067e,
10fef,
164,
10af7,
4c5,
267,
67e,
100fa,
b60,
192,
11557,
11068,
10532,
1076e,
2df,
10078,
103ef,
113,
52d,
843,
1006a,
427,
10720,
11495,
120d5,
1120d,
6e0,
cf2,
10108,
10190,
9d0,
2f7,
10e0f,
105ec,
10cc5,
11443,
262,
69d,
10252,
ec8,
55b,
d50,
10767,
11624,
10eb1,
673,
9a5,
15e,
126,
10ac,
8aa,
10bc,
bc7,
103a9,
10a43,
108dd,
2c5,
8fd,
10560,
4c7,
1004b,
2c5,
74d,
10078,
7ac,
f33,
1042f,
1b4,
d96,
2ee,
d79,
103ca,
108ca,
21c,
9a4,
1f7,
23,
104a2,
102c0,
43f,
3c7,
63e,
1205,
47a,
10359,
10094,
100a5,
100eb,
103c8,
6c2,
bfb,
100cd,
10b04,
100a2,
10afe,
1063c,
10598,
10384,
1014b,
10540,
868,
450,
10625,
2ff,
1086f,
1099b,
1f3,
10143,
523,
b32,
3ea,
8b6,
c11,
935,
101f7,
10b98,
31a,
1f1,
1064f,
101f5,
9e4,
26b,
bf0,
8a5,
10259,
3d6,
1033e,
18d,
46d,
761,
1002,
104b,
10395,
5b7,
10248,
107f4,
108c8,
1045b,
434,
512,
2db,
d77,
62c,
98f,
49c,
11365,
509,
1089b,
316,
191,
2a9,
e39,
929,
1076c,
10912,
1032d,
10d25,
10d56,
10bd1,
100df,
78d,
102ec,
0,
81e,
10664,
31,
1022c,
101ac,
873,
599,
21,
722,
742,
40,
1093f,
11786,
2d6,
61f,
b4,
265,
2fb,
1a,
11240,
10996,
10bd6,
10fa5,
295,
102b0,
18b,
bc3,
cbb,
80c,
10946,
10692,
10f4e,
112c9,
37c,
102d4,
1064f,
1278,
25d5,
171c,
586,
1139c,
1069b,
101b7,
10f7b,
100cb,
10134,
1e26,
12e2,
16a2,
14a9,
1043d,
10685,
10364,
d1e,
10bd6,
219,
881,
5a4,
db4,
11238,
11aa0,
1085b,
c22,
10ab,
659,
10af1,
1c8,
10a9c,
117b2,
1073a,
11799,
10bff,
10d85,
73b,
be9,
785,
8ed,
105b7,
10890,
11d64,
113e3,
10602,
1118,
10646,
1705,
1b62,
a1d,
1c2,
77f,
10326,
100e7,
1010c,
8b0,
2057,
2722,
245c,
156a,
100a9,
8b9,
1393,
7ed,
1312,
12a1,
968,
15ff,
e25,
157c,
549,
790,
3c0,
969,
319,
110d,
cc2,
ced,
969,
442,
77f,
6d,
1050f,
10069,
1ba,
860,
34b,
5ef,
136,
38f,
6a2,
107d8,
10593,
10d4d,
105ec,
10a4f,
bd1,
166,
940,
3f0,
25a,
10187,
105a3,
1070a,
657,
104e2,
10738,
10b28,
659,
1127,
ec,
1079f,
2c4,
100c9,
1039b,
9ec,
10f55,
341,
ac,
6a8,
10286,
103c8,
51,
102a3,
3fe,
a66,
101ac,
10183,
1bc,
150,
4bf,
10270,
101bc,
7fa,
91a,
1002a,
10257,
10482,
c5f,
10015,
b87,
6ef,
5f5,
b30,
101b7,
10c4a,
11002,
10410,
10706,
109ec,
10632,
10246,
1024a,
105cd,
101d7,
109da,
106b1,
d9,
3f0,
8e9,
201,
10179,
107e3,
102bc,
2d1,
14e0,
1091b,
10b82,
109e4,
10791,
1041a,
10503,
109fd,
860,
711,
1005c,
10f56,
117c4,
11741,
1092e,
10e96,
10d4e,
32f,
102bc,
ae3,
1074d,
10df6,
1015d,
10881,
15d,
1ce,
10423,
6cd,
1034d,
1076b,
10976,
634,
104f3,
1065c,
532,
2e7,
51a,
101ba,
7ac,
10055,
10939,
60e,
539,
7b3,
fe1,
100fd,
3c5,
447,
5b9,
4bc,
1078f,
899,
10019,
10028,
108f4,
1032e,
10d5a,
10ad9,
1009d,
100a4,
10d74,
11fa,
48f,
10074,
10817,
10408,
10209,
10c83,
10723,
104e0,
3fc,
108a9,
10da4,
10a07,
106ac,
e05,
a95,
89c,
657,
6dc,
216,
11a19,
115eb,
10f9d,
107bb,
9a5,
81d,
40c,
1016f,
7b0,
cd7,
103ed,
10aaf,
1094b,
10b2b,
c8e,
60a,
b32,
e3e,
588,
572,
ab4,
1370,
e8c,
1768,
aec,
a4,
736,
498,
d96,
412,
106d6,
89f,
910,
253,
2d6,
6a1,
f37,
10182,
10cc7,
10a50,
4ad,
28,
20c,
1009f,
f47,
109b,
9df,
7d,
10a90,
10dce,
659,
7ca,
10575,
100ca,
1048a,
102bb,
109aa,
25b,
10271,
11572,
100ed,
10689,
102c5,
8a4,
4db,
ace,
51c,
6b0,
100ca,
10767,
101b3,
10036,
678,
3ed,
100f4,
b7f,
7bf,
98,
947,
4c5,
101f6,
102f6,
c7d,
12e,
fca,
23,
100dc,
1011d,
9ba,
783,
315,
10273,
4d,
8d1,
b0f,
4da,
156,
4c6,
10678,
10283,
10048,
101d1,
10321,
10202,
298,
52c,
1037d,
250,
12c,
100ae,
106e7,
105e1,
2d2,
103de,
1010b,
105f2,
10383,
10154,
8f3,
d04,
586,
b1b,
1a41,
ebf,
52d,
31a,
12a2,
1654,
85f,
10169,
8e8,
7ff,
a34,
c09,
745,
7f2,
3d2,
25b,
10197,
101c6,
291,
443,
10445,
108dd,
108c7,
536,
5db,
103eb,
107f7,
10814,
104ff,
10cf2,
1139d,
107b7,
10f2c,
107c8,
4ce,
8d,
10444,
10ad3,
310,
1140a,
10543,
20e,
236,
5c0,
5d0,
3ff,
1009f,
fc,
10285,
6f,
10c49,
9f9,
2a7,
55e,
105a9,
37c,
ba9,
bb1,
4af,
109ef,
10576,
567,
9f0,
10b46,
10ae7,
59,
a46,
a84,
7f9,
10d15,
10a92,
46d,
3e8,
3b4,
10a17,
108ba,
103c9,
efe,
661,
296,
644,
255,
9dc,
100,
10834,
270,
9e7,
287,
531,
55,
100cb,
104bc,
100a8,
10286,
abd,
1a5,
7e2,
755,
10339,
102ec,
697,
10564,
533,
e00,
8f6,
b51,
10087,
4d1,
10a75,
1108d,
111c8,
10297,
400,
64b,
d5a,
42f,
104aa,
10731,
10cb2,
10750,
1041d,
10706,
10627,
a9a,
7f2,
feb,
10201,
32b,
10172,
1027c,
10b46,
10538,
10504,
10796,
220,
f87,
c81,
5ea,
508,
100c6,
1025c,
1008f,
10446,
bd1,
877,
10159,
10166,
8f7,
bf3,
139a,
e08,
7f5,
10987,
993,
163,
10af7,
100b0,
106e5,
96b,
3f4,
10c7,
1014e,
10606,
4fe,
25c,
3d3,
106f4,
103b6,
63e,
a,
1003a,
8c1,
1044e,
1058f,
c9d,
408,
1076b,
be8,
10524,
100e6,
41f,
27,
10293,
10732,
102be,
a32,
1bd,
bcb,
104ca,
10e77,
10857,
10292,
103c1,
10109,
10929,
10145,
895,
498,
afb,
f90,
158e,
b02,
9e1,
cc3,
f5a,
d16,
f29,
d5c,
616,
895,
402,
102de,
b04,
f0c,
850,
146a,
130e,
c71,
19a,
43c,
b37,
102e1,
1058b,
10351,
10681,
1064a,
7de,
10116,
96a,
62b,
1006a,
10df6,
1047d,
ac,
b25,
102bf,
984,
10323,
ce3,
de6,
10142,
406,
c35,
1034c,
183,
6e6,
1012d,
625,
8b1,
1006,
e16,
f03,
e8e,
ae7,
745,
bf9,
8a2,
103ea,
101f3,
999,
14d2,
102e3,
1056d,
100d2,
280,
103d9,
105d3,
1048c,
893,
9d9,
3f6,
43a,
11088,
10028,
100c1,
10a11,
114b3,
110af,
732,
103c6,
c32,
72f,
10f10,
a2e,
47,
1009a,
10140,
10df5,
1061d,
4bd,
107e8,
38c,
10d4b,
113f1,
10e8b,
1171a,
10b36,
10317,
10214,
107c5,
10ee7,
11b58,
116bc,
10fa4,
105c9,
10a35,
10901,
11b5d,
10913,
11265,
11b6e,
10ffa,
107d3,
1014b,
10ec0,
10f3a,
108d4,
11393,
10ed9,
10e1e,
1134b,
10f83,
113b4,
112a4,
115c5,
10436,
4c3,
10ce,
10843,
11041,
1038f,
1069e,
10d96,
104d1,
10013,
81,
bd,
7e7,
1096c,
1004b,
3dc,
826,
da8,
10151,
3c1,
10265,
10106,
b1d,
ee0,
837,
602,
a82,
aae,
10830,
10765,
10422,
a82,
1b74,
292,
1fd,
bf,
10260,
10da7,
103ee,
104d6,
1010e,
868,
1135,
19b,
10a02,
111e4,
10ee5,
10cb8,
10c4f,
109a0,
10baf,
10862,
4c5,
11567,
11ca5,
118ec,
10c7e,
105d5,
109d4,
10240,
1064b,
1152b,
10c71,
11154,
44,
110e2,
a6d,
d,
e3,
a59,
222,
108e3,
10733,
4b0,
9cd,
83f,
10811,
10b02,
110c5,
1116b,
105,
c15,
584,
1028c,
3fd,
100ef,
10b9e,
102c8,
10843,
10161,
10f8e,
100be,
6a0,
10865,
74f,
1079f,
109bd,
1e6,
fc,
3e7,
114d5,
559,
102ac,
102,
10691,
460,
101a3,
10a1f,
112c4,
382,
101b5,
10bed,
1091a,
101ce,
2e1,
10696,
433,
10a4f,
113af,
104db,
1012c,
1116f,
97c,
10476,
103a0,
bb6,
173,
d99,
1177,
7cb,
105cf,
299,
37c,
108a9,
493,
14dc,
1432,
595,
62c,
60d,
4bf,
10172,
10b71,
10b13,
2f6,
9e3,
d9e,
100ff,
92a,
ad4,
1004e,
10b38,
10a38,
573,
299,
e1,
a0d,
900,
933,
10402,
10cfb,
109f8,
10f48,
1021f,
10574,
1040a,
10924,
10bc4,
109e2,
1085d,
10a4a,
10ce6,
111ec,
7a5,
101e2,
8fc,
3db,
d5,
101ab,
2c9,
104f0,
11493,
10a21,
20c,
10060,
1028a,
29f,
781,
969,
ac1,
52d,
106b0,
10155,
100a8,
10698,
10807,
103a4,
12d,
85b,
bfc,
709,
dde,
10044,
106f0,
11123,
271,
1076f,
109b1,
1062f,
423,
7a7,
933,
1126f,
1066e,
103c9,
100c2,
10c4b,
825,
10060,
4cc,
467,
10771,
10952,
10bfc,
109bd,
105a3,
10857,
476,
3a,
106b1,
5a5,
108ed,
10550,
3c1,
10252,
139,
20f,
1bd,
10855,
129,
1033b,
100cc,
326,
1047c,
823,
e03,
1068,
79c,
4d5,
67a,
62e,
1012f,
309,
15f,
837,
56,
523,
78e,
bc4,
9d1,
58b,
103af,
2a2,
797,
475,
702,
24f,
c78,
1f2,
1049e,
10217,
1103d,
10f1e,
10db8,
10a9f,
100a9,
624,
6e0,
f5b,
1992,
aa4,
1095e,
120ff,
1004a,
9d5,
c22,
d11,
437,
1000d,
5cf,
10720,
115ba,
123ec,
af0,
44,
92e,
1348,
1c7a,
81d,
10268,
10851,
415,
10249,
286,
106ea,
e0f,
a8,
58d,
10aad,
393,
9a,
11f95,
10fff,
10ad5,
10c6d,
10d95,
15a,
113c9,
117f8,
108cc,
11e38,
1172c,
11841,
8a6,
10514,
104f5,
10647,
108e9,
12090,
10686,
10c66,
10e74,
11a7c,
2f0,
504,
77c,
8f6,
10297,
10b9e,
10739,
10dcd,
1252b,
12646,
101bc,
10181,
c45,
495,
1045e,
10b7e,
110aa,
1229f,
111b0,
11d04,
1064b,
3d1,
793,
107a8,
285,
101b9,
114c4,
11d49,
11fdd,
11f62,
254e,
1226,
1191,
a6c,
344,
10277,
1129b,
12270,
11bdb,
122c9,
735,
18e,
d8,
870,
10460,
1027a,
110b3,
11749,
10673,
102f3,
a46,
830,
651,
1c8,
14e,
1fe,
1046a,
1020c,
ed3,
ed,
8b7,
3dc,
40e,
3d,
15e,
1e0,
10625,
17d,
f3f,
438,
10065,
352,
1003f,
108fd,
59,
108d,
a16,
51f,
716,
a72,
10eb7,
1094a,
10df3,
10131,
d07,
c4a,
10e46,
107b4,
10394,
5cd,
1148a,
104c7,
10d0f,
10585,
483,
1085b,
11180,
10495,
1088a,
100be,
10e00,
10bfc,
103fc,
366,
419,
10129,
10247,
10a80,
10048,
c6,
104a0,
10e75,
10577,
105f3,
101eb,
10736,
763,
1019d,
13,
779,
3c7,
107e6,
3f6,
1004f,
5f8,
10136,
a4e,
102da,
1021e,
10a3f,
a59,
474,
1c1,
154,
7ba,
7e2,
220,
147,
100d8,
10dea,
330,
101a2,
10059,
10d75,
460,
10b4b,
6a8,
982,
1983,
d93,
5c2,
10803,
10ae7,
10cc3,
5c8,
900,
a3a,
a6a,
ee1,
b01,
ae2,
108fb,
10b0a,
10834,
541,
10df,
3e7,
d18,
503,
1009e,
10ac5,
11512,
10c02,
1a,
1033d,
100a7,
6ba,
103f4,
1066a,
10aac,
102d1,
1034c,
1038f,
10101,
b84,
8f9,
6f4,
46b,
10726,
776,
1045d,
12d7,
8a0,
10706,
37e,
9c1,
360,
a78,
103b4,
ab1,
bc,
10316,
940,
6bb,
1034f,
10a,
2aa,
10c76,
112f2,
10bfe,
10f68,
3a5,
5ad,
23e,
100f1,
100b3,
10bdb,
108c1,
11464,
11582,
17f,
109a0,
107f5,
10195,
10561,
1047d,
102ce,
10a52,
10fe3,
113d6,
10210,
513,
1009f,
50d,
5bc,
931,
10cf,
12ff,
944,
1012f,
10154,
1269,
a52,
693,
1769,
e9d,
81f,
58c,
1051b,
10463,
cee,
326,
574,
555,
dbe,
1bb,
1282,
ca3,
348,
4e4,
104eb,
108f8,
10706,
103bf,
519,
ce5,
129,
ec7,
240,
1001a,
1b1,
10b60,
1008f,
104e7,
100e3,
c77,
afe,
837,
3c4,
575,
10439,
1008b,
1046e,
51f,
2d0,
100c3,
1004a,
c14,
56a,
1029b,
4e,
101c4,
274,
e1a,
1094e,
1004f,
10d79,
10625,
2e,
255,
186,
103c9,
100f3,
765,
10548,
10ba3,
10038,
4c4,
1048a,
1082e,
105b4,
109ca,
3b7,
224,
2b6,
10355,
1025c,
333,
105b3,
10ba2,
10037,
1077d,
3af,
384,
3d1,
a60,
10d18,
101c4,
12,
10dcb,
1099f,
1053f,
102b2,
7e0,
15,
10702,
27c,
10467,
116bb,
10b54,
3,
10462,
1022a,
104cf,
129,
efb,
f44,
8a1,
ff3,
2d5,
10791,
465,
701,
d3e,
10cb,
54b,
e3e,
1536,
1342,
b8b,
19,
ba7,
102f9,
7ea,
16ba,
173c,
a63,
6c8,
1150,
90b,
11e3,
201,
904,
10922,
b88,
dcd,
9e3,
ca7,
6e,
7b3,
10e12,
a6,
10a81,
10fbf,
10285,
361,
1028e,
b94,
b7f,
415,
10ad0,
10d6e,
11000,
1177e,
1130e,
101ac,
518,
102cc,
103d6,
10919,
10143,
101d9,
187,
10e74,
10503,
101ab,
103e3,
1084a,
3b7,
10121,
10b1f,
5e2,
215,
25e,
10639,
10282,
317,
10a2e,
101db,
11514,
10502,
740,
160,
12,
8cf,
85e,
35d,
109fe,
10cfd,
10836,
6cd,
d43,
886,
41b,
484,
105dd,
100f3,
e,
102f7,
11164,
2e0,
1011e,
1c5,
45d,
ab7,
12a2,
10d7,
ad4,
c60,
81d,
10337,
2a9,
12b,
10be,
137a,
1b1b,
1b8b,
f7f,
1142,
db5,
510,
589,
a8a,
462,
e8d,
1218,
f88,
53b,
12e8,
101bf,
d5d,
1046b,
1084b,
101b2,
248,
103d6,
9c2,
30a,
85e,
ec,
cb5,
76d,
10000,
37b,
f5,
10866,
10338,
6b1,
af0,
165,
104fe,
841,
511,
8b5,
101d5,
101d2,
103fe,
100fe,
ae3,
1029a,
1006b,
101bc,
1043e,
1005f,
102d3,
10860,
1041b,
10514,
104af,
f3,
89f,
eb6,
5a4,
41d,
518,
1077a,
c5,
1096c,
102c4,
1109d,
10065,
637,
100f3,
10017,
108a1,
10504,
11016,
1127c,
1089c,
100a8,
645,
1018d,
100b5,
1bd,
39c,
253,
1009a,
10803,
103a5,
10c65,
1046c,
15a,
102fa,
101aa,
744,
1d5,
1047e,
10289,
10486,
109ab,
1dc,
10502,
101b2,
100bc,
1033e,
104cb,
624,
10987,
1d0,
159,
292,
1002f,
10498,
10701,
106b4,
589,
10578,
1022b,
10370,
46,
432,
2db,
327,
3de,
101a4,
562,
170,
7,
10445,
10510,
178,
573,
10451,
1049b,
407,
10427,
103,
3f0,
10242,
102bb,
10890,
4a3,
3e3,
364,
29c,
101b3,
1a2,
667,
1c6,
25,
453,
10020,
1028a,
10088,
175,
103e7,
442,
105b4,
101fc,
108b4,
54,
10224,
152,
1033c,
101cd,
5cf,
10997,
178,
108eb,
3d8,
10136,
4a3,
1012f,
25c,
103b4,
5dc,
878,
397,
72b,
101c3,
102e1,
bb,
897,
1067f,
2d7,
100da,
39a,
1026c,
87c,
10094,
4,
65c,
108f3,
101d8,
5c1,
101f5,
479,
106cd,
8ec,
20e,
558,
1064b,
8c7,
429,
76b,
10463,
108f4,
10596,
1ed,
10406,
10a04,
5d7,
100dd,
10115,
10769,
5b,
105f8,
2a0,
114,
151,
503,
10950,
1da,
253,
1098c,
106bc,
2c7,
b6,
10161,
105cc,
10828,
1011a,
10154,
10745,
187,
759,
4e,
51d,
108c8,
10100,
10240,
591,
18c,
590,
10258,
673,
1da,
100b0,
10393,
597,
231,
1089c,
10088,
5c1,
15,
15f,
389,
10129,
542,
4f6,
10108,
192,
148,
303,
10636,
4f5,
3c1,
10623,
3d4,
10775,
5c8,
495,
56f,
1069d,
1073f,
55,
105c1,
1006d,
14,
100f2,
10682,
1014b,
69a,
766,
2a8,
4e3,
105c6,
1031b,
1072a,
10555,
2ad,
107e5,
e5,
58d,
10104,
158,
4bb,
1052f,
3ca,
2e5,
1020a,
10635,
10109,
10463,
10570,
1005c,
2d2,
3f8,
104a8,
10414,
1d1,
10888,
4cc,
10068,
1fe,
1037b,
24c,
100e7,
10278,
10893,
305,
100d4,
1083f,
29,
105f4,
4a4,
10271,
106e0,
102e2,
10196,
10792,
10741,
107ca,
5e6,
10860,
1ee,
480,
10555,
106dd,
10912,
100cc,
628,
107c1,
102ce,
103b9,
1020b,
1003b,
587,
648,
509,
1078c,
105be,
101ed,
100a6,
1069e,
100,
25f,
1067b,
10545,
425,
10087,
93e,
64b,
10199,
10864,
3c2,
109ca,
3b4,
597,
10239,
106d3,
5f3,
105e3,
7c1,
51,
1072b,
12,
1097c,
1034b,
10237,
107c1,
1088e,
212,
3c3,
1070c,
66c,
1070b,
104bc,
10426,
104fb,
1093d,
515,
4e4,
104f2,
11c,
58,
10857,
10709,
1070e,
5dc,
10874,
106b5,
1089b,
10205,
3f4,
2c7,
10249,
594,
114,
10108,
257,
1083a,
9a,
10939,
516,
10244,
10182,
1b9,
104f7,
10818,
10069,
10641,
104d3,
22d,
22c,
10284,
102f9,
103d0,
104ed,
539,
389,
536,
1055d,
970,
476,
10876,
1041c,
10346,
10651,
632,
109a8,
105d6,
10293,
10569,
10709,
1066a,
1005c,
50c,
5fd,
385,
28,
307,
102ec,
1034c,
1091b,
101ba,
1037a,
102d7,
2de,
104eb,
1060a,
10427,
1050b,
14e,
10814,
100c1,
10649,
1074a,
380,
e6,
39d,
102b6,
15d,
1004c,
b8,
30f,
106ae,
5e7,
217,
10717,
567,
10335,
108d4,
29,
1081e,
4b9,
10875,
1006d,
10707,
10697,
10187,
10158,
10770,
108ce,
10938,
838,
101e3,
10257,
45c,
1029a,
1072b,
66a,
1a5,
2c7,
14e,
1047d,
60,
690,
101b5,
1038c,
27f,
30a,
487,
106aa,
82,
10298,
10341,
28a,
770,
3e4,
1a6,
101dd,
6b1,
106d0,
1041e,
106e7,
1007d,
101f7,
10591,
174,
35,
105c4,
238,
10099,
2e9,
1034d,
10547,
10350,
232,
33e,
400,
10035,
10769,
20d,
1043f,
10578,
10805,
10775,
21,
102fe,
51c,
575,
70a,
20b,
764,
100ea,
10391,
46a,
2e0,
10159,
10391,
1021e,
10763,
73d,
1065b,
56a,
10543,
10180,
10606,
812,
196,
10498,
10107,
51b,
100a2,
75d,
1000b,
516,
10037,
105b4,
55e,
62,
3fa,
10100,
3e2,
15c,
10302,
1008f,
105b0,
121,
1075b,
106c0,
10631,
10202,
10696,
102e4,
65e,
108b4,
5ba,
106d9,
104e9,
104c9,
43e,
1024c,
10208,
103be,
10630,
107aa,
107bb,
102ae,
396,
10442,
100c6,
21a,
10492,
100ce,
1081b,
102ee,
81c,
10986,
1a0,
1001c,
105ed,
103c2,
10305,
10878,
3eb,
639,
100e6,
10670,
10254,
453,
1051d,
19a,
44a,
1019f,
5a4,
480,
47,
2af,
190,
260,
63d,
4c,
339,
17d,
19f,
10776,
3e1,
22b,
10520,
504,
979,
634,
40d,
d9,
34d,
352,
116,
10363,
358,
469,
10246,
10491,
10091,
106fd,
101ed,
c1,
1011e,
14c,
532,
149,
10089,
3e,
101d2,
100b1,
10264,
1f,
65b,
10497,
106c2,
af,
104c8,
1087d,
10449,
19c,
102f8,
259,
1091b,
104c0,
10412,
24c,
11d,
a7,
10432,
626,
104,
10493,
100e8,
d1,
3bd,
15b,
aa,
27c,
100d0,
105d6,
2d1,
452,
10401,
100c6,
101ee,
105ca,
1055e,
10499,
523,
219,
10719,
1049a,
101ec,
10191,
16f,
10244,
100a7,
10466,
56a,
261,
380,
1012f,
10559,
18c,
100e9,
7b9,
1be,
10308,
108b8,
103c5,
1069f,
107d5,
103f5,
1066a,
155,
105fe,
10524,
523,
5bb,
4af,
f8,
10684,
40e,
104bf,
59e,
10346,
104de,
1d,
414,
302,
101df,
102cb,
1056f,
10110,
101cb,
10495,
3ae,
104ba,
157,
1000e,
71,
10077,
445,
100a4,
1068d,
663,
48,
353,
102aa,
10342,
1088e,
1061f,
5a9,
1089c,
6a3,
14f,
101a5,
2c3,
100a7,
444,
10120,
1064e,
10259,
43a,
1c0,
10794,
10068,
101cc,
10553,
10517,
103a8,
10599,
478,
10632,
135,
107df,
10081,
1099f,
10052,
3ec,
103fa,
a,
b8,
47e,
105a6,
105fd,
108b9,
10264,
101f2,
2a,
10754,
419,
5d9,
1071e,
10560,
101c7,
232,
57a,
45e,
65f,
105d3,
10483,
100a1,
39a,
56c,
10119,
1039a,
100b5,
105f3,
564,
10391,
1025a,
1026b,
101bc,
10854,
104e3,
106f4,
108a1,
104fa,
1078c,
103c5,
1,
105a8,
104e4,
360,
3b7,
1043c,
525,
10830,
10801,
1046a,
103b0,
10509,
1053e,
108bd,
428,
408,
451,
10831,
1a,
c,
5f1,
1026f,
598,
4f1,
4b8,
103c4,
5a4,
10342,
10969,
117,
10347,
38b,
f7,
5e5,
100cf,
10438,
2ae,
10567,
24b,
104c0,
247,
1020b,
103b9,
1028b,
10324,
3cf,
b5,
108e3,
102ba,
10760,
10779,
6f,
102af,
367,
10256,
2f1,
1086d,
209,
14d,
106fa,
652,
10849,
10445,
42d,
108d2,
1034c,
10674,
10191,
1093e,
1043a,
35,
103bf,
24e,
1010c,
108c5,
3cf,
10557,
197,
1c1,
10893,
1010e,
345,
29e,
104fb,
3eb,
108d4,
1066e,
8,
d5,
10731,
101f4,
108b7,
10536,
10855,
10966,
1081d,
10889,
10166,
5c3,
1013b,
103f6,
1be,
10895,
623,
87,
10407,
1012b,
416,
1059f,
104b9,
1039c,
658,
314,
970,
10,
e2,
474,
1073d,
10078,
10629,
108eb,
662,
103b0,
102f3,
105c4,
1010f,
2ed,
f1,
3dc,
e4,
12e,
104cc,
189,
135,
1021c,
529,
38d,
10869,
397,
11b,
b4,
109a5,
d4,
4c3,
105de,
199,
2df,
103d6,
10092,
1068d,
40a,
1030e,
4c7,
218,
58b,
4e6,
88,
10751,
4f2,
1015d,
10722,
1038b,
10342,
577,
b0,
10139,
10437,
10839,
109c5,
1079f,
b7,
10801,
1020a,
1006c,
186,
10463,
146,
10901,
10300,
10827,
10864,
296,
564,
d3,
106e0,
10016,
100d7,
26f,
10393,
cd,
4ea,
2f6,
1098f,
10408,
41,
101e1,
1009f,
1081a,
10604,
10634,
102a8,
107c2,
103e5,
1096d,
107f6,
10021,
10875,
1093b,
10307,
100d9,
22a,
10530,
415,
100fb,
10182,
3b3,
104ec,
101e2,
10933,
1057a,
1035a,
10800,
408,
275,
3d4,
345,
66b,
10805,
1011b,
1027f,
592,
78,
10003,
d0,
2ea,
2d9,
108f5,
1e4,
1087b,
171,
3e3,
10418,
653,
6ae,
103e4,
10242,
14e9,
223c,
166b,
cfb,
101f8,
1055d,
10f75,
dfb,
19c2,
169c,
9bc,
450,
8b5,
140c,
b10,
a90,
10857,
1551,
8a0,
cd3,
194,
1091c,
2f7,
103fc,
10ab5,
123a,
649,
e70,
10f6c,
10aec,
1005d,
845,
1007f,
106e9,
101b3,
aed,
d44,
1058a,
10730,
11871,
107e1,
d83,
126d,
10034,
32,
76,
100df,
1004c,
10bc3,
10e9b,
106ec,
3f3,
1671,
b0d,
108a3,
355,
1053b,
470,
1054e,
10e49,
10de6,
1028f,
ddf,
104d1,
10bc3,
110b4,
1012d,
107c9,
103a0,
10758,
11392,
104b4,
10909,
45d,
79,
10666,
101e1,
10395,
5ff,
106c7,
1133b,
145,
64d,
14f,
107a,
fd3,
4ea,
2db,
10101,
419,
358,
1017b,
dc,
da0,
10b6,
ad5,
604,
893,
f39,
844,
bb1,
561,
110c9,
11d41,
1147c,
10ba7,
5ef,
56f,
1086,
1518,
12fb,
106e3,
10b83,
10ac0,
11691,
1157b,
101f2,
dfe,
5b1,
c3d,
f53,
3,
10302,
89c,
1029f,
105a7,
100ad,
551,
34d,
d72,
1915,
13e0,
101b7,
893,
fef,
1111d,
10945,
10e7b,
107c4,
9dc,
a74,
e82,
105e9,
10274,
f33,
1090f,
8d1,
10971,
d8,
f6c,
10c9,
5bf,
1028e,
83a,
448,
10031,
1711,
195,
f41,
cc8,
1185,
cb3,
107f3,
60,
744,
d9d,
d2b,
d0b,
a10,
714,
233,
7b5,
1d8,
1034f,
10226,
1134f,
102cc,
eb3,
102b,
13d1,
dc7,
5c8,
10284,
10e48,
1045d,
122fb,
10426,
2256,
d69,
1084,
10362,
10c08,
10806,
114c7,
10ccf,
121c1,
10102,
1056d,
10650,
105b9,
15c,
671,
1475,
d20,
10874,
10874,
110ad,
10438,
1d,
81d,
b32,
afc,
e39,
da0,
2ab,
a4,
1fc,
1117,
1e53,
1a64,
10c4,
80b,
104c5,
10286,
10814,
6b,
1014d,
12e8,
148d,
3cc,
827,
98c,
baf,
796,
315,
10747,
357,
85e,
a6c,
10503,
322,
db9,
cf2,
b47,
ef8,
5fd,
10446,
10395,
917,
1eb,
109f5,
102fb,
12a0,
1503,
aa1,
30e,
2bd,
3c8,
102dd,
83d,
1091d,
10e80,
88c,
1183,
127,
10182,
1084,
488,
6f2,
6e8,
11430,
10583,
4fa,
16c0,
152f,
3ee,
10070,
101de,
808,
43b,
113ca,
109ab,
10537,
b23,
c0d,
c6e,
102df,
10090,
10898,
64e,
107c7,
1095a,
e2,
8a3,
4bd,
10234,
386,
10648,
1074c,
1033d,
1f8,
a02,
b23,
fb6,
91f,
d96,
8e6,
1098c,
10d2a,
10130,
687,
a7b,
f93,
108a9,
1013e,
10f18,
d2,
106f5,
10aec,
10129,
c50,
3e7,
b9e,
18b,
10763,
be3,
7f2,
1021c,
103fd,
340,
903,
1ee,
38e,
e92,
8f2,
1510,
65e,
1090b,
148,
26d,
1054f,
2cf,
10a48,
2d9,
99b,
9b1,
1013a,
100fa,
102bb,
5c2,
108d,
101c6,
10a68,
10780,
1be,
109f2,
10044,
1104a,
4bd,
962,
42a,
10bf3,
109a1,
1019c,
102f2,
10477,
b6a,
10a24,
1007c,
1026,
ab8,
1088f,
10554,
1013b,
109fa,
e,
8b2,
10179,
10671,
13a,
579,
107c0,
10c20,
10380,
981,
cd5,
1187,
a7,
106d7,
10a7f,
10a31,
10113,
7d2,
1121,
688,
101b5,
586,
12b8,
1f86,
f89,
145,
7e3,
31a,
10dd9,
110d5,
10dbe,
490,
a88,
18cf,
1b39,
1010,
b42,
347,
103d5,
1052b,
8d1,
1222,
10018,
15f5,
1e33,
9ab,
607,
1eaa,
21fe,
20e4,
179d,
146b,
10378,
1489,
1fc6,
2ee,
1230d,
1018d,
276a,
234c,
727,
1015f,
4c5,
1446,
12da,
108c9,
1124c,
570,
10add,
1463,
1c04,
19da,
551,
179e,
1a92,
102e1,
121ec,
110d6,
13f,
188,
280,
a6f,
c91,
1d1,
1008a,
11ae2,
11c6d,
1023c,
1e,
1a95,
169f,
119c,
10373,
10878,
106c5,
10ce2,
10d57,
10a4b,
e23,
8cf,
1426,
844,
2af,
df2,
1ca,
5d3,
904,
a91,
e0,
108ec,
c8a,
1035b,
a8,
106f9,
10333,
100e7,
145f,
a06,
107f4,
103db,
11386,
10fc1,
1087,
a47,
36e,
9ba,
364,
51,
10621,
45d,
1078f,
10a10,
4b4,
9d9,
62e,
8a4,
2e0,
10af0,
10568,
1e9,
719,
a6,
100d0,
4ca,
13e,
c4b,
e0,
c22,
16b,
10c27,
b45,
616,
1160a,
108e7,
8c1,
1d6,
951,
1b0,
112de,
10d11,
d8,
106ab,
10d06,
1086f,
4ae,
3f9,
253,
1a1,
10491,
10672,
11362,
10d84,
1079e,
38e,
15f,
102be,
100bc,
103cb,
10904,
10500,
5d1,
c0f,
111cc,
109e7,
10bf4,
101ee,
105dc,
10288,
f1d,
c1e,
16b1,
11dd,
1061a,
1071b,
10db3,
10131,
1b6,
6a5,
b51,
dd2,
ceb,
1f4,
673,
f0e,
9a8,
10bd,
a31,
312,
fba,
a2e,
109f6,
10e99,
f82,
1000e,
102bf,
827,
48a,
7e3,
367,
10a1b,
11043,
113cc,
ed5,
e31,
1f8c,
1391,
e5c,
101ed,
10b0f,
110e1,
10dff,
10802,
2ff,
72e,
fe9,
1273,
55a,
108c8,
10704,
10e5d,
10014,
10383,
103de,
1133f,
11323,
10aac,
1041d,
102a2,
935,
a0c,
830,
86,
10b8a,
11279,
11fd2,
11576,
11104,
108c9,
104a7,
693,
356,
578,
10ae4,
113b9,
11896,
11994,
10c41,
10900,
109fc,
364,
102c1,
13a8,
5de,
10410,
11403,
33,
e8,
1d0,
80b,
80,
3fa,
135c,
537,
eee,
10374,
3d4,
60a,
10205,
8f8,
10cf2,
17b,
111ad,
fd4,
e65,
d88,
d4a,
9e4,
281,
10a55,
1024d,
10568,
100e3,
13b1,
1cf2,
9c5,
35a,
a6b,
1023a,
777,
10832,
193,
891,
150e,
1017,
31,
102b2,
10a40,
10a8e,
10060,
102fa,
492,
82b,
635,
10a45,
48e,
3a6,
d49,
1001b,
3ef,
10031,
10d92,
1097f,
42d,
b29,
10030,
71e,
7c,
1008c,
10c38,
114af,
101ea,
5a2,
101ac,
3d4,
1017a,
13e,
10415,
10c17,
103de,
3eb,
105c2,
1be,
41f,
10f89,
10ad0,
10157,
301,
10133,
10abf,
627,
92a,
4a3,
10775,
104dc,
108d6,
100e5,
10534,
1092f,
105e6,
57,
104ea,
11a,
10915,
1005b,
359,
1057d,
1043c,
10567,
10641,
108c9,
10731,
10248,
adc,
179,
1088b,
108eb,
105c5,
103c0,
1024f,
916,
47a,
96f,
50a,
1042a,
10ded,
108cf,
109e2,
105f0,
60f,
79c,
6d7,
834,
3df,
10706,
105f9,
376,
97e,
af2,
3a4,
a19,
4b8,
129,
752,
407,
1e2,
e60,
7ef,
2e7,
bb2,
363,
10768,
107b0,
c66,
833,
33d,
4dd,
9e6,
c16,
102ce,
10712,
10b51,
10432,
11ca,
8d0,
73c,
3d2,
101f7,
81d,
10cce,
10499,
10346,
10785,
102b1,
109c9,
709,
1e4,
a95,
103bb,
831,
106f2,
2ee,
10456,
1054a,
11211,
11327,
10fb2,
1bc,
102bb,
101a5,
10679,
7bc,
382,
3b,
1071f,
111bc,
11276,
113da,
10d20,
104dd,
1076b,
10317,
827,
5df,
10759,
10bd5,
1122b,
1151f,
111eb,
115d1,
10adf,
689,
5b6,
124c,
879,
10d48,
1134f,
11352,
388,
10489,
6b,
690,
97a,
797,
eae,
10f5b,
104d6,
10295,
a4,
16c,
193,
bfc,
4f9,
102fb,
102cd,
10a4e,
101cd,
10124,
c56,
1ce,
694,
69f,
1c9,
10b71,
109ff,
10c17,
104dd,
100f6,
9b5,
d71,
10647,
1070e,
10920,
105eb,
96b,
5cf,
836,
1000d,
366,
10209,
75,
10517,
13c,
cce,
6cb,
4a0,
b00,
101db,
496,
6ae,
32c,
711,
84c,
4d5,
45a,
500,
105a1,
303,
1082f,
375,
104bd,
5e,
b0,
840,
103ab,
1059c,
106d3,
106ba,
106b7,
10053,
10233,
10299,
8,
100b2,
11881,
10f56,
10df1,
1190b,
10e6d,
10897,
100f7,
102e7,
a0b,
106f9,
10b2e,
114d4,
11416,
10ff7,
10459,
9d,
10615,
1012b,
183,
415,
1093b,
1022a,
112fa,
1088c,
10b36,
431,
108b1,
10082,
df3,
1f1,
10557,
102b5,
10b6d,
1165a,
1086d,
459,
10b44,
31a,
a26,
46c,
1045e,
107b8,
10aad,
1070c,
10179,
bb2,
204,
1006e,
5e9,
10614,
1008f,
10396,
53f,
2c,
9e7,
8fe,
10232,
5cd,
10212,
105e6,
133,
a9f,
7f1,
1587,
895,
416,
10207,
107c0,
10806,
10760,
79f,
ad,
5f4,
72d,
1032c,
10250,
10325,
2ea,
10358,
101c7,
109cd,
1a6,
5d,
10072,
caf,
b05,
7e5,
d4c,
135,
108dd,
10ebc,
10f0e,
10394,
10400,
103bb,
ad5,
e12,
a5d,
e38,
10ee4,
116a0,
9db,
ee,
84a,
13b3,
1902,
640,
546,
6a4,
1055a,
10ef7,
5c6,
fd0,
457,
12d3,
1524,
22f,
f8,
10463,
47a,
255,
5e,
b4,
743,
de8,
107f0,
8aa,
35b,
10477,
9f4,
eaa,
848,
76a,
19df,
921,
10268,
10264,
5ac,
80a,
a91,
515,
994,
a28,
cdb,
772,
106ea,
1033a,
102e2,
401,
bda,
a0d,
32d,
69f,
b61,
e44,
fe1,
1088e,
101df,
10915,
9f3,
dc6,
b60,
a96,
d01,
13d4,
1a1,
965,
100bd,
10786,
e3,
181d,
af1,
8b0,
80d,
3c9,
6eb,
10ce3,
116aa,
10a17,
262,
1239,
20e,
73f,
10eb5,
d4,
e59,
110bb,
1168b,
112e3,
105a7,
105c6,
10240,
1a0,
8ae,
1053f,
3ba,
1142e,
11d48,
11c68,
10950,
102ff,
d5,
80c,
e1e,
7f8,
10fc2,
1167c,
1227d,
10729,
1af,
e18,
605,
52d,
b8b,
e01,
10475,
10500,
108d6,
e59,
bab,
ac7,
e3f,
541,
10525,
6b7,
1088b,
106e0,
17c,
16f7,
10bf2,
10548,
4e7,
10445,
10387,
1087c,
10d9b,
11064,
363,
4d1,
217,
538,
1b1,
1f9,
101b2,
a0,
11089,
10a69,
10d5d,
103d7,
e15,
10174,
1042f,
11227,
10d4b,
10ef9,
11110,
10922,
1199e,
107e6,
100dc,
1dd,
469,
da5,
25f,
49e,
a45,
1065d,
10349,
101c6,
737,
1ac,
10761,
10239,
533,
10dc8,
109b9,
10d4f,
10765,
106d2,
370,
787,
828,
a0a,
117,
10018,
b9d,
db9,
466,
100db,
328,
10116,
405,
781,
109f9,
10a37,
878,
116d,
2c1,
dd4,
a9,
107ca,
10745,
10ade,
105e7,
10496,
c82,
ffc,
790,
69a,
10321,
3e5,
569,
10003,
62f,
1548,
1389,
af6,
10250,
104c4,
735,
1337,
5f1,
c12,
9a4,
d25,
107dc,
1e0,
1014e,
b,
663,
8f4,
1121,
80d,
518,
7c8,
c48,
14e4,
594,
fea,
aee,
1f0,
b78,
101a3,
617,
100ca,
933,
ea0,
10057,
21c,
10081,
caa,
15c,
117,
1d6,
a44,
dd,
1047a,
2b9,
100c9,
82d,
c,
173,
1fd,
105aa,
549,
7a,
11ef,
117a,
83c,
10427,
557,
1b4,
1051f,
2e6,
109b3,
108b1,
17e,
abd,
727,
309,
104a7,
17c,
515,
10268,
34d,
bd4,
100d0,
c29,
dd1,
21b,
c66,
740,
9a5,
a76,
507,
b38,
305,
1492,
d4c,
10502,
1001b,
225,
6af,
b48,
108bb,
c19,
984,
2af,
6e4,
8ef,
527,
10934,
10479,
10378,
10182,
10316,
424,
100be,
10274,
8c0,
522,
822,
103b,
10477,
10123,
778,
994,
10187,
bdb,
10148,
101e0,
42e,
c16,
5bf,
5ae,
14e6,
c8,
3cb,
3b3,
9c9,
269,
135,
d8e,
c5b,
9c2,
1834,
d1f,
476,
f14,
2,
10ad3,
10912,
341,
70e,
d20,
112f,
27d,
9ba,
9af,
192,
7ad,
105e6,
107db,
100b3,
534,
10c68,
10092,
10128,
100ad,
ab1,
f37,
112b,
4e6,
115a,
2fc,
6e,
3f7,
10643,
1027f,
5d8,
bf7,
102d8,
10ad4,
10b24,
f76,
17c2,
1e62,
11c,
16c8,
1a8,
10d4,
dda,
1207,
100c4,
1061f,
15bd,
18bc,
1066c,
1125c,
795,
1589,
b09,
10e6a,
109f4,
fcd,
10749,
10ccf,
106d8,
96,
9de,
1e1,
d98,
142,
10374,
10bbd,
104f0,
1208d,
119f6,
130d,
2cb,
10370,
8a6,
107b7,
120c3,
10304,
10e6a,
11615,
12179,
11bca,
415,
14ca,
10df,
10024,
7b2,
10e7b,
1130e,
11cea,
1023f,
10c76,
45b,
5d2,
60f,
e94,
a41,
834,
103d9,
31e,
6c1,
11555,
dce,
18d3,
2026,
1ad8,
1c34,
f55,
45d,
11d59,
124a7,
118cd,
10dd2,
c0,
4d8,
1094f,
1041c,
be6,
b42,
1219,
3b6,
a89,
8f,
10712,
7da,
1e3,
4b,
108f9,
8a9,
bbb,
106ee,
104ab,
3d,
1076a,
30e,
10295,
104d1,
1095e,
10d11,
107e1,
1010e,
7c,
11405,
13a,
10ba7,
7ec,
227,
106c3,
103cd,
110d7,
10873,
10843,
10683,
109a0,
2af,
3be,
128,
1054a,
10fcd,
1158b,
10bc6,
106d0,
10946,
213,
10132,
e,
10433,
10b3e,
11122,
10e08,
10610,
b8e,
1111a,
10b60,
10961,
220,
10cdf,
112a9,
106cb,
103ca,
2e2,
1615,
1029f,
1099c,
c4,
6c2,
1b9,
409,
97c,
875,
577,
eb7,
10ebf,
1077d,
598,
7fe,
95b,
a63,
f02,
613,
12b1,
8ff,
10b7d,
10240,
106cf,
a3f,
10f,
10189,
ab5,
5b4,
106b3,
11065,
53d,
9c1,
f35,
843,
10435,
10282,
10217,
10368,
10e10,
11183,
655,
134,
694,
1014a,
10a22,
10889,
10a72,
10630,
1093c,
11259,
