memory_initialization_radix=16;
memory_initialization_vector=
10c3b,
127bc,
1a82,
137ed,
1061f,
1189,
122d6,
12156,
168f,
10da8,
1102c,
11cfc,
11eb1,
133c,
16c4,
12499,
109c4,
10077,
10f35,
335,
170f,
12116,
2018,
2dc0,
19d7,
2a46,
163b,
103c5,
115f0,
100c4,
3459,
10f70,
1006c,
1b55,
12d1d,
125e5,
129b1,
10c7d,
108c1,
5ab,
1963,
1377,
122d7,
3f59,
112,
27ad,
10190,
2924,
17d6,
11697,
11e2e,
10241,
116a2,
10d28,
110bc,
10c78,
10fe3,
2577,
11b3b,
133de,
1873,
1f41,
9c8,
11ae3,
10bcd,
1b85,
100ca,
12aa9,
135e8,
2f99,
10d27,
11f3,
11e54,
12da6,
104a2,
11cfc,
127ce,
13ad8,
23b5,
a43,
5a5,
107e8,
10a5,
10424,
18e8,
33fe,
2f63,
3802,
155d,
4d28,
11f69,
10d14,
29dc,
12e97,
b23,
521,
11a07,
f29,
b07,
3508,
2a36,
2946,
12e5c,
11b96,
1f65,
1020,
11190,
12916,
1084a,
20d1,
1c84,
737,
126a,
2775,
2ee3,
23f9,
2193,
4d8,
f3c,
10a79,
104fc,
10920,
2027,
11963,
10180,
2418,
10b5e,
134,
1156b,
105c0,
111c0,
10c36,
de0,
118e6,
11f06,
fbe,
28f2,
104e9,
14be,
16da,
3027,
ed7,
31a6,
33ff,
11c8c,
1ebe,
1080c,
12054,
1228c,
1441,
12719,
10503,
21,
22fb,
2fe4,
10375,
1fe0,
1e9e,
108f7,
24fe,
11a2,
27e7,
161b,
11653,
10375,
103ba,
3fc,
1040f,
10c67,
11a98,
28ea,
1c8,
173e,
1e7a,
3690,
21c8,
e4c,
25e0,
97f,
1a4d,
1cbd,
11580,
1d2c,
10367,
1047f,
1186e,
11368,
1212a,
10e07,
2bdf,
c3f,
1783,
10310,
b3,
11f04,
1ecb,
105a3,
13285,
12945,
11556,
10118,
10ace,
2412,
22a9,
242,
1c02,
2a60,
2f38,
325c,
1d00,
15fc,
101e5,
13ce3,
35f,
127ef,
119ed,
12a3,
10dbd,
16b8,
1074,
1052e,
1247d,
19f7,
13a40,
129dc,
110d1,
2af8,
1089c,
10bef,
82d,
1f08,
108e1,
10c0,
106e1,
2442,
238b,
10112,
3a57,
1577,
29df,
3d38,
2f8,
10692,
2ece,
106,
10f0a,
b4f,
112c5,
11bf9,
f,
11a76,
1022d,
11d52,
103e1,
88e,
12728,
11d0f,
d6c,
123ba,
12385,
1007f,
10712,
2076,
6bd,
bda,
193e,
10e65,
11c2e,
2567,
10cc5,
e7f,
82f,
11076,
86d,
1350,
23d,
12ff6,
10ae8,
1042f,
1113,
16c8,
734,
c80,
1669,
28a0,
96,
100e0,
2e60,
1f86,
2ce4,
1145c,
1269,
11b21,
1180a,
13218,
f60,
121,
104c4,
e45,
670,
8f7,
119af,
12536,
130ec,
1094a,
13592,
131eb,
1242e,
108a1,
238,
135f,
100a,
2180,
bf5,
2598,
118c8,
11cb9,
2f0,
2178,
1755,
1f73,
1fad,
b67,
1079f,
100e2,
563,
10a6e,
10d94,
450,
2300,
10cb0,
1122d,
13b18,
1eed,
10c5,
322,
2679,
3496,
416a,
13b72,
12066,
127b8,
a07,
284d,
1c5e,
11ae6,
11e6f,
376,
13b1a,
1254e,
13c7d,
11039,
2807,
10115,
2f14,
b86,
31b6,
15db,
1697,
12f65,
1c2d,
11ac3,
1c22,
58,
8ea,
1a99,
11d60,
1265e,
8bb,
17b4,
1a8b,
228,
386f,
3849,
10052,
37de,
827,
192c,
239f,
1018f,
561,
104ab,
10aa,
1997,
107f4,
1033b,
2b2f,
174e,
19d0,
1834,
12551,
10f33,
1964,
328,
109d0,
a5a,
10376,
11c05,
10cbd,
1c68,
114dd,
1214f,
15c7,
f4e,
12afc,
68,
d9a,
147,
13c40,
11ab8,
11ffb,
10d94,
10018,
124ec,
18fd,
1556,
120c1,
3738,
3b42,
12fd6,
310a,
18aa,
12459,
145d,
139cf,
132d0,
f61,
1218d,
120af,
1a84,
10805,
103b5,
1e80,
849,
11b89,
23ac,
15da,
1cc0,
21b5,
11a32,
112ec,
1009c,
1353,
94a,
1c70,
b5d,
7c2,
1823,
e28,
3171,
11a87,
1198d,
100e2,
14063,
11f25,
1000a,
142e8,
10e50,
2667,
120f0,
1146b,
141b,
106b0,
193b,
2662,
632,
1911,
3138,
188b,
2436,
111e,
13d6,
11a28,
118df,
1fba,
1074b,
11623,
10600,
830,
1e34,
737,
10734,
a65,
1cd5,
104b9,
2dc5,
2946,
2a1c,
751,
8ce,
104a4,
11040,
dd1,
12d53,
3ac,
18c3,
2f2,
11839,
95b,
1ac9,
11161,
a46,
11ee4,
13b7f,
113b9,
1af6,
11116,
ac1,
c39,
1d02,
2d2b,
150b,
107d5,
10fa5,
102ed,
11dae,
331,
12551,
1458a,
98c,
135b1,
10b28,
18fd,
1613,
91d,
ad4,
25d2,
22f4,
14cf,
11985,
109ca,
1223e,
1346e,
a87,
1291c,
120a1,
1b22,
96,
1b8,
22da,
