memory_initialization_radix=16;
memory_initialization_vector=
106f7,
10937,
1051b,
1099c,
125,
597,
10226,
10628,
861,
39,
104ed,
a3,
252,
3f3,
1070f,
a26,
104f5,
a6,
1086d,
10382,
879,
508,
86,
10421,
309,
106f5,
101fa,
46b,
10238,
1056d,
4d0,
aa3,
a24,
107ea,
488,
6ad,
ce,
c53,
10314,
42c,
533,
291,
879,
544,
1041b,
713,
2b5,
392,
10902,
1061c,
1028a,
2b4,
1c0,
389,
297,
366,
bd9,
59d,
10781,
486,
45a,
4bd,
10762,
50e,
1a,
10720,
102ec,
629,
4d,
1bc,
10698,
185,
7c0,
652,
10654,
10342,
8b4,
10259,
909,
655,
100c0,
103e9,
10642,
21,
138,
876,
1c9,
b3a,
aa3,
4a7,
342,
d35,
104ed,
10504,
105f1,
1029a,
109eb,
100f5,
bc1,
32,
100a2,
10797,
100dc,
e4a,
9b2,
8d2,
bb8,
10302,
7cf,
22d,
1031e,
4d,
108f0,
58d,
ff,
108f2,
34c,
98e,
103b4,
344,
632,
e3c,
828,
25d,
a97,
104d0,
1018e,
7ed,
107dc,
276,
275,
103ea,
103b5,
332,
303,
10c83,
94d,
4e3,
1039c,
e58,
b77,
102e4,
10701,
287,
100eb,
82d,
10471,
103e0,
10469,
10253,
c3a,
d8f,
358,
56,
424,
7de,
7f7,
1057f,
104a7,
71,
95d,
293,
10079,
100b0,
646,
e,
b26,
103c8,
594,
7de,
1ad,
10567,
728,
19d,
107ce,
108e2,
102de,
de,
1079a,
4eb,
bb7,
10341,
68b,
34f,
10126,
3c0,
39b,
1036f,
33b,
459,
100f8,
10320,
2fa,
596,
4e8,
5c3,
a55,
57c,
108e1,
10550,
