memory_initialization_radix=16;
memory_initialization_vector=
1067c,
1006c,
87b,
e8,
408,
1695,
11cef,
10e80,
998,
11ac,
10ee3,
ce8,
121e5,
fa5,
1039e,
11a7,
1378,
ab,
103af,
4f6,
10fe,
10edb,
10b37,
11196,
7be,
11043,
e93,
11e2,
b94,
b68,
104dc,
f8e,
f94,
106c,
10e65,
11d19,
11d11,
116d0,
10261,
18e7,
854,
10b31,
11d4e,
ed9,
407,
6ca,
7d3,
10c27,
c09,
133fa,
9c9,
106d6,
114df,
11283,
c1,
10421,
1191c,
11beb,
865,
1103e,
10281,
10819,
10708,
1185e,
3be,
119e9,
1be2,
1160c,
106ba,
f25,
f1a,
a30,
12138,
10feb,
11518,
116a4,
102bc,
2f,
4d3,
103a1,
10f10,
101db,
97d,
166e,
10714,
387,
5fd,
11276,
1100a,
10be9,
1085d,
f6b,
224,
12223,
ea9,
12ef,
105f3,
122c,
10466,
11903,
118f,
11ce8,
1cf,
11614,
1db,
597,
10f39,
11723,
f11,
16f9,
160d,
fec,
1057a,
13ab,
419,
1161c,
112fa,
a2d,
67a,
11106,
99,
1241,
107b0,
a23,
c69,
10886,
a0a,
1062b,
10f1a,
2fa,
944,
2c8,
10c17,
11820,
1068b,
10b0e,
10fa0,
edb,
d6f,
1053c,
12474,
11a82,
10620,
3ef,
c2e,
119a6,
100b,
11e2b,
1528,
10232,
116e,
171d,
1049f,
1512,
10559,
136f,
10468,
996,
10430,
4e7,
19,
10f66,
7d,
10cee,
15bb,
16c4,
10690,
10a99,
d29,
11514,
16d9,
10824,
b9a,
106dd,
10e79,
614,
10e79,
400,
ba7,
1100f,
11d0,
10dfd,
111ea,
10218,
1111d,
b3d,
a78,
10614,
116be,
944,
1084a,
105a5,
10eb,
1026,
1381,
11d93,
118f,
113e7,
762,
6e,
1af3,
10837,
118e9,
52,
8c2,
11ef3,
10243,
11087,
1815,
113c0,
632,
102f5,
10b,
10f1f,
10259,
2d0,
141d,
76a,
10834,
10402,
11b4,
10620,
106e1,
4ca,
103a9,
11354,
10447,
7b9,
102de,
10f10,
1003d,
11197,
c13,
121c6,
baa,
447,
dbd,
14e7,
31c,
782,
10f03,
a12,
16d4,
1157e,
4e8,
398,
15f7,
12164,
98d,
10f78,
b2,
b52,
10c9e,
81a,
de5,
12c0,
50f,
def,
111c9,
912,
126b,
12838,
10b3f,
14cb,
10b54,
127d,
313,
c81,
12204,
161f,
93a,
86f,
10f09,
13a5,
1174a,
91a,
16a4,
94c,
10ebc,
17e6,
11918,
11079,
12797,
110e0,
12008,
e1b,
1063d,
b9a,
321,
4bc,
1183b,
10344,
100b9,
10779,
12674,
1162a,
118c2,
11e47,
1007d,
1127,
10eac,
12cb8,
102fa,
fae,
177e,
10fc4,
1035f,
861,
558,
10561,
10c8e,
8bc,
11ae8,
ada,
9f0,
12138,
ef7,
3246,
11b64,
11570,
17c6,
150e,
102a,
10d38,
113bb,
11be,
36a,
3005,
10a5b,
ef9,
11960,
107ab,
111b0,
15bb,
10d20,
10e71,
11c0,
125c0,
1066f,
1880,
11dfc,
10437,
11e73,
12172,
f0b,
11b11,
2c2,
100af,
10568,
117c8,
1e4,
3ee,
120e2,
2007,
56b,
115f1,
d03,
1020b,
1b58,
11da2,
1548,
10ea8,
263,
18db,
10006,
bd7,
94a,
1208a,
25a,
373,
10b52,
1011c,
1022c,
491,
ec6,
10be4,
11621,
4f3,
b9f,
101bd,
105ba,
c91,
f6f,
83f,
fd5,
edb,
9b,
10c59,
e7a,
11f70,
b95,
10903,
576,
1230b,
10bb4,
10748,
bf,
11c6f,
8c6,
23d,
68f,
10bb6,
1858,
110d8,
10931,
10f96,
12868,
107e6,
176d,
af8,
105c6,
107ca,
17f4,
d7e,
1423,
12b,
1094,
100,
112ad,
5de,
10e21,
138e,
ce9,
11578,
1051b,
11789,
908,
16c3,
1032,
1891,
1104d,
cfa,
12081,
10b5e,
10e21,
10287,
65e,
be2,
104e0,
1a1b,
1046b,
1253c,
136f6,
11b7c,
1055c,
10405,
9b5,
118bf,
cb1,
107a6,
cdb,
10eb3,
1e66,
bef,
bbe,
28d,
c0f,
11544,
1124c,
b30,
cd9,
12a0c,
10f5b,
dfc,
11241,
129bd,
101d7,
4b7,
11588,
256b,
f9,
8fe,
10992,
ad6,
131e2,
ae4,
10519,
16cc,
98c,
1515,
178c,
12c9,
1075c,
100a9,
10f53,
15c7,
111ee,
10cd7,
7ed,
113b3,
bc0,
10198,
11038,
a72,
10bd1,
386,
107e5,
1356,
134e,
10c63,
12cb,
18c,
14f5,
1687,
114fc,
10c49,
99f,
1173,
13d1,
1d7d,
13a4,
2a4,
b55,
e10,
10222,
1058d,
1149b,
126ad,
d4,
125eb,
11078,
1115b,
11254,
122a8,
10984,
10875,
a63,
12884,
9f7,
12cf9,
11993,
76d,
118d3,
11958,
10f91,
10f78,
11153,
10953,
a20,
1177c,
caa,
108c5,
63e,
111a,
400,
10ba8,
10b3e,
886,
d08,
11386,
109e9,
10981,
103b3,
11c29,
1007a,
11d5,
e71,
10e52,
10b3d,
10fb4,
1b3d,
1073c,
111c,
372,
104f3,
10b89,
11d40,
10f72,
bf0,
ed6,
feb,
881,
11a6f,
119d4,
10f74,
10c55,
1645,
1c1c,
142,
1143f,
cf1,
a25,
10d6d,
c52,
15ef,
10680,
10b35,
a5c,
1cb,
10f1d,
995,
10468,
81f,
1006f,
10d93,
13d7,
114f0,
10a23,
10891,
1029,
17d5,
1074c,
1286,
1066b,
105bc,
10c7c,
e1d,
10927,
11218,
109b9,
102e8,
10b82,
10c29,
2f2,
bec,
6f5,
245,
1ea,
10225,
ae1,
11665,
11d47,
196b,
44,
1283,
1013f,
119e0,
12213,
127,
867,
10842,
10944,
18f9,
1307,
bc3,
12b6,
10f61,
103e7,
101b7,
1e2,
e8d,
6a6,
11915,
104ea,
319,
2779,
1abe,
10291,
683,
1587,
1089b,
be0,
1227c,
1113e,
95e,
2ba,
1179c,
492,
1611,
6f7,
fb2,
161,
9f7,
10b9,
11947,
100a,
c3e,
11617,
1218b,
11d70,
2aa,
1270e,
1102f,
16f5,
191d,
10345,
523,
21d,
6a,
1106,
1004e,
121f,
5e9,
2cc,
1ef,
11ae0,
2c1,
11318,
11632,
429,
113e4,
11291,
11030,
10489,
1e08,
7ae,
16a8,
11151,
11ae4,
12316,
604,
132e,
ffb,
10d11,
124f4,
976,
12beb,
1894,
11415,
11d6,
7e7,
1100e,
7e0,
854,
11fa,
24c,
1513,
11c90,
1537,
114c2,
3c1,
12e1d,
5c,
10dd5,
11292,
1003a,
dd1,
115f1,
10582,
5f2,
10221,
916,
ca5,
acf,
1009a,
1210,
116e7,
1058d,
10749,
11aee,
11c00,
12c99,
631,
11901,
1184c,
110d8,
419,
d40,
10511,
379,
10c4e,
11d11,
b10,
12267,
12ed,
a03,
116ec,
10ba7,
128f,
76a,
1152e,
2b,
1f1,
132e,
976,
1221,
dfb,
11688,
1016a,
126ac,
517,
1064,
109e2,
7b4,
183f,
1964,
10a17,
d6,
f4e,
1043b,
11591,
e7e,
1006c,
10a16,
4b3,
6f9,
727,
147a,
12b5,
1fc,
f46,
21f,
11c40,
1196,
1533,
37d,
11554,
f0a,
1091e,
12dc,
10c4a,
107ea,
109b,
9ff,
11ba9,
11170,
10690,
ead,
16e5,
100ea,
1013e,
1203,
1230b,
112b9,
117be,
10e81,
bd3,
11b2,
10ec9,
1093b,
b65,
1335,
11ad2,
1ade,
4ae,
117d,
bdb,
e4f,
10fc8,
11f33,
10756,
1112c,
12b26,
1169,
1119d,
112b3,
1043f,
2c2,
10ab9,
1e75,
272,
11ce3,
18ed,
116b7,
10ad2,
140c,
10a9b,
11436,
107f6,
11065,
a0a,
10aba,
100d,
10fc3,
11c6b,
1546,
3cf,
707,
d51,
10692,
11cdd,
102c2,
a71,
13ef,
10474,
c38,
12001,
10ab8,
1079a,
11b62,
1b,
c67,
204,
19c,
17e7,
10f9b,
799,
10940,
11302,
23c,
492,
10866,
11739,
116cc,
1305,
2ae,
11401,
1676,
7f9,
1071e,
af1,
118a1,
10527,
108e,
10bbd,
15fe,
11e2,
10454,
10f38,
6c1,
11278,
65e,
12049,
12f62,
1056a,
121ce,
1024d,
102ba,
100c6,
12cba,
b0f,
1010d,
122e6,
569,
9e0,
1337,
10b88,
11a4d,
1091d,
17ac,
470,
1228b,
10c4c,
10345,
b1b,
11018,
10950,
2172,
10074,
13cd7,
ae0,
3d7,
10d3b,
1117e,
30e,
1046c,
1180,
10c45,
11e37,
18e0,
10bd8,
1397,
106d6,
1390,
106f9,
101d,
24,
1a0e,
1ba0,
10e95,
1023c,
345,
10f2f,
11a3b,
3bb,
11398,
864,
180,
10d83,
14a4,
43,
10c63,
10b99,
108ef,
12fae,
1c8a,
116b,
1041,
11200,
afc,
10b66,
101cb,
18e6,
f16,
129a3,
114e9,
d22,
10fbd,
8f0,
185d,
18d0,
1041d,
419,
5cb,
1a0c,
35c,
10d38,
119b0,
12027,
ad0,
10e20,
28a,
109ba,
12df,
11893,
152b,
2f4,
11b5e,
2fd,
17b7,
1504,
892,
112e9,
105f,
353,
10435,
cd1,
10e90,
11413,
d4c,
104ac,
19c,
bd9,
2bb,
113e6,
1665,
11fe8,
126bd,
107b5,
1119f,
108b8,
110a5,
10cce,
10ea7,
1468,
107f2,
10ec0,
11cc6,
9b6,
717,
37a,
1027e,
7c2,
c0f,
54c,
104e1,
c4c,
1834,
86b,
12363,
1008a,
1345,
2979,
4b,
10d49,
121a5,
12014,
221,
c8d,
106ef,
10342,
bbb,
1361,
1a3,
10907,
e26,
8ee,
10e64,
64e,
101b3,
10c63,
195a,
106b7,
10389,
1d03,
10842,
10acd,
52c,
c2a,
409,
b6,
529,
12e3e,
122ab,
10b68,
954,
13ce,
18c1,
106ff,
105ba,
108af,
e0d,
1767,
1109c,
18f2,
10aa2,
106fa,
11b9,
10818,
12111,
115b3,
10bd9,
c6f,
123f,
11293,
1109c,
ac0,
11918,
519,
eda,
818,
f4b,
595,
794,
150b,
1313,
10cf1,
451,
b77,
101f4,
11636,
1029f,
105d7,
107d8,
12baf,
11195,
d6,
d4e,
10de5,
1721,
bd2,
11649,
1950,
1215,
171b,
107f2,
1080c,
10f61,
5a9,
f42,
da0,
83,
2e3,
1466,
10536,
10c40,
10a98,
111f4,
b72,
11583,
111ab,
11b33,
106de,
fda,
134b,
c45,
104f9,
ebf,
10d74,
18fc,
15a5,
113d8,
11f0b,
105c0,
11763,
27,
d6c,
e4f,
372,
10943,
12487,
13c,
c30,
4d7,
2c1,
11e50,
1234a,
1256,
10455,
5ec,
11b36,
e05,
5a8,
894,
1914,
10e0c,
10ae9,
10fa9,
4b6,
112ff,
31,
b5f,
c45,
10a3a,
3b0,
5d2,
1061f,
164f,
afb,
103c6,
112a1,
10d0c,
5bf,
160,
5d5,
e8e,
1866,
11091,
2b0,
133d,
ee8,
229,
11b0b,
cb1,
bfe,
10261,
11ac2,
320,
11b7b,
10e5,
11044,
1034d,
103f1,
117a5,
22b,
1534,
12c1a,
10a90,
8da,
45,
188c,
1fa,
11d12,
c53,
120c4,
11a88,
1753,
a14,
10254,
10387,
6be,
10bd3,
358,
49d,
1030a,
11b89,
1120e,
173a,
10451,
10664,
1032b,
10036,
11212,
dc6,
10f7c,
1276,
aac,
cef,
c4d,
86b,
105d5,
141,
100c4,
f08,
10abc,
122aa,
170,
1009f,
12148,
1628,
1052c,
11428,
6cc,
457,
12f6,
11d7e,
10058,
11d3d,
1736,
11c5e,
10bb2,
d02,
211d,
af,
11a11,
1191f,
116b,
10d10,
11609,
116b9,
678,
1164f,
104f5,
1060,
180d,
16f6,
100df,
188a,
120e8,
d24,
a4b,
12156,
a00,
10938,
e2d,
1496,
10d03,
10990,
11b,
859,
6e4,
10923,
1053b,
2184,
acc,
1059b,
1962,
1133d,
11702,
11215,
10c13,
e58,
107de,
9b0,
12489,
a07,
11b0d,
6bc,
18ee,
1100c,
1179,
fd6,
203,
1489,
10bb4,
a11,
10132,
11736,
10a2a,
107f6,
603,
be7,
11781,
b96,
1063b,
120c9,
11716,
11899,
120c,
1b9b,
11bd6,
12092,
1227d,
102a2,
1146,
b45,
1a1,
8b5,
1044,
5c4,
1038f,
118f,
13c1,
92,
1168,
b67,
120a9,
10ee4,
11b65,
12464,
11b2d,
1013a,
285,
1112f,
10ae0,
1294d,
c80,
17f7,
95,
ea3,
b81,
1222a,
394,
8a7,
15ac,
10a8,
10dc0,
dab,
101f,
b12,
8fa,
10e26,
1058b,
10d38,
6cd,
104e7,
1134c,
1827,
2b7,
1b4d,
10d08,
1108a,
1335,
1425,
1557,
10f8e,
8c3,
1811,
103b3,
12377,
1565,
bd0,
eae,
10b92,
11f03,
2d2,
12b79,
101c7,
dd3,
1b78,
102a8,
100a4,
e0e,
109c7,
96e,
10b58,
19bb,
b84,
b2e,
10880,
109f2,
119e3,
10f91,
11a36,
172b,
ea9,
130cb,
1016d,
10977,
14c5,
110a7,
11f7e,
12719,
11198,
108f4,
5dc,
10dec,
172,
30c,
122c8,
10fd7,
10391,
10d65,
2914,
102fb,
10a9,
108f,
b9d,
10380,
3071,
627,
10384,
105bf,
11591,
10b94,
cff,
10fbb,
11712,
15e6,
1175c,
1054b,
117aa,
1025c,
f2a,
1200c,
1c7,
115ae,
1022e,
122d6,
1b02,
109bd,
1212f,
11f7,
8e2,
11048,
2c5,
1c6,
11d90,
1294f,
114e3,
c06,
f03,
1038,
10c7d,
11143,
135e,
10347,
a77,
11c58,
3da,
10048,
18d3,
10004,
10e7f,
11983,
12917,
11154,
9f8,
770,
1131,
1b3,
115a6,
12d4,
18c4,
11a8,
6df,
11df3,
1171e,
10f52,
10d64,
d4b,
10384,
11234,
136d,
5c8,
fa7,
14ce,
327a,
105d5,
1a7a,
111e2,
11042,
1069,
1095d,
1a35,
10599,
10aba,
12e6,
110fd,
69c,
15ac,
10c7c,
1704,
11015,
e10,
a24,
116c,
12377,
102b2,
11778,
e9e,
108e,
1164,
c57,
289d,
114a8,
10cf3,
eee,
4b6,
10632,
112da,
1415,
10595,
1677,
11350,
1040f,
139b,
83d,
17df,
1255,
1025f,
10232,
114e8,
1e3e,
4e7,
10b5a,
102d1,
10d6c,
11192,
11f1d,
107ff,
b0f,
52d,
4,
11fa3,
aa8,
633,
c04,
151,
1140f,
882,
44d,
998,
107cd,
7ec,
109a9,
101dc,
b71,
154c,
10be7,
10afd,
f45,
11d67,
11c1f,
10ea6,
e58,
1118b,
11447,
10ca7,
277,
115ef,
10e04,
11a8,
1088b,
fb5,
445,
1699,
10a42,
113e5,
10a45,
1db,
11f5e,
12f4,
12a5,
5d2,
b09,
108eb,
491,
10fdf,
1039,
dd8,
10096,
127,
9fb,
12ab4,
1901,
140a,
15ef,
dce,
4f8,
1059b,
524,
76b,
10623,
1180,
10245,
10968,
1bbc,
7ec,
10d94,
10197,
1039,
10a3e,
e4a,
10ae1,
11a68,
1314b,
b4,
10028,
e9a,
112de,
150,
12dde,
10b73,
807,
a0f,
702,
1035c,
10c95,
1108a,
92f,
776,
a37,
10fbc,
108c,
11dac,
18d1,
647,
16cc,
7af,
24e,
878,
baf,
103d3,
1471,
12de,
136b,
114e4,
165f,
1fd,
cce,
836,
ce8,
870,
67,
11cb0,
1379,
14dc,
1829,
105e9,
bb1,
712,
557,
1105b,
10631,
1295c,
1526,
6a3,
18b,
105d4,
8ea,
77f,
1dd,
1162d,
11270,
1091,
38d,
1d5,
10e35,
847,
b,
10ea7,
453,
11070,
5a4,
1162,
10771,
1218f,
4ea,
d4a,
13216,
1b77,
8d,
96e,
109fb,
10590,
1111d,
136ab,
10108,
11972,
111fd,
107ef,
10896,
1081c,
5b6,
10105,
104dc,
1307,
15e9,
dae,
25b3,
1243f,
25a,
e38,
13123,
1038,
32d,
11ce1,
12f77,
1089a,
103ed,
1419,
f79,
11a9e,
114aa,
b07,
11370,
10f54,
366,
12d6,
109e2,
10744,
1001b,
11dd9,
1d,
c94,
1521,
11ffa,
470,
839,
11248,
1190c,
11d52,
10b4c,
10fa4,
11837,
895,
11fb9,
e2f,
b6,
1143,
c44,
e0e,
10cd9,
dd0,
10ebe,
97f,
10293,
b6a,
10e1f,
11263,
565,
11051,
1052,
115c8,
434,
10a24,
dce,
11189,
d5b,
10f49,
107e1,
1799,
62e,
bf1,
c64,
134a,
10424,
10c43,
105e,
101d5,
7b8,
120dc,
88a,
43d,
117f5,
1125c,
10f47,
109a3,
10b97,
1206b,
113f7,
a0,
7b6,
14b0,
60d,
aa1,
1086e,
129a,
1fd,
10a52,
11559,
116fc,
4a,
116a3,
14f6,
767,
112a0,
1006b,
134d,
397,
17f0,
1011f,
12146,
40f,
11c01,
1736,
ccd,
101f3,
123c8,
10ac4,
10414,
e28,
ffd,
43c,
1023b,
10e6f,
38c,
1520,
10f6a,
106ff,
2000,
b5a,
12cd6,
15f5,
1273,
1e9b,
88e,
f01,
12ee9,
ae0,
b41,
fe6,
1083a,
10e6,
a4d,
115df,
3ae,
141c,
108f2,
43a,
10dd1,
176e,
12a4,
2b0,
11b63,
10df3,
11ae8,
10c9,
165c,
118d,
26e,
10762,
b0a,
e4a,
19ad,
102a2,
17a9,
136c,
10375,
118d4,
1804,
12c43,
1235e,
9a5,
10055,
d29,
674,
10093,
113fe,
1bd,
ee9,
102c4,
125c7,
1005d,
131e,
b03,
12b62,
11691,
10eef,
23dc,
1698,
148c,
3e6,
1107e,
10267,
501,
ef4,
10f1e,
26f,
1121,
10c75,
1114b,
11716,
10f88,
10755,
10d7,
12dc,
1155d,
1332,
fce,
108af,
f75,
13a3,
10783,
10a36,
1115b,
129e,
113d5,
11987,
1112d,
7bb,
1698,
d9b,
fbe,
10791,
1006c,
10979,
117f9,
156e,
20d4,
aae,
10d78,
10f0b,
d99,
10010,
1bc8,
ead,
110de,
102e8,
107ba,
1734,
10246,
6c9,
1099e,
2e2,
10fc6,
8cc,
10912,
10470,
11304,
721,
102e3,
dd0,
10693,
102b2,
78f,
10356,
10fb5,
10642,
86a,
27a,
10428,
1001c,
e5d,
bfa,
10730,
364,
10286,
128b,
