memory_initialization_radix=16;
memory_initialization_vector=
110c,
1093e,
1176d,
118b6,
1936,
11429,
7e1,
10c54,
10bf8,
12091,
11566,
1d39,
11dc6,
f99,
10af0,
123c,
d44,
21d,
119b7,
212e,
110cc,
116c3,
12312,
6bc,
c9,
11482,
2155,
11eb2,
11e96,
7ba,
b0b,
10437,
10a4d,
c9d,
a58,
c8b,
2180,
11259,
b2c,
10a58,
10e23,
10eb7,
100c6,
828,
119e7,
a1c,
11648,
10eb9,
163f,
10df8,
10b39,
1086,
10b2d,
5ff,
1085e,
131de,
40c,
114f5,
530,
10d63,
12302,
10f30,
408,
baa,
d50,
770,
e0d,
27a,
110fb,
59e,
834,
113a4,
da5,
761,
12b98,
1163,
10034,
102d9,
621,
d67,
12ad,
ffc,
1c53,
105d0,
104c8,
1203,
6ae,
10a05,
8d9,
10403,
108da,
1034a,
10f69,
10260,
112f9,
11219,
1150d,
1148d,
1520,
ddf,
120bb,
11e9c,
104,
11be8,
12fa,
109d4,
10ab9,
14ce,
1119c,
9b8,
11173,
11eff,
10d76,
1e16,
10529,
345,
1de3,
c56,
109de,
7ec,
195d,
111c7,
1e89,
12283,
1083f,
2c4,
d35,
113e,
1080c,
10567,
cbf,
108b5,
8d8,
1566,
624,
1200b,
14f0,
dfb,
10134,
1464,
d5f,
c0a,
d03,
27a,
11361,
14de,
e7f,
1256b,
1677,
15e8,
ad7,
114c2,
e37,
1380,
4e2,
3f0,
109d2,
11174,
1069,
11e19,
10f5d,
16de,
64b,
f36,
120dd,
c16,
10405,
c6a,
e70,
123f1,
113c0,
11c12,
1a2a,
18ef,
10a35,
1104e,
662,
602,
d4e,
10ec0,
16e6,
10636,
10aef,
11bf7,
c67,
1089a,
10924,
10212,
11e7d,
116b5,
10d29,
5cf,
10eac,
11f2e,
11b8f,
3bf,
11504,
1172a,
10b80,
1028e,
11391,
2c5,
e11,
10d5a,
114ea,
a3f,
11177,
12403,
10fb1,
103e2,
1da6,
3b4,
109a9,
118d3,
50f,
711,
15ff,
119c,
bc2,
100b1,
1120c,
37b,
10968,
1af,
10e64,
117ed,
f96,
1d3f,
1cc1,
114e3,
1158f,
115af,
786,
11d5e,
10ce4,
13ad,
1e2e,
10662,
929,
110b4,
114ff,
10d46,
f07,
1fa7,
992,
104e4,
108ab,
1644,
19b,
1094e,
19b2,
1134,
11974,
1033a,
118df,
16b5,
1396,
10e6f,
10103,
317,
10fde,
10637,
185a,
10b72,
156b,
10866,
110,
1211f,
5af,
122ae,
b40,
10978,
1186c,
1dba,
2aa,
f52,
11903,
10208,
10c7a,
a71,
10dd3,
612,
118e,
8d9,
c8f,
12e8,
551,
180,
1073b,
d74,
cc9,
109a7,
10d2f,
108fd,
10003,
d27,
117a0,
112e1,
11c02,
5ac,
762,
1011,
1500,
2cb,
10180,
105cc,
10cd5,
12363,
c62,
88f,
10bb0,
1103,
10ee0,
1004a,
109a7,
11040,
1337,
10e75,
249a,
15c,
1270,
11067,
1f99,
1517,
122a9,
10d20,
6e7,
249f,
a33,
8ae,
11a69,
2c4,
81a,
1013e,
11daf,
1213a,
5c0,
1097a,
11290,
1126b,
10f36,
11b20,
230,
a6b,
1214,
11d6c,
fbe,
107cc,
117fb,
1565,
a1,
14ff,
11069,
116c7,
6a0,
1c25,
10247,
cd9,
188e,
48d,
10317,
83f,
11b6b,
14ff,
eee,
100b4,
10295,
16d5,
118d9,
12a6,
cde,
1706,
10888,
10527,
1022f,
10a4c,
11e15,
10f43,
10a4f,
168f,
6e0,
c44,
12390,
737,
10fcb,
1193f,
1007c,
468,
5aa,
3dd,
11814,
10ba,
10542,
1a58,
10aaa,
10845,
11378,
2061,
10988,
11849,
5df,
103b6,
10ecc,
faa,
11666,
1abe,
11330,
11373,
c4a,
2f7,
1285a,
11654,
ff4,
107be,
110a4,
17b7,
108bb,
103f3,
f3c,
11e8e,
1152c,
3be,
12f4,
101c9,
1b37,
b4e,
1f29,
12a34,
ec4,
11dea,
10597,
586,
8ce,
366,
1062,
101ec,
1573,
1c66,
10742,
deb,
11af,
d9,
503,
131f2,
1bc7,
1041e,
110ff,
1ba7,
991,
fb1,
121b2,
c20,
1187d,
2114,
10d89,
133f5,
100e,
11ef5,
3cd,
1435,
10c56,
d29,
f31,
62b,
10113,
13e9,
b83,
2b6,
12758,
1047b,
10195,
11ce6,
32c,
12ff1,
101de,
69d,
11148,
1d50,
3c0,
958,
e4e,
20d,
199f,
11d5,
14ff,
1491,
d2a,
106af,
11f38,
1052,
17fa,
1121b,
505,
10c94,
1007b,
1835,
b66,
1057,
9a8,
14521,
11dbc,
10d5a,
13b3,
8d7,
10f49,
11dff,
108d0,
10e2b,
11a74,
cec,
d3d,
1102,
1716,
12024,
118fc,
11a,
179e,
1bb9,
1923,
1029b,
1261b,
143f,
11533,
5e8,
10ec8,
10d81,
11153,
12deb,
102bb,
125e3,
103e6,
10e19,
12294,
1426,
479,
11a97,
10405,
11cb7,
10a34,
110fe,
10a12,
6a1,
10ee6,
6fe,
1189d,
122e,
17b4,
10ca5,
f54,
c46,
1929,
10f10,
10754,
1b6a,
c48,
11ec8,
10590,
2023,
10e01,
11f89,
3a5,
10087,
58e,
1205,
101b7,
80c,
1094,
10508,
ab5,
112a,
19,
770,
10483,
13fc,
5a1,
105b9,
101f8,
10eec,
11cfc,
100e3,
ed0,
5d3,
1127f,
123ed,
1a2,
11e58,
122d,
123a0,
de5,
115f8,
10394,
11803,
10962,
1ad0,
65a,
1265e,
1398,
11475,
10bea,
189b,
1197,
ec3,
12809,
855,
109f6,
10411,
9ea,
c17,
10390,
1236d,
1239c,
a71,
db5,
1594,
107f0,
52e,
b73,
1441,
11414,
12b30,
11b43,
18e6,
1188,
3c4,
112d1,
3ed,
11784,
136ed,
15b5,
105dc,
11c53,
186,
10462,
11baa,
10529,
11751,
1015b,
362,
10358,
1112d,
1101d,
11825,
f2c,
370,
12182,
f36,
1ae7,
10712,
11e61,
1992,
4bb,
10041,
a1b,
122aa,
11eaf,
14a5,
1323f,
cdb,
a4f,
e51,
12f0,
b71,
6ae,
11386,
c34,
5e2,
106f1,
1050,
1b70,
10a55,
34,
10d6d,
1283,
10606,
1216a,
1289b,
111d7,
b3,
10131,
fa6,
487,
263,
1109b,
d59,
10e01,
1030f,
123a0,
1096,
11247,
c51,
10199,
14df,
10278,
10267,
112e9,
16c5,
1019e,
be3,
2ce,
123d8,
10006,
e0c,
150f,
112cc,
10d2b,
11ca,
9cc,
d39,
10643,
3f7,
1084,
af6,
10d11,
3f6,
11fa7,
1116d,
11a3b,
119d7,
13334,
1069d,
120c7,
72,
14e3,
37,
ab3,
10839,
ddc,
10803,
10c44,
10128,
949,
da3,
100ed,
10763,
9cf,
1c46,
fed,
11e35,
107f8,
178f,
12d2,
10883,
12b5,
2b7,
12767,
d8b,
37c,
14d6,
1139b,
119c8,
1132b,
106ca,
beb,
a2e,
109d7,
12c2f,
ed2,
1290b,
1c0,
11313,
db9,
1181d,
100d,
10eab,
1000d,
f55,
10cf4,
10402,
1044a,
1033e,
a27,
1617,
1967,
121c,
b9f,
10419,
c56,
10beb,
107f3,
70f,
aaf,
10633,
11c,
245f,
1176,
13b3,
786,
1117f,
100b7,
10ce9,
1078,
106a,
15fd,
10a14,
8ac,
115e7,
11000,
ab6,
10e05,
100ba,
12175,
f2f,
a39,
11f9f,
10428,
aa0,
1af,
100d5,
10949,
4d5,
11a0e,
11449,
10b1d,
12232,
c65,
6a0,
1178d,
10c02,
10c73,
1380a,
111c9,
10cb0,
11429,
10af7,
1312,
107e1,
11cd2,
1acf,
9e7,
946,
12c1,
132a,
12831,
2de,
105f6,
10e4b,
11bc8,
12a58,
34b,
141b,
b67,
fd1,
10024,
1d3c,
19e9,
10e7c,
112e2,
267,
11485,
1131f,
138d,
121ef,
633,
2125,
fcd,
10db,
1aef,
1248,
10ef0,
11264,
11428,
1098a,
116e,
7cb,
11198,
11582,
e18,
10ecf,
12804,
fb0,
103dd,
bf2,
178d,
109f0,
170a,
772,
10376,
262,
73c,
12742,
5e3,
3a5,
11b79,
10eea,
f04,
11b7,
1294a,
dc7,
10c64,
bc2,
11af0,
10ec5,
10160,
109b2,
1033,
11e5a,
1dc4,
1729,
10409,
c4d,
10fbd,
9fe,
10e2c,
bad,
1641,
11350,
109c5,
1096e,
fce,
10fcd,
11822,
287,
105c,
106bb,
100d7,
10710,
11182,
fa0,
268c,
10ba6,
bf7,
87,
12412,
1d06,
186b,
11238,
10c70,
11670,
20e,
2041,
67f,
10609,
128a,
10056,
1a8f,
10d49,
115c3,
ad4,
10259,
10830,
1048e,
1164,
105d4,
57a,
307,
10454,
13828,
1000f,
1226b,
10966,
848,
c59,
12026,
11506,
d14,
1ec5,
d3c,
16b5,
10967,
10d61,
19c5,
25d,
12ff,
aad,
88e,
11e5c,
1266a,
1a2d,
4e6,
1214b,
11a32,
1010d,
120f6,
11d25,
417,
6ed,
1231b,
b24,
3ef,
1097f,
160f,
10913,
10048,
1cff,
edd,
13aa,
10bb6,
19a5,
119a2,
11d8,
10c92,
1125d,
117c8,
1f8,
1bbe,
1105a,
e7f,
11150,
10df3,
11500,
26c,
c67,
178e,
110dc,
87c,
141c,
103ed,
119a6,
1052e,
11067,
1235e,
126b,
975,
512,
1097f,
ae3,
135d,
10fca,
10d5c,
10c28,
18c2,
6ae,
106bf,
103bf,
122fc,
195f,
11978,
1156,
520,
b48,
123d,
bf9,
1152,
5bf,
129f,
10052,
12749,
1153c,
10074,
11483,
107d3,
101de,
c16,
886,
a99,
267,
10a9f,
120cc,
107e,
1037f,
bd2,
122c,
11ac,
1fee,
472,
19f3,
11a73,
10774,
60b,
704,
101da,
834,
13219,
1250,
11a7c,
44a,
323,
4e8,
1e0c,
100fd,
9d8,
106cd,
105b0,
1929,
7ee,
cfc,
fd2,
1204c,
67b,
1269d,
7a1,
11d5b,
1cad,
10553,
12d4f,
11a9c,
969,
13349,
109e,
116d1,
1162b,
d41,
10f0c,
10e00,
fc4,
1056a,
1139a,
116c1,
1005e,
10954,
a09,
152a,
58e,
108f2,
11e4d,
1066b,
10c85,
100a5,
11dd,
4ce,
102d7,
7d0,
abf,
116cd,
10c8e,
10294,
127,
b9c,
1f7,
e9c,
1135b,
1196f,
1048c,
b24,
108de,
203,
975,
11c66,
47d,
12c57,
b8a,
399,
1350,
125c,
108ee,
db1,
488,
2dd,
11b89,
111e3,
10521,
112ef,
12b8a,
101a6,
131a,
111df,
10748,
160b,
100ed,
10f9a,
7f4,
114ad,
695,
10542,
162a,
10180,
11343,
108a4,
178d,
116b6,
f10,
109c8,
19af,
12291,
120a,
245,
122e4,
1024b,
1203f,
10f51,
1b80,
19d6,
10220,
113bd,
10cf2,
10add,
101f,
fdd,
1771,
11672,
11e1f,
1041d,
113c5,
12008,
155f,
1012,
10f28,
1216,
101c7,
b4a,
fe8,
529,
10c53,
124d1,
1110d,
194f,
125c,
147e,
eeb,
17ed,
106e0,
1041e,
10caa,
1121b,
11020,
213a,
105d2,
10d32,
10404,
1cb4,
1a3b,
1093b,
c6b,
1126a,
10b35,
1190,
1540,
105d6,
131c4,
10f31,
1975,
1034b,
11975,
6ad,
1282f,
10da5,
1272b,
104c1,
114cc,
bba,
50e,
10ed,
353,
8f3,
100e3,
445,
10102,
cd1,
10b3f,
12127,
17b4,
13271,
10482,
1581,
10843,
10dc5,
121eb,
11f60,
88c,
afa,
103e2,
1316,
10333,
831,
110,
1105d,
12bc6,
119be,
108be,
581,
10049,
11313,
ab0,
e0e,
bbe,
11df4,
466,
13c0,
131f,
12be,
7d0,
16a2,
7b2,
11776,
10b95,
10a2f,
146f,
125c5,
100c1,
11c9e,
464,
1218a,
10be9,
14fe,
4f8,
12b54,
1362,
176,
a1a,
1219,
1794,
1192e,
3d0,
10f7e,
13f,
11a89,
7b3,
10586,
11b7c,
11856,
118d2,
10432,
12126,
119a,
1104d,
1352,
36f,
868,
11b05,
fe4,
1054d,
12edb,
11695,
14d4,
17e3,
1077e,
10433,
680,
11595,
102e6,
f1e,
1126,
1bf2,
10dc4,
690,
386,
d60,
1dff,
4eb,
11d06,
f0e,
cbe,
6bd,
11387,
1197c,
11afc,
1493,
102e0,
10afe,
1190d,
10af8,
b77,
100ae,
73c,
1e15,
d66,
12a95,
1174a,
497,
15c7,
656,
d8b,
11b34,
8d6,
bd,
63f,
10754,
186d,
11842,
10ef5,
1167,
1940,
122,
11005,
10102,
206,
1bd9,
18cf,
dc3,
1043a,
10730,
12291,
7af,
1166b,
21c,
10b9d,
10803,
111b9,
9d2,
1550,
117e3,
e9f,
11de3,
1236c,
11d14,
10363,
1815,
1c31,
124f8,
11e03,
1296,
13c4,
116ba,
1175,
a09,
11d4,
8a4,
116b6,
ed1,
7ed,
990,
c31,
1031e,
165f,
13d0,
109b3,
10552,
c9d,
9d4,
a9b,
118d6,
940,
10ca5,
dd1,
10d29,
15b9,
10f49,
11a7c,
3a4,
10299,
e72,
115a2,
fdd,
108de,
772,
5f8,
1583,
11a27,
bae,
119c8,
c87,
11a12,
b00,
11f4f,
11c77,
13518,
1d10,
1a0a,
131,
10000,
1044e,
1837,
10803,
21c0,
1120c,
1006f,
e06,
1ba7,
11a4d,
544,
166a,
10792,
10f6e,
10dc1,
10f4,
1193e,
12527,
88f,
bd5,
103be,
10780,
110fe,
1379,
d1c,
11d43,
1105b,
141,
11df5,
107a4,
1033d,
13d,
dce,
11a95,
1959,
10b3,
1a04,
11dd7,
1645,
428,
108a2,
120cf,
130a,
1cc,
11058,
bc8,
15ef,
110da,
1bf2,
1be8,
e79,
11a58,
ae2,
10606,
61b,
112bf,
1033f,
11575,
1074a,
10908,
124b7,
2bc,
1962,
13b4,
11349,
1345,
74d,
ede,
ece,
1378,
1105d,
11584,
100d,
126d4,
12d1a,
11482,
11039,
18d,
12025,
105cc,
10095,
1275f,
ada,
128b0,
d09,
4dd,
10707,
1040a,
15a0,
10e0d,
13006,
105db,
ab6,
10f36,
111fa,
de8,
10e1f,
1182a,
1727,
1459,
5c1,
ea9,
10a02,
1745,
7ab,
111e3,
11538,
1c36,
1645,
11721,
1506,
12b9c,
41b,
10555,
147,
69d,
115ef,
dd0,
1207,
79b,
858,
10588,
13ee8,
112d3,
8d9,
d5f,
100d0,
15f6,
13a5c,
de4,
1e67,
12071,
100c0,
12c60,
10d56,
af9,
10758,
10b64,
10a17,
1077a,
143d,
4ea,
10b4b,
15f9,
b9d,
15b0,
11231,
10cfe,
1154f,
10835,
10299,
1096,
1101c,
12eb,
1b7c,
1055f,
131c,
103d2,
1367,
10fde,
103de,
81f,
269,
12661,
1139e,
105e7,
12e0c,
10b84,
c1f,
d48,
3be,
10906,
12645,
110e1,
20b,
1065b,
106d0,
10ff6,
13a1,
c75,
18d7,
1030b,
117bb,
71,
b18,
122,
16c4,
7a0,
991,
121fc,
aac,
10b56,
107d0,
10a07,
1047d,
1413,
11728,
11e05,
33a,
10b9a,
1955,
127c1,
111c,
589,
10b9c,
ed7,
10a27,
c18,
12f41,
1a1e,
10de4,
12493,
113ef,
10bb3,
122d7,
83f,
1384,
e75,
61c,
10609,
114d,
12de,
1139c,
99c,
56f,
153,
10289,
bc6,
1698,
102f8,
1961,
57a,
100d2,
1128a,
10200,
268e,
119df,
11c3,
185d,
acd,
1037b,
103ab,
1024d,
10a0a,
1a5,
10ef6,
1106e,
118f5,
1131c,
13b0,
100b7,
768,
4f0,
404,
570,
11ab,
dd3,
11041,
2e2,
62c,
117d2,
9b1,
1186b,
10816,
e98,
101d2,
180,
7c6,
fd3,
16ae,
11376,
19b2,
10355,
1598,
2278,
14cc,
100b2,
1865,
843,
13ee3,
515,
6a1,
10242,
11bdc,
1ca,
10de5,
14c,
fbe,
12e54,
6c4,
1ec7,
113cf,
3f2,
10721,
187a,
10219,
1257,
10c61,
12e0,
11c84,
100d,
1139f,
b8f,
10b07,
21e,
da9,
c30,
10243,
10066,
e53,
119e7,
2ea,
ea4,
10a1b,
8a9,
1771,
10967,
10f2f,
10432,
11f55,
6f5,
10142,
1138c,
1115c,
1025f,
e7a,
10b9b,
116cc,
116a4,
106f1,
145d,
d8,
11671,
1025,
148b,
ba4,
247,
aa7,
1002a,
1213,
11ea0,
1006c,
d3e,
8eb,
10fe7,
10344,
1012,
16c3,
618,
333,
7e8,
a2c,
19df,
1aad,
111f8,
408,
125fc,
34a,
1184f,
f32,
842,
1101c,
ff7,
b37,
15d8,
704,
1281f,
702,
129d,
103c,
e15,
336f,
17ac,
16d0,
ca8,
1069d,
131d8,
116a5,
11126,
c08,
1dda,
921,
1ad6,
1b0c,
10bb0,
1460,
1a0b,
1279e,
11a7a,
13015,
b7c,
110e4,
115ef,
11cd1,
1780,
10645,
18f0,
10d5b,
81d,
b84,
10d09,
162c,
14a8,
207,
13016,
11ae5,
1083a,
1357,
12f0,
11b98,
12f5e,
1092,
100e4,
101e,
106f1,
cb8,
411,
1bf,
102ea,
fcd,
11c2a,
10e4b,
185a,
103d0,
10bc8,
45a,
11983,
10e93,
5fb,
1019b,
585,
5ea,
10073,
a71,
127,
10ba3,
10b50,
b5a,
11210,
2bb,
469,
10fad,
10333,
19a3,
11e1a,
948,
1020d,
1195c,
10812,
10df3,
12746,
3b,
1120e,
6a2,
10cf4,
13e9,
11073,
117b2,
11abd,
d44,
3467,
102cb,
1149e,
101c8,
105e5,
10003,
c42,
7ac,
12ca,
106d7,
105e0,
108d2,
1654,
14b3,
1e1a,
17a5,
104d4,
11287,
108e,
1777,
d43,
1448,
a1c,
10d9a,
102ea,
18c0,
187,
2f1,
160d,
7da,
1d3f,
fe6,
af8,
10137,
11771,
f99,
104d8,
1166,
11be3,
1851,
1085d,
112e9,
114a,
1993,
105ca,
4c2,
10b69,
10ca1,
68b,
106aa,
105ab,
cc5,
12210,
1b4,
5b4,
11f2e,
c75,
101c8,
131fb,
b94,
1d2e,
951,
213,
11ad4,
11f9b,
e22,
11c69,
1ace,
1255a,
104bf,
12a8c,
9c3,
16a5,
1001b,
8f4,
10e25,
de7,
10b16,
102aa,
cbf,
6f9,
7d8,
11011,
1e9,
12d1,
1141e,
218,
113aa,
fc5,
ee7,
120a,
11538,
11723,
116d,
1380b,
10e86,
10b1a,
1234,
109d6,
1027c,
600,
