memory_initialization_radix=16;
memory_initialization_vector=
f4d,
11b3a,
dfb,
1158,
12627,
10e09,
10921,
10fa,
3c0,
1027a,
10041,
10b25,
66f,
592,
603,
10e93,
10b3a,
108b9,
10f67,
2750,
10d90,
10f53,
1061f,
1377,
116e,
a82,
102c0,
101b7,
1207f,
4c8,
9c5,
101b8,
23c8,
1120a,
98a,
1833,
3a14,
10446,
3bf2,
2913,
15f3,
1199e,
345,
1f8e,
2177,
11d67,
1019b,
1219e,
11d77,
2378,
120d9,
d3d,
d33,
3dd,
168c,
299a,
32f1,
10bc8,
16f0,
10244,
13c9,
124e4,
1148d,
291b,
13fa9,
1944,
1f23,
10589,
1e37,
11004,
4fa2,
10151,
3353,
28c4,
b7e,
11c1f,
599,
14504,
125bc,
11487,
209f,
3e58,
128d,
1b1a,
1083c,
ec,
22d8,
12091,
1075a,
287f,
11d3c,
1088c,
190f,
1659,
1103,
20ea,
10017,
243a,
1106,
138f,
1081d,
12fc,
80f,
116df,
1143a,
5fd,
10878,
2f21,
20fd,
26de,
3353,
c3d,
1141a,
d9b,
14af,
2e7,
11db6,
1191b,
10178,
12559,
13778,
107ae,
125ba,
1064c,
12aca,
12445,
1017a,
12448,
110c2,
256e,
1114d,
10f1e,
1c63,
a6e,
185e,
13381,
11dea,
2c9e,
5fa,
1073d,
11e39,
3b79,
3a3f,
1582,
cef,
224e,
1a49,
22b3,
10379,
1bb2,
12c07,
11c82,
10398,
1e03,
d6e,
33e,
a26,
1026f,
2c6f,
16b8,
26f2,
11d7,
1055b,
22c7,
944,
10627,
33c,
863,
13a9,
33f,
3456,
160,
1033e,
2001,
12e7,
1101f,
15d9,
86f,
18f,
13028,
2321,
117c7,
25f8,
1a8,
ee0,
1cbf,
ece,
bb3,
1d9c,
119b5,
4a4,
10abc,
105b9,
d82,
27d4,
1b22,
1760,
1a14,
117c7,
36d1,
c92,
13d2,
112f2,
102f,
10c88,
11f0b,
251e,
11f63,
12ddc,
201e,
12ba1,
2a57,
609,
12eb8,
147d9,
10571,
10449,
2f4,
113a1,
119bf,
3c5,
1456,
1eed,
1c61,
1f1b,
1627,
1ca,
161d,
442,
1284b,
112be,
2588,
1132b,
10a5e,
55f,
1a25,
11926,
1f00,
13499,
12cfa,
6f6,
91c,
808,
273,
118f7,
13881,
11ba1,
a29,
25c7,
10f8b,
13a7,
249f,
8a1,
10757,
3278,
1683,
11421,
1fa5,
2320,
10977,
106bd,
11460,
104c5,
3ca2,
1038f,
34eb,
102c5,
116,
1121e,
10048,
10c82,
116b6,
1321a,
a55,
319d,
1038b,
2246,
101c9,
11775,
10cbe,
2315,
85b,
1e1d,
134d8,
11084,
10dfe,
69d,
25b5,
150,
12bb2,
10ce6,
dba,
10f56,
1fa4,
13e4b,
116ee,
5b1,
2139,
66,
13506,
10184,
12d12,
965,
1406,
1057f,
177c,
10bcc,
20bf,
301a,
11e65,
394,
111ca,
d22,
30af,
948,
a91,
2ed8,
190c,
29fb,
10b14,
10dbe,
130de,
10368,
b08,
121fb,
1303d,
12cc4,
1164e,
1561,
3318,
12d14,
101d2,
10b08,
284c,
27ad,
11ac2,
10159,
2976,
2918,
10aa3,
2a2,
1297,
2eb5,
1002a,
5c6,
109d8,
11182,
27ba,
24f1,
1d6d,
1508,
13b8,
134cd,
12a5b,
100d3,
11deb,
3072,
12ea8,
10e08,
1149a,
f9a,
29fa,
1092,
11c16,
11589,
1a2a,
208c,
12e2,
2b1c,
1003a,
11b31,
10c00,
10a35,
110ea,
fdc,
119d8,
2c75,
5fa,
121b0,
35e,
12213,
403e,
1d5c,
876,
103bf,
12250,
a5,
3687,
10a1f,
1044b,
10537,
3845,
1b14,
11e4d,
1147,
1a7e,
3016,
1175e,
3025,
48f,
1417,
10662,
100fb,
3753,
13a5,
629,
1068e,
10904,
2acd,
12b1a,
380f,
1364,
10c2,
49bb,
11ed6,
220,
16f,
e32,
d38,
10015,
1821,
10dc3,
11901,
10a05,
252,
52e,
f76,
10641,
111cb,
11dd0,
10224,
106a5,
123ef,
10a26,
10e3d,
115a2,
11f4a,
11117,
104a5,
1011d,
73f,
1bdb,
11159,
104de,
11c22,
10744,
10e47,
10368,
1136e,
969,
11632,
12a5,
1028f,
33,
11fe6,
e,
13810,
1032a,
10ce6,
25da,
12b99,
957,
2b,
521,
d0d,
12641,
1c9,
10580,
a5d,
1c22,
12f1,
131af,
118a2,
12c48,
11794,
10425,
3a2,
8a,
11009,
12258,
1170a,
2afb,
134c,
d0c,
1000e,
c6d,
23c5,
3daa,
3e6b,
11b5,
105ff,
12cab,
774,
11161,
a91,
795,
12c34,
1243b,
11324,
2965,
11eb4,
11a8c,
89c,
1072f,
1117,
446,
122d5,
12704,
12465,
12bd6,
2436,
2312,
3160,
2499,
1576,
3b72,
24c0,
3493,
20aa,
f04,
1ac4,
194b,
b1d,
3d4a,
101a2,
1028b,
1019,
10b59,
10369,
10b2b,
104d6,
12a78,
13199,
12e4c,
116b2,
101eb,
10144,
10fe1,
11a55,
113d3,
2202,
cba,
1425,
2c0e,
11a99,
12184,
11b92,
2722,
3748,
37a5,
11221,
89c,
4ef,
10066,
156e,
3987,
1d81,
264a,
32ae,
1395,
1081a,
12e7b,
1293e,
96,
d22,
10aa8,
11771,
107d2,
11a6c,
42a,
10aed,
132ed,
1439,
11d23,
20c3,
10514,
a94,
13763,
12faf,
3a86,
11193,
11ba0,
f5c,
30f,
117ce,
3d8e,
11838,
342e,
2690,
100e9,
24aa,
e17,
18fa,
2b7d,
125,
10b72,
983,
58b,
20a4,
11b8b,
95c,
1668,
11e8,
11d8,
116b7,
2dc0,
1053e,
33ca,
108cb,
1a02,
294f,
10637,
2ded,
11f2d,
10389,
2dcc,
2a52,
27f,
113aa,
1187e,
1f53,
2449,
f02,
104ef,
ff2,
3170,
109e8,
62c,
10b5e,
117d6,
19bd,
11204,
122e4,
13e31,
17d,
12871,
192c,
14797,
12922,
1011a,
230d,
13193,
12dc9,
1191c,
10fb0,
103cb,
21f6,
233d,
2a44,
3bd1,
c68,
107c9,
2557,
28ae,
1025c,
119de,
2ed,
1719,
10bfe,
12a7,
10c74,
10a0f,
1f75,
d7b,
1202c,
136ea,
10e27,
27d,
11f62,
20e8,
138cb,
13d70,
10952,
10f79,
f5c,
2840,
258,
11247,
2fd9,
2549,
2cbf,
150a,
1d6d,
107bf,
306c,
84d,
10cae,
bc1,
1d0e,
14d0,
2d8,
1643,
270d,
376d,
2644,
10919,
107e3,
77d,
2f1,
10615,
10517,
333,
104c0,
14062,
1122b,
2f70,
11415,
11320,
11e51,
9fb,
1874,
121,
11274,
1149f,
11835,
1cd5,
242e,
10748,
1241e,
2077,
28cf,
ef9,
b2c,
9e5,
4749,
105d0,
1018d,
1b2a,
1748,
1013a,
136a1,
e6a,
10159,
10244,
2504,
5ff,
126b,
100e1,
11e3,
1ad8,
11a5b,
11c7b,
33d,
bcc,
10773,
107e4,
12ea7,
66b,
114f6,
12436,
1330f,
261c,
1dfa,
10bad,
b3b,
1174f,
120d3,
1186a,
1294d,
102e9,
1471a,
14f08,
15466,
11707,
10ebd,
11b30,
11430,
1000e,
12b80,
11905,
25b3,
11f3d,
961,
26fc,
12432,
655,
3222,
c6e,
1db5,
c87,
111ad,
109c5,
1a88,
11b1b,
10280,
de2,
13a1e,
13028,
fde,
2316,
2da2,
10c81,
123b6,
1553,
f51,
2b3d,
2c95,
c8e,
1c58,
1289e,
1c4e,
439,
dc7,
192d,
74a,
18c9,
472d,
2028,
3929,
10d50,
1be3,
47af,
10efb,
40c8,
11479,
135c3,
10777,
11081,
569,
12ece,
10f64,
11786,
11294,
10f01,
105f9,
102f7,
1360c,
114f4,
1900,
535,
2721,
3c95,
190a,
ee8,
11067,
3958,
1e7,
1eb7,
119d,
4cf,
10e40,
12a71,
11331,
10587,
114fd,
12c51,
136ca,
11ef1,
126fa,
12277,
1dc8,
111a0,
15b3,
b2e,
129f7,
13479,
132ab,
1354b,
10797,
12b,
10296,
11b8f,
11907,
873,
311e,
27af,
21b3,
1d80,
191b,
10ddf,
164a,
1816,
10d3d,
8d2,
10f8a,
18ac,
2e72,
171c,
14fe,
11f5,
2e5a,
441f,
2918,
1490,
b02,
1c48,
2545,
1fc5,
ec7,
cd,
1105c,
100ef,
e1,
c5c,
11a0b,
11998,
bc,
1b7a,
113d0,
1213f,
10920,
10f24,
11a31,
1115f,
11792,
10eab,
10f38,
1291d,
6e6,
22b0,
11f56,
13092,
112ef,
377a,
24a3,
105f3,
12704,
3b6f,
4aa3,
402d,
105fd,
10a08,
2471,
1f3b,
29af,
2c,
129a9,
12c92,
b1b,
165b,
120e6,
11ca9,
10852,
2346,
2d62,
12b60,
86b,
3357,
100d,
1049b,
1036d,
10e1,
11c7,
10ea5,
129f0,
1133b,
266a,
deb,
38c,
110c3,
1b4e,
10ed6,
1cfc,
2194,
1343f,
12392,
2eb4,
124aa,
119,
11918,
bd1,
10543,
1160b,
11593,
6bf,
1162a,
10423,
10838,
1012b,
21d2,
10a20,
112f4,
13088,
1d0e,
7dc,
233f,
1003,
3853,
4a37,
11362,
18cf,
2b8b,
3df5,
3fb6,
7e8,
103b3,
2316,
221c,
109ec,
149b,
114b,
1236a,
11ce1,
112ac,
a1b,
11f7,
10ccc,
11185,
6a1,
12800,
1254a,
111e8,
13b31,
4bb,
31b1,
12795,
1504b,
11eeb,
10472,
1042,
10ab9,
12f5b,
35e,
647,
3be9,
10cb4,
525,
1d9e,
1051a,
1a1a,
13275,
101ff,
30b4,
1003,
1f28,
1a3c,
60f,
245d,
21af,
1084c,
2d55,
6ed,
2707,
169d,
12094,
473,
1973,
1d1,
14c09,
118fe,
265a,
10206,
12988,
1fe,
22ca,
8f6,
12ce5,
104b1,
10499,
112b6,
104c2,
1224b,
10b71,
10c00,
370b,
12667,
10b,
ebb,
2a16,
347f,
511,
1058e,
119f8,
48a,
d09,
155,
17e4,
48e,
109e6,
17e1,
247e,
297c,
108e4,
1167,
2e5a,
24d,
db7,
25bf,
7,
10de2,
95d,
f0c,
61f,
13f0,
10286,
286,
124d0,
117c9,
10965,
c80,
10ddb,
ed6,
131b2,
2d9c,
16fe,
120e6,
123bf,
10ec0,
1100b,
1e1,
164a,
1d67,
2f90,
11175,
12489,
10d35,
1066c,
10ec2,
2f92,
273c,
1b7c,
34a4,
3891,
3003,
12914,
1015,
1a14,
1097c,
174b,
1e8c,
10897,
11410,
548,
104a0,
127d5,
2452,
250d,
10aae,
b41,
111b2,
11864,
1237a,
649,
3034,
2408,
2f80,
10865,
1123,
41c9,
d3b,
3808,
6bb,
10e0c,
101f7,
16f,
1001d,
89a,
1c8e,
121ca,
12fcb,
45a,
19f0,
23a5,
2d12,
24c7,
1346,
12c49,
1a60,
106b4,
1915,
101a4,
1158d,
12ecd,
113f9,
2cf3,
1100,
10af4,
10a7c,
10049,
146c,
ca3,
100b6,
655,
ae2,
11a03,
1ef,
17af,
2082,
128d8,
13121,
10375,
1400,
2469,
1423,
115c1,
1060f,
259c,
1083d,
188d,
2c67,
1072f,
5aa,
1246,
126ca,
1026b,
16c4,
11ee,
2884,
123f6,
11081,
10258,
12034,
1357b,
1389f,
219,
1b22,
c71,
10cee,
122b4,
120ee,
125e8,
12614,
10bd0,
1078e,
103c2,
10efa,
2172,
1bc3,
10534,
1a62,
3ce,
17db,
1fc0,
2712,
c86,
1c5d,
2a40,
132d4,
104bc,
e2,
131fe,
107fd,
11f02,
13ef0,
12592,
da0,
113a4,
116ea,
12a3f,
1045c,
212,
10e45,
4a7,
109d4,
1f10,
1df8,
26d0,
277c,
164b,
3210,
2592,
3459,
3aaf,
47fc,
554e,
2e14,
4b8,
10b8f,
983,
108a9,
12c9d,
129f3,
12134,
12434,
157b3,
113b0,
10a13,
102f,
173c,
1270f,
1d12,
1eea,
1e73,
1151c,
1127d,
572,
1165,
1e01,
30e6,
1b0a,
442,
1ad3,
3645,
3e85,
3874,
2274,
10ea0,
87d,
1540,
10cde,
10d2b,
11b93,
1004e,
3b5,
120f8,
129d,
21e3,
1f05,
16e7,
109e8,
ca5,
1386f,
4e7,
11f6c,
110a4,
11bc5,
12d7b,
157df,
117bb,
11c53,
500,
1289b,
10e03,
12b11,
4127,
10f6,
dc1,
d48,
cde,
1495,
10aae,
12017,
55f,
4eaa,
3d59,
10134,
108cf,
12008,
1002,
510b,
a80,
101ac,
25f3,
10467,
282d,
10e2a,
1101e,
1799,
1ea2,
de,
11e90,
1f72,
4a4f,
11d31,
134ba,
10804,
419c,
2d49,
11533,
12c34,
117ac,
1818,
13454,
10bd7,
10cab,
1083e,
1106,
12795,
1308e,
47d,
12bda,
10a55,
12d48,
18a8,
dcc,
1097d,
1175e,
1171e,
398,
66,
1149e,
264c,
10b8d,
10260,
10c27,
3ad1,
4453,
11b6,
11068,
11be7,
10e30,
12426,
114af,
10f50,
2048,
119a5,
102eb,
289f,
3111,
c16,
3a9,
1056f,
16dd,
3c9e,
117fb,
20e1,
3548,
26a,
19af,
757,
129f3,
a55,
10203,
11261,
179,
29ef,
100db,
402c,
26d6,
103e9,
1c2f,
e21,
b75,
124cf,
ed9,
1112e,
114f4,
11f08,
25af,
73b,
11a31,
19c0,
10bc6,
a4e,
1951,
9c8,
14067,
1522a,
1123b,
101a9,
11de,
1979,
357c,
f37,
10d24,
a91,
22bb,
10f6f,
2916,
12b00,
2343,
10dbd,
11e0f,
489,
10cc4,
133e,
196b,
12173,
10b1e,
125e9,
eb3,
121a5,
181a,
8e5,
115c1,
1061d,
1a3b,
693,
10192,
e4,
1386,
ca9,
1b1c,
108ad,
104c1,
aac,
ad9,
2a71,
1a6a,
210e,
1174a,
11164,
814,
10121,
110e7,
32f,
193,
1127c,
163f,
1577,
10f0,
a72,
6db,
4e1a,
28c9,
a5d,
1ee4,
11445,
135be,
11d19,
101dd,
2fba,
f61,
11d44,
475,
ad7,
21e8,
2bf,
3285,
28e,
