memory_initialization_radix=16;
memory_initialization_vector=316a 32f3 3147 3533 3015 2b42 2880 2e2c af34 2f2b a7d2 af19 ac91 ad51 af90 ac59 b2d2 ae05 af21 adf9 b36a a14f af9b af44 b0ff b020 ae63 2c18 b4c4 b274 2e20 b153 acb4 2d9e b327 30c7 2c05 2cee 2108 2c55 a779 a6f3 a8a6 24c1 300f 2c07 2e8f 33c6 321b 2985 2c0a 297b 332b 3454 3061 3078 2854 3290 3498 2983 ad02 a585 b101 adc3 b0b5 b35a b48a acf2 b25d b314 b180 b235 b4b7 b2f9 aa27 a6aa ad02 ab0c b2e0 a164 2423 2f22 acec 2f90 b34e 3461 3483 a4ca 235a 2e73 32d5 3504 31ad 2eeb 32d5 338b 2a86 3390 2cec 1d56 aa94 2dec b125 add2 ae18 b455 b0b8 acd4 ae61 2d74 8524 2d04 af77 ac40 ab5d 26ae a891 b0f7 20b9 28ad 2827 9f4b a187 3185 307e 310d 3150 3358 264a a4dd 3091 32ad 3151 34fa 102d 30ad 2ede 3445 3271 29d3 313f 3248 3423 313d 3035 294b 1116 3350 a904 289f;
